<unk>	0
<s>	0
</s>	0
▁user	-3.36884
s	-3.69535
▁the	-3.86492
▁to	-3.91309
▁i	-4.13535
▁a	-4.21477
▁	-4.29157
▁you	-4.4277
▁in	-4.62468
▁and	-4.63911
▁for	-4.65903
ing	-4.75838
▁of	-4.778
▁s	-4.8149
▁is	-4.81682
▁my	-4.88378
▁it	-4.92591
▁t	-5.06971
▁love	-5.0794
ed	-5.09707
▁be	-5.20074
▁on	-5.21106
▁this	-5.24662
▁with	-5.28693
▁day	-5.31182
y	-5.43209
▁so	-5.44624
▁that	-5.47969
▁all	-5.49949
▁me	-5.52545
d	-5.55879
▁are	-5.56534
▁amp	-5.64538
e	-5.65546
▁happy	-5.6974
▁your	-5.69893
▁we	-5.70741
▁have	-5.71533
▁am	-5.72343
▁at	-5.73768
▁can	-5.80563
▁m	-5.8874
▁just	-5.90042
▁do	-5.90456
▁what	-5.93271
▁u	-5.93629
▁not	-5.9367
▁will	-5.95323
▁when	-5.95849
▁like	-5.99229
▁life	-6.0142
▁new	-6.08724
▁time	-6.09313
ly	-6.10861
▁but	-6.11453
▁up	-6.14453
▁today	-6.15089
▁from	-6.16535
▁get	-6.18006
▁now	-6.2016
▁no	-6.21418
▁out	-6.25324
▁thankful	-6.25445
▁positive	-6.25986
▁good	-6.27154
▁bihday	-6.29722
▁see	-6.29982
▁was	-6.32367
▁people	-6.33663
▁how	-6.34508
t	-6.35298
▁about	-6.35409
▁our	-6.3557
a	-6.37003
▁as	-6.37281
▁go	-6.38314
▁by	-6.39673
▁don	-6.40016
▁one	-6.41356
▁re	-6.44519
er	-6.4571
▁they	-6.45994
▁smile	-6.4778
▁want	-6.48173
n	-6.48827
▁more	-6.51736
▁who	-6.54845
▁take	-6.56645
▁if	-6.58025
▁he	-6.59249
▁father	-6.61583
▁summer	-6.63707
▁fun	-6.6373
▁b	-6.65489
▁work	-6.65714
▁weekend	-6.66111
m	-6.66572
▁us	-6.66717
▁an	-6.67179
day	-6.71985
▁follow	-6.72243
▁healthy	-6.73034
▁family	-6.73683
▁need	-6.73965
▁way	-6.77873
▁great	-6.78343
▁friday	-6.78412
▁got	-6.78904
▁make	-6.79433
▁best	-6.80252
▁there	-6.80543
▁bull	-6.8184
▁has	-6.82415
▁d	-6.82748
▁beautiful	-6.83403
▁or	-6.85196
▁why	-6.85561
es	-6.86548
▁here	-6.88246
o	-6.88487
▁first	-6.89393
▁his	-6.90589
▁world	-6.90653
▁going	-6.91378
▁only	-6.91409
▁days	-6.92227
▁friends	-6.93206
▁their	-6.93373
▁music	-6.93385
▁back	-6.93666
▁know	-6.93823
▁sad	-6.95966
▁morning	-6.96775
▁some	-6.97099
r	-6.97372
▁never	-6.9743
▁wait	-6.9822
▁ur	-6.99219
▁orlando	-7.00349
▁home	-7.0132
▁tomorrow	-7.01877
really	-7.02513
▁cute	-7.02604
▁think	-7.02664
▁week	-7.02875
▁her	-7.03402
▁been	-7.05457
▁very	-7.05942
on	-7.06316
▁trump	-7.06865
▁w	-7.07196
▁fathersday	-7.08193
▁night	-7.08267
▁right	-7.08403
▁feel	-7.08453
▁affirmation	-7.08654
▁happiness	-7.10603
▁off	-7.12012
life	-7.12994
▁she	-7.13344
▁model	-7.13931
▁girl	-7.13935
▁much	-7.14396
▁r	-7.14551
▁live	-7.14569
▁too	-7.14757
▁being	-7.14875
▁after	-7.16003
▁sunday	-7.16175
▁blog	-7.1676
i	-7.17498
▁ve	-7.18307
▁sta	-7.19032
▁had	-7.21475
▁over	-7.21621
▁well	-7.21759
▁last	-7.23746
▁f	-7.24058
▁man	-7.24634
▁always	-7.25112
▁next	-7.25584
in	-7.26436
ies	-7.26817
▁them	-7.275
▁come	-7.27601
▁year	-7.28466
▁even	-7.28577
▁black	-7.29478
▁th	-7.29554
me	-7.29952
▁still	-7.30705
▁dad	-7.3073
▁amazing	-7.30993
▁find	-7.3148
▁finally	-7.31696
h	-7.32057
▁because	-7.32057
▁look	-7.32295
▁little	-7.3299
▁pay	-7.33893
▁game	-7.34586
▁thank	-7.34881
▁food	-7.35276
▁selfie	-7.35676
▁these	-7.35754
▁gold	-7.36272
▁thanks	-7.36549
ry	-7.37666
▁free	-7.37777
▁c	-7.37857
▁guy	-7.38637
▁n	-7.39298
▁let	-7.39857
▁feeling	-7.40092
▁than	-7.40648
▁things	-7.40856
▁ready	-7.4121
▁sun	-7.4165
▁p	-7.4172
▁silver	-7.41754
▁gt	-7.4204
▁him	-7.4258
▁old	-7.43049
▁via	-7.43337
▁help	-7.43764
heal	-7.43766
▁bear	-7.44062
▁show	-7.44833
▁fathers	-7.452
ex	-7.4534
▁everyone	-7.46618
ity	-7.46924
▁enjoy	-7.46955
▁makes	-7.47142
ion	-7.47228
▁again	-7.47819
▁watch	-7.48142
▁tonight	-7.48144
▁blessed	-7.48726
▁god	-7.48782
▁white	-7.48924
▁ever	-7.49125
▁hope	-7.49553
▁place	-7.49791
▁stop	-7.49841
▁k	-7.49842
▁l	-7.50193
▁hate	-7.50676
▁would	-7.50981
▁climb	-7.51175
▁every	-7.5311
▁should	-7.53958
▁another	-7.53966
▁looking	-7.54078
▁ll	-7.54185
ysto	-7.54391
▁down	-7.54526
▁getting	-7.54577
▁girls	-7.55121
▁keep	-7.55706
▁e	-7.562
▁peace	-7.5626
▁video	-7.5676
▁many	-7.56923
▁dog	-7.57226
▁most	-7.57768
▁then	-7.58073
▁tweet	-7.58485
▁h	-7.60671
▁baby	-7.60771
▁say	-7.60823
▁saturday	-7.60839
▁wedding	-7.60976
▁long	-7.61806
▁heal	-7.62158
▁news	-7.6225
altwa	-7.63047
▁any	-7.63224
▁team	-7.63294
it	-7.63479
l	-7.63959
▁made	-7.64056
▁polar	-7.6406
▁city	-7.64134
or	-7.64181
▁friend	-7.64754
▁g	-7.65132
▁where	-7.65903
al	-7.66044
▁beach	-7.66312
▁big	-7.66832
▁insta	-7.67028
c	-7.68376
▁might	-7.69602
▁before	-7.69999
▁funny	-7.70761
▁cool	-7.70786
▁lol	-7.71367
▁play	-7.71526
▁believe	-7.71622
ers	-7.71713
▁school	-7.71862
▁hea	-7.72209
▁simulat	-7.72796
▁someone	-7.73871
▁coming	-7.7388
ce	-7.74448
▁o	-7.74497
▁excited	-7.7452
is	-7.7515
▁instagood	-7.75491
▁may	-7.75548
▁st	-7.75706
▁rip	-7.76326
▁awesome	-7.76662
▁bad	-7.767
▁real	-7.77257
▁quote	-7.77286
▁monday	-7.7732
▁nothing	-7.7788
▁its	-7.78028
▁nice	-7.78092
▁years	-7.7901
▁better	-7.79211
able	-7.79435
▁did	-7.79468
▁give	-7.79546
▁angry	-7.79642
▁travel	-7.79855
▁attack	-7.79857
▁moment	-7.79964
▁women	-7.80127
▁into	-7.80452
▁true	-7.80562
▁having	-7.80913
▁please	-7.81093
▁fashion	-7.8115
▁around	-7.81483
▁end	-7.81818
▁yes	-7.82511
ever	-7.82592
▁pa	-7.8314
▁found	-7.83388
▁america	-7.83539
▁y	-7.83562
▁direct	-7.84026
▁holiday	-7.84101
▁proud	-7.85128
▁june	-7.85134
▁kids	-7.8557
▁were	-7.85656
▁grateful	-7.85819
▁miss	-7.86628
▁change	-7.86648
ous	-7.87148
▁lt	-7.88381
▁try	-7.88645
▁hot	-7.88829
▁wish	-7.90413
▁motivation	-7.90869
▁until	-7.91104
▁such	-7.91642
▁un	-7.91709
▁im	-7.92195
▁stay	-7.92251
▁two	-7.92465
▁hair	-7.93331
▁super	-7.93831
▁lost	-7.94074
p	-7.94188
▁dominate	-7.95038
▁something	-7.95336
▁face	-7.95339
▁waiting	-7.96281
▁soon	-7.96302
▁left	-7.96661
▁boy	-7.96959
▁euro	-7.97216
▁without	-7.976
ness	-7.98348
▁strong	-7.98466
st	-7.98622
g	-7.9885
ng	-7.9921
k	-7.99495
▁won	-7.99507
▁book	-7.99629
us	-7.99767
▁top	-8.00148
▁watching	-8.00449
▁gay	-8.00529
▁other	-8.01035
time	-8.01193
▁person	-8.01405
u	-8.01846
▁living	-8.01966
▁rac	-8.02451
▁weeks	-8.02753
▁oh	-8.03238
▁forward	-8.03271
▁racist	-8.03301
▁hard	-8.03342
▁listen	-8.0353
▁post	-8.03948
▁could	-8.04139
▁joy	-8.04239
▁health	-8.04648
▁playing	-8.04875
▁check	-8.04879
▁sleep	-8.04991
▁thing	-8.05102
▁own	-8.05102
▁hear	-8.05951
▁x	-8.05958
▁those	-8.06121
et	-8.06161
▁lovely	-8.06243
▁job	-8.06322
▁making	-8.06457
▁car	-8.06459
to	-8.0652
▁mom	-8.06685
▁sex	-8.07007
▁song	-8.07294
▁twitter	-8.07332
▁doing	-8.07351
of	-8.07675
▁young	-8.07702
▁call	-8.08396
▁leave	-8.0855
▁retweet	-8.08604
▁mind	-8.09064
the	-8.09981
▁photooftheda	-8.10056
love	-8.10091
▁obama	-8.10451
▁buff	-8.10476
yourself	-8.10722
way	-8.10766
▁fuck	-8.10984
ve	-8.12195
alo	-8.124
▁talk	-8.12443
▁libtard	-8.12499
▁house	-8.1254
▁wow	-8.12548
▁season	-8.12559
▁head	-8.12654
▁shooting	-8.12851
▁didn	-8.12862
▁sexy	-8.13122
▁suppo	-8.13152
▁full	-8.13224
▁everything	-8.14253
▁yeah	-8.14259
b	-8.14392
▁lot	-8.14425
▁thursday	-8.14519
se	-8.14642
an	-8.14692
▁dance	-8.15282
▁run	-8.15863
en	-8.16354
▁mean	-8.16369
▁open	-8.16518
▁men	-8.16597
▁quotes	-8.16955
▁dream	-8.17048
▁fitness	-8.17167
▁light	-8.17461
and	-8.17742
▁london	-8.17864
▁yet	-8.17967
▁perfect	-8.18267
▁shop	-8.18275
▁win	-8.18384
▁photo	-8.19172
less	-8.19264
ment	-8.19286
▁children	-8.19314
▁money	-8.19586
▁beauty	-8.19737
girl	-8.20013
▁body	-8.20386
▁bong	-8.20454
▁same	-8.20585
▁fan	-8.20697
▁success	-8.21055
▁woman	-8.21395
▁act	-8.21636
▁mood	-8.21875
▁doesn	-8.21936
▁bing	-8.22715
▁truth	-8.23732
▁must	-8.24018
f	-8.24092
▁ticket	-8.24125
▁read	-8.24215
▁tear	-8.24236
ful	-8.24486
▁use	-8.25142
▁shit	-8.25277
▁does	-8.25469
▁pretty	-8.25849
▁few	-8.25916
▁dads	-8.25916
▁month	-8.26111
▁looks	-8.2647
▁gonna	-8.26819
▁complete	-8.26869
out	-8.269
▁put	-8.26925
up	-8.27275
▁cat	-8.2746
▁co	-8.2768
▁politic	-8.27713
▁ha	-8.2783
▁buy	-8.28493
ation	-8.28693
▁na	-8.28698
▁gift	-8.28925
▁laugh	-8.2919
therapy	-8.29219
▁depression	-8.29382
▁gorilla	-8.29656
▁cold	-8.29895
▁working	-8.299
▁happen	-8.29988
▁dead	-8.3006
▁thought	-8.30077
▁v	-8.30189
▁relax	-8.30194
▁hours	-8.30229
▁high	-8.30259
le	-8.30969
▁couple	-8.3108
▁hu	-8.3134
▁wednesday	-8.31878
▁country	-8.32787
▁order	-8.32835
already	-8.32891
▁porn	-8.33292
▁words	-8.3335
▁kill	-8.33406
▁says	-8.33528
▁reach	-8.33735
▁said	-8.33823
▁through	-8.33896
▁drink	-8.34042
▁power	-8.34114
est	-8.34122
▁child	-8.34135
▁poet	-8.34472
▁inspiration	-8.34757
▁ma	-8.34944
▁whil	-8.34998
▁tell	-8.35091
away	-8.35312
▁late	-8.35374
▁environment	-8.35511
▁share	-8.3573
▁liberal	-8.35736
▁crazy	-8.35866
▁far	-8.36167
▁remember	-8.36622
against	-8.36645
▁uk	-8.36872
▁coffee	-8.36932
at	-8.37432
▁blue	-8.37637
▁race	-8.37757
▁omg	-8.37762
▁pm	-8.38611
▁minds	-8.38843
▁ppl	-8.389
▁together	-8.39155
▁each	-8.3926
▁celebrate	-8.4022
▁since	-8.40232
music	-8.40417
▁picture	-8.40534
orlando	-8.40537
bt	-8.40627
▁adapt	-8.41124
▁business	-8.41341
▁gun	-8.41651
▁care	-8.41722
▁sweet	-8.41805
▁de	-8.41838
▁green	-8.42099
▁enough	-8.42398
▁official	-8.42517
▁disney	-8.43067
▁also	-8.43417
▁rest	-8.43505
▁red	-8.43509
▁loving	-8.43737
▁gone	-8.44035
▁single	-8.44081
▁la	-8.44211
▁almost	-8.44497
▁wonderful	-8.44528
▁kind	-8.44541
▁close	-8.44553
▁hour	-8.4466
▁animal	-8.44751
man	-8.45164
▁meet	-8.45376
▁which	-8.45681
▁mad	-8.45904
▁comment	-8.45909
▁flag	-8.45976
▁yay	-8.46874
▁alone	-8.47078
▁media	-8.4711
▁self	-8.47255
▁hey	-8.47547
▁join	-8.47642
z	-8.47737
▁visit	-8.47798
▁under	-8.47915
▁movie	-8.47919
land	-8.47958
▁conference	-8.48075
▁lifestyle	-8.48474
▁gym	-8.49282
▁story	-8.49352
▁sorry	-8.49643
▁isn	-8.49695
▁tuesday	-8.49719
▁delete	-8.49954
▁times	-8.50278
▁social	-8.50404
▁yo	-8.50432
▁loved	-8.50589
▁flowers	-8.51118
w	-8.51462
▁anything	-8.51613
▁rain	-8.51694
▁nature	-8.51869
▁j	-8.52339
▁whatev	-8.52357
▁bring	-8.52364
▁trip	-8.52391
▁lgbt	-8.52644
▁finish	-8.52664
▁lead	-8.52727
▁nude	-8.52902
▁wrong	-8.52911
v	-8.52941
x	-8.53018
▁myself	-8.53394
▁both	-8.53657
▁hand	-8.53666
▁months	-8.54031
▁others	-8.5406
▁nba	-8.54148
▁victim	-8.54157
▁else	-8.54206
▁tired	-8.54236
▁sunshine	-8.5443
▁comes	-8.55342
▁running	-8.55568
photography	-8.55595
▁matter	-8.5602
▁style	-8.56492
▁side	-8.56763
▁daughter	-8.56801
▁vote	-8.56839
▁event	-8.56968
▁thoughts	-8.57102
▁forever	-8.57181
▁fact	-8.57198
▁national	-8.57405
▁ca	-8.5742
▁update	-8.57474
▁son	-8.57582
re	-8.57959
▁allah	-8.58133
▁early	-8.58246
▁daddy	-8.58836
▁nerv	-8.59262
▁useful	-8.59311
▁da	-8.595
▁word	-8.59508
▁sea	-8.59614
▁hello	-8.59643
▁sure	-8.59945
ma	-8.60032
▁daily	-8.60168
▁special	-8.60204
▁vacation	-8.60288
▁saw	-8.6055
▁came	-8.60601
▁actually	-8.6061
▁usa	-8.60738
oil	-8.60886
▁lives	-8.6126
eets	-8.61273
▁pic	-8.61784
▁culture	-8.61814
like	-8.61908
▁muslim	-8.61968
▁set	-8.62003
▁chill	-8.62217
▁design	-8.62718
▁empty	-8.63353
▁sick	-8.63451
▁human	-8.63454
▁sunny	-8.63575
▁prayfor	-8.63579
ic	-8.63838
▁learn	-8.6403
▁deletetw	-8.64097
▁park	-8.64214
▁anti	-8.64644
▁break	-8.65049
▁br	-8.65077
▁less	-8.65204
▁cause	-8.65716
▁app	-8.65938
▁turn	-8.66123
ay	-8.66269
▁lunch	-8.66327
▁seem	-8.66589
▁become	-8.66796
▁walk	-8.67274
▁instagram	-8.67463
▁anyone	-8.67642
▁star	-8.68067
▁garden	-8.6846
▁hardcore	-8.68975
▁gbp	-8.68983
▁yester	-8.69031
▁parent	-8.69076
▁student	-8.69154
▁education	-8.69256
tic	-8.69496
▁date	-8.69586
▁whole	-8.69998
▁finding	-8.70052
▁ht	-8.70112
▁reading	-8.70354
▁sometime	-8.70423
ne	-8.70473
violence	-8.70482
▁goodmorning	-8.70512
▁south	-8.70545
▁makeup	-8.70701
▁smiling	-8.70765
▁aww	-8.70781
▁arrive	-8.70817
▁smiles	-8.71084
▁sm	-8.71201
▁view	-8.7123
ar	-8.71465
▁small	-8.71754
▁tgif	-8.71982
▁depressed	-8.72006
▁favorite	-8.72045
▁miami	-8.72249
▁ask	-8.72447
▁future	-8.7245
▁president	-8.72537
▁ok	-8.72875
▁bed	-8.72933
▁dont	-8.73046
▁di	-8.73105
▁treat	-8.73218
▁lucky	-8.73448
▁shopping	-8.73498
▁hit	-8.73567
▁damn	-8.73587
▁cant	-8.73906
▁class	-8.74921
▁impoant	-8.75016
▁cry	-8.7508
▁went	-8.7557
my	-8.76032
▁move	-8.76051
▁joke	-8.76328
rs	-8.76435
▁death	-8.76492
▁needs	-8.76516
▁target	-8.76551
▁understand	-8.76589
▁safe	-8.76722
▁american	-8.7696
▁reason	-8.77078
▁everyday	-8.77127
▁problem	-8.77509
▁film	-8.77614
▁point	-8.78011
▁football	-8.78194
▁anxiety	-8.78231
▁present	-8.78308
▁florida	-8.78372
▁eat	-8.78433
ought	-8.78474
▁fresh	-8.78497
for	-8.78499
am	-8.78677
▁sho	-8.78933
▁rock	-8.78956
▁anymor	-8.79027
▁booked	-8.79191
▁color	-8.79347
all	-8.7948
▁pray	-8.79648
▁vs	-8.79707
ive	-8.79741
▁guess	-8.79832
▁episode	-8.79929
▁development	-8.80001
▁tv	-8.80046
▁boys	-8.80262
latest	-8.80315
▁line	-8.80384
▁melancholy	-8.81391
▁thankyou	-8.81528
▁though	-8.81575
▁evening	-8.81622
happy	-8.81661
▁name	-8.81709
▁welcome	-8.81875
▁fucking	-8.82584
▁dj	-8.82611
▁follower	-8.82619
▁web	-8.82662
▁able	-8.82734
▁wishing	-8.82886
▁sjw	-8.8305
▁broken	-8.83206
▁vine	-8.83304
▁sister	-8.83359
▁group	-8.8342
▁queen	-8.83509
▁conce	-8.83735
▁begin	-8.83949
▁birds	-8.84168
with	-8.84353
▁fo	-8.84483
▁dear	-8.84639
▁once	-8.84718
▁maybe	-8.84827
▁picofthe	-8.84922
▁ex	-8.84981
▁mass	-8.84991
▁freedom	-8.85019
ting	-8.85073
▁xxx	-8.85184
▁fast	-8.85192
▁water	-8.85194
▁bit	-8.85207
▁hi	-8.85215
▁snapchat	-8.85322
▁later	-8.85427
▁lo	-8.85477
where	-8.8549
ism	-8.85666
os	-8.85678
th	-8.85732
▁mountain	-8.85883
ary	-8.86005
▁list	-8.86174
▁fit	-8.8619
▁al	-8.86199
▁surprise	-8.86306
▁hillary	-8.86386
▁friendship	-8.86516
▁relationship	-8.86528
▁traged	-8.86661
as	-8.86704
tion	-8.86815
▁nyc	-8.86871
▁simple	-8.87005
▁accept	-8.87146
▁control	-8.87293
baby	-8.87502
do	-8.87702
▁ju	-8.88011
▁missing	-8.88138
▁familie	-8.88216
▁kid	-8.88347
▁tags	-8.88421
ts	-8.88453
▁pathetic	-8.88515
▁history	-8.88563
▁police	-8.88836
▁sign	-8.88864
▁mo	-8.88978
▁shot	-8.89151
il	-8.89199
▁final	-8.89416
be	-8.89651
▁launch	-8.8977
▁save	-8.89814
▁ramadan	-8.90069
▁brother	-8.90172
▁cannot	-8.90249
▁yr	-8.90291
▁pre	-8.90389
dev	-8.90397
▁voice	-8.9041
▁survive	-8.90447
▁memories	-8.90469
▁spend	-8.90473
fest	-8.90609
ia	-8.90625
▁moving	-8.9068
age	-8.90832
▁dark	-8.90841
▁step	-8.90919
na	-8.91217
▁ago	-8.91263
▁wife	-8.91621
▁choose	-8.91928
▁half	-8.91962
ie	-8.92124
▁respect	-8.92185
▁usd	-8.9219
▁account	-8.92236
▁yoga	-8.9228
▁phone	-8.92283
▁anniversar	-8.92342
▁state	-8.92366
▁prayers	-8.92602
▁hold	-8.92706
▁soul	-8.92725
▁mine	-8.92919
▁guns	-8.93046
▁youtube	-8.93285
▁cake	-8.93348
ance	-8.93527
▁hat	-8.9372
till	-8.93734
▁easy	-8.93847
▁poor	-8.93917
▁serious	-8.93964
▁low	-8.94028
▁taking	-8.94188
▁agree	-8.94277
▁cheer	-8.94324
▁office	-8.94383
▁woh	-8.94522
co	-8.94609
▁meeting	-8.947
weather	-8.94716
▁hill	-8.94854
▁wa	-8.94911
lly	-8.95077
live	-8.95376
te	-8.95576
▁teen	-8.95584
▁nd	-8.95719
▁flight	-8.95751
▁goals	-8.95774
▁camp	-8.9582
▁pass	-8.96058
▁saying	-8.96217
▁eyes	-8.96579
▁road	-8.96855
▁dogs	-8.96971
▁racis	-8.97058
▁mother	-8.97176
▁speak	-8.97213
▁send	-8.97335
you	-8.97381
▁die	-8.97689
▁along	-8.97791
▁bigot	-8.98079
▁le	-8.9817
▁enjoying	-8.98232
boy	-8.98747
▁vegan	-8.98972
▁ass	-8.99304
▁homes	-8.99389
▁despite	-8.99454
▁disappoint	-8.99456
▁organization	-8.99466
▁breakfast	-8.99504
▁afternoon	-8.99512
▁question	-8.99522
mood	-8.99536
▁community	-8.9964
▁boyfriend	-8.99744
king	-8.99796
▁stuff	-8.99797
▁used	-8.99814
▁pizza	-8.99817
um	-9.00397
go	-9.00458
▁realize	-9.00564
ey	-9.01371
▁udtapunjab	-9.01454
▁tech	-9.01644
▁trust	-9.0174
▁england	-9.01761
▁shame	-9.01965
exit	-9.01988
▁task	-9.02104
▁sky	-9.02527
▁sto	-9.02711
▁suppoer	-9.02765
▁shy	-9.0296
▁india	-9.03159
▁dis	-9.03273
▁ride	-9.03423
ch	-9.03429
▁wtf	-9.0351
▁oitnb	-9.03557
▁se	-9.03561
▁worst	-9.03599
▁dinner	-9.03669
▁issue	-9.04024
▁dreams	-9.0411
▁forget	-9.04333
▁local	-9.0452
▁deserve	-9.04574
▁beat	-9.04606
▁blonde	-9.04612
▁called	-9.04692
world	-9.04883
▁cantwait	-9.05037
▁deep	-9.0514
▁political	-9.05415
▁apple	-9.05426
▁leadership	-9.05581
▁glad	-9.05675
▁source	-9.05712
da	-9.05764
he	-9.05774
▁pink	-9.05823
▁lonely	-9.05835
▁bag	-9.05854
▁en	-9.05869
▁wonder	-9.05896
▁room	-9.0597
▁decide	-9.06015
▁tb	-9.0602
▁thinking	-9.06055
▁lose	-9.06208
▁fear	-9.0622
▁asian	-9.06228
▁pain	-9.06232
vibes	-9.06242
▁wake	-9.06412
▁fantas	-9.06542
▁stas	-9.06593
▁wanna	-9.06734
▁happening	-9.06761
▁club	-9.0681
▁bar	-9.06839
▁hell	-9.06936
▁bless	-9.07154
▁add	-9.07177
▁fall	-9.07254
▁spos	-9.07498
▁clean	-9.07712
▁secret	-9.0774
▁husband	-9.07764
happened	-9.07925
▁sunset	-9.0794
▁giving	-9.08073
so	-9.08134
▁americans	-9.08159
▁haven	-9.08195
▁fr	-9.08258
new	-9.08316
▁past	-9.08441
▁test	-9.08623
▁dress	-9.08681
ha	-9.08727
▁land	-9.08953
▁idea	-9.08987
red	-9.09084
▁wine	-9.09178
▁islam	-9.09357
nt	-9.09564
▁oil	-9.09907
▁blur	-9.09944
▁slut	-9.09949
▁fridayfeel	-9.09978
▁street	-9.10081
▁king	-9.10112
stead	-9.10398
▁jo	-9.10419
▁war	-9.10423
▁stand	-9.10463
▁ahead	-9.1056
▁deliver	-9.10583
▁lady	-9.10872
▁crying	-9.10952
▁leav	-9.10983
▁couldn	-9.11134
▁experience	-9.11249
▁adventure	-9.11375
▁em	-9.11561
el	-9.11681
ten	-9.11714
▁fire	-9.1182
▁festival	-9.11841
▁content	-9.11846
ton	-9.1188
▁photos	-9.11914
▁different	-9.12173
▁truly	-9.12187
▁male	-9.12204
▁puppy	-9.12257
show	-9.12265
▁three	-9.1227
▁exciting	-9.12335
▁sa	-9.12498
night	-9.12511
▁workout	-9.12519
▁bday	-9.12817
nasty	-9.12852
ally	-9.13007
▁folk	-9.1326
▁pick	-9.13304
▁horn	-9.13309
▁pride	-9.13314
shot	-9.1365
ather	-9.13825
▁chase	-9.1393
▁kick	-9.13984
▁pulse	-9.14393
▁allow	-9.14441
self	-9.14444
▁lover	-9.14459
▁york	-9.1449
▁france	-9.14519
back	-9.1452
▁course	-9.14622
ll	-9.14626
▁celebration	-9.14855
▁service	-9.15353
▁hands	-9.15529
▁walking	-9.15532
▁ripchristina	-9.15725
▁hero	-9.1601
attraction	-9.16122
finals	-9.16306
ur	-9.16417
▁brand	-9.16516
▁orlandoshooting	-9.16798
▁newyork	-9.16829
▁haha	-9.16847
▁stupid	-9.16852
▁cover	-9.17061
body	-9.17123
▁page	-9.1716
▁grow	-9.17169
▁ho	-9.17308
▁expans	-9.17365
▁count	-9.1788
▁gop	-9.17996
lawof	-9.18285
ling	-9.18331
ill	-9.18546
christinagrimmie	-9.18643
▁aist	-9.18678
▁feelings	-9.18791
▁train	-9.19025
▁heabroken	-9.19079
▁naughty	-9.19083
▁price	-9.19148
▁bl	-9.19156
▁public	-9.19178
▁paris	-9.19288
▁release	-9.19294
▁choice	-9.19367
ty	-9.19518
▁block	-9.19558
hungry	-9.19586
▁ga	-9.19905
▁writing	-9.1997
▁flower	-9.20047
▁lots	-9.20105
▁training	-9.20632
▁project	-9.20982
▁create	-9.21223
▁wi	-9.21271
▁fill	-9.21362
q	-9.21375
▁tragic	-9.2149
one	-9.21505
▁internet	-9.21592
▁facebook	-9.21598
▁emotion	-9.21656
▁dancing	-9.21657
▁scared	-9.21766
▁germany	-9.21803
▁college	-9.21803
▁reality	-9.21817
▁bi	-9.21888
▁absolute	-9.22085
▁fat	-9.22397
▁cats	-9.22716
▁deal	-9.22728
▁ff	-9.22774
good	-9.22786
▁po	-9.22815
▁jobs	-9.23073
nd	-9.23205
▁announce	-9.23215
▁action	-9.23478
▁beer	-9.23528
▁missed	-9.23562
ca	-9.23904
▁pool	-9.23941
▁congrats	-9.2406
▁female	-9.24085
▁campaign	-9.24086
▁pet	-9.24115
▁gotta	-9.24284
▁interest	-9.2429
▁fa	-9.24425
▁energy	-9.24502
▁continue	-9.2474
▁litera	-9.24915
▁sense	-9.25057
quotes	-9.25186
week	-9.25445
▁second	-9.25805
▁coach	-9.25899
oftheda	-9.26043
food	-9.26272
▁slow	-9.26276
▁donald	-9.2633
▁bo	-9.26348
▁feels	-9.26368
▁ki	-9.26381
▁shi	-9.26451
▁horrible	-9.26618
▁everybody	-9.26644
▁result	-9.2665
▁album	-9.26653
▁yummy	-9.26681
▁babies	-9.26772
▁tears	-9.26788
▁review	-9.26801
▁product	-9.2687
▁bitch	-9.26873
▁busy	-9.26976
now	-9.27108
▁number	-9.27125
▁sh	-9.27129
▁university	-9.27144
▁bike	-9.27198
▁church	-9.27206
ist	-9.27444
▁huge	-9.27464
ooster	-9.27533
▁christian	-9.27626
vast	-9.27661
▁disgust	-9.27764
▁fight	-9.27915
▁bc	-9.27979
ries	-9.28026
▁con	-9.28071
off	-9.28166
▁minutes	-9.2857
▁lake	-9.28707
▁vsco	-9.28852
mes	-9.28891
▁mi	-9.28917
▁blogger	-9.29071
awards	-9.29133
▁behind	-9.29209
▁ibiza	-9.29226
▁favourite	-9.29285
▁sound	-9.2929
▁calm	-9.29303
▁wakeup	-9.29306
▁bro	-9.29372
▁japan	-9.29449
▁repost	-9.29465
▁loss	-9.29474
▁talent	-9.29527
pay	-9.29719
▁ice	-9.29877
▁tea	-9.29898
▁speech	-9.299
▁session	-9.29918
▁actor	-9.30059
▁mr	-9.30138
done	-9.30138
ves	-9.30287
▁avail	-9.30324
▁due	-9.30428
▁luck	-9.30441
ra	-9.30766
her	-9.30859
more	-9.31062
▁punjab	-9.3154
▁eye	-9.31603
▁return	-9.31608
▁gorgeous	-9.31911
▁iphone	-9.31954
▁naked	-9.31974
▁age	-9.32007
▁aren	-9.32038
▁inspirational	-9.32061
▁air	-9.32061
this	-9.3219
either	-9.322
▁staff	-9.32291
▁tattoo	-9.32429
▁pro	-9.32438
low	-9.32513
▁minute	-9.32573
tics	-9.32608
▁serie	-9.32778
son	-9.32918
▁cut	-9.32921
▁snap	-9.32964
▁customer	-9.32993
▁terrorist	-9.33004
j	-9.33017
▁key	-9.33111
▁united	-9.33149
friday	-9.33207
mping	-9.33274
▁box	-9.33284
htt	-9.33327
▁market	-9.33398
ta	-9.33466
id	-9.33541
▁ch	-9.33687
▁li	-9.33829
▁bride	-9.33854
▁san	-9.34052
weekend	-9.34071
▁ba	-9.34104
la	-9.34166
▁inspire	-9.34418
ro	-9.34436
▁focus	-9.3446
▁double	-9.34507
▁marriage	-9.34689
pherd	-9.34698
▁xx	-9.34831
▁current	-9.34883
▁chance	-9.34906
▁english	-9.34911
nity	-9.34924
book	-9.34991
▁anime	-9.3502
▁countdown	-9.3511
▁nails	-9.35158
▁christmas	-9.3518
▁info	-9.35531
care	-9.35687
▁hug	-9.35698
▁games	-9.35711
▁heabreak	-9.35715
▁eah	-9.35919
▁store	-9.35938
▁upset	-9.36081
▁nation	-9.36238
▁wild	-9.36481
▁wet	-9.36589
▁tips	-9.36772
house	-9.36961
▁youth	-9.37011
▁russia	-9.37429
motivation	-9.37438
▁previous	-9.37549
ke	-9.3758
▁email	-9.37716
▁faith	-9.37828
▁idiot	-9.37944
▁met	-9.37999
▁gra	-9.38009
▁wh	-9.38114
▁born	-9.3817
▁winter	-9.38213
▁inside	-9.38215
▁leakag	-9.38254
▁online	-9.38337
▁dur	-9.38396
▁west	-9.38489
cancer	-9.38598
▁weak	-9.38683
▁stage	-9.39054
made	-9.39179
▁message	-9.39273
▁fail	-9.39304
▁fly	-9.39529
een	-9.39576
▁spring	-9.3958
▁expect	-9.39694
▁diet	-9.39777
▁case	-9.39788
cy	-9.39936
▁emotional	-9.40367
special	-9.40454
▁shows	-9.40477
▁probably	-9.40489
▁congratulation	-9.40535
▁website	-9.40569
▁remain	-9.40573
▁cook	-9.40578
dino	-9.40648
▁pussy	-9.40763
▁nobody	-9.40823
grimmie	-9.40882
▁poem	-9.40901
▁natural	-9.41312
joy	-9.41628
sh	-9.41805
▁til	-9.41879
▁positiv	-9.42168
▁happi	-9.42398
▁murder	-9.42562
▁opening	-9.42579
▁notice	-9.42864
▁pop	-9.42865
▁instadai	-9.43327
▁feminism	-9.43529
▁temple	-9.43554
▁condemn	-9.43603
▁nofilter	-9.43622
▁spo	-9.43682
▁trail	-9.43885
▁legend	-9.43938
▁goodvibes	-9.43986
▁role	-9.44009
ampa	-9.44034
▁value	-9.44256
ember	-9.44405
▁towards	-9.4444
▁ending	-9.44494
inky	-9.4458
▁record	-9.44709
ant	-9.44823
▁celebrat	-9.44831
▁q	-9.4491
▁town	-9.45025
▁board	-9.45058
ump	-9.45064
over	-9.45081
field	-9.45187
▁terroris	-9.4523
▁finger	-9.45399
▁customers	-9.4559
shi	-9.45724
▁analy	-9.45777
▁wasn	-9.45832
▁holidays	-9.45976
po	-9.45996
▁arm	-9.46394
▁august	-9.46432
▁sale	-9.46482
porn	-9.46489
▁perform	-9.46627
▁biggest	-9.46641
▁major	-9.46708
▁company	-9.46811
▁fake	-9.46833
▁link	-9.46852
cot	-9.46864
▁totally	-9.46869
▁lyrics	-9.46876
trump	-9.46913
▁married	-9.46941
▁outside	-9.46951
ley	-9.46988
▁stream	-9.46994
▁system	-9.46996
▁level	-9.47022
ball	-9.47047
▁shout	-9.4705
▁successful	-9.47114
▁forgot	-9.47199
line	-9.47228
▁frustrat	-9.47295
▁ra	-9.47329
▁boss	-9.47342
▁protect	-9.47381
▁fl	-9.47513
▁drawing	-9.47549
▁offer	-9.47758
▁hrs	-9.48015
▁adult	-9.48054
pain	-9.48143
ld	-9.48211
▁indie	-9.48267
coming	-9.4855
▁scene	-9.48689
▁brain	-9.48869
▁radio	-9.4897
ofthe	-9.49278
by	-9.49479
no	-9.49517
your	-9.49608
people	-9.49619
▁fish	-9.49807
▁fab	-9.49856
▁download	-9.49932
▁generation	-9.49984
▁nearly	-9.50025
▁reasons	-9.50026
▁quick	-9.50049
▁card	-9.5006
▁ladies	-9.5008
▁ball	-9.50133
▁goodnight	-9.5015
festival	-9.50222
▁ireland	-9.50252
▁tried	-9.50283
▁igers	-9.50314
▁piece	-9.50314
▁worry	-9.50338
▁collection	-9.50365
▁arriv	-9.50495
dad	-9.50506
titude	-9.50567
▁ya	-9.50617
▁alt	-9.50816
fans	-9.50882
▁singing	-9.51023
un	-9.51265
are	-9.51278
▁space	-9.51305
instagram	-9.51377
▁eur	-9.51485
▁affect	-9.51744
▁law	-9.51868
▁pig	-9.52098
some	-9.52115
ship	-9.52138
▁movies	-9.52231
▁ka	-9.52582
hi	-9.52793
▁rd	-9.52877
▁plan	-9.52959
▁vi	-9.53117
▁entire	-9.53186
▁google	-9.53198
▁apparent	-9.53204
▁hispanic	-9.53205
▁australia	-9.53241
▁feminismis	-9.53282
▁straight	-9.53378
▁kitty	-9.53424
key	-9.53431
▁bbc	-9.53433
▁click	-9.53447
▁graduation	-9.53529
▁cavs	-9.53578
▁track	-9.5359
▁possibl	-9.53607
▁decision	-9.53692
▁dude	-9.537
▁study	-9.53775
▁battle	-9.53814
▁lie	-9.53858
▁kiss	-9.53881
▁wouldn	-9.53928
▁stress	-9.54004
▁challenge	-9.5401
▁rape	-9.54118
▁rich	-9.54227
▁career	-9.54368
okay	-9.54631
▁mum	-9.54811
cuz	-9.54983
ai	-9.55046
▁fri	-9.55089
▁eating	-9.55105
▁shoot	-9.55226
▁john	-9.55234
trip	-9.55262
ho	-9.55404
beach	-9.55429
▁wisdom	-9.55461
▁angel	-9.55598
▁dr	-9.55652
ory	-9.55655
▁brown	-9.55711
▁learning	-9.55715
▁loser	-9.55729
▁bus	-9.5574
▁heading	-9.55793
▁judge	-9.558
ok	-9.55949
▁receive	-9.55967
hair	-9.56033
▁anger	-9.56063
city	-9.5624
rying	-9.56473
▁boat	-9.56551
▁piano	-9.56635
▁religion	-9.5665
▁front	-9.56702
▁exact	-9.56731
▁tour	-9.56756
▁near	-9.56773
▁skin	-9.56787
▁netflix	-9.56844
▁grand	-9.56859
▁spa	-9.56869
▁chicago	-9.56917
▁bernie	-9.56933
▁euros	-9.56952
▁growth	-9.56969
▁broke	-9.57023
▁passion	-9.5705
▁feliz	-9.57055
▁abo	-9.5706
▁greatest	-9.57314
▁bet	-9.57447
▁bff	-9.57513
▁wo	-9.57535
▁mac	-9.57609
style	-9.57649
▁squad	-9.57794
▁hotel	-9.57807
▁vici	-9.5782
▁cou	-9.57933
▁lack	-9.57993
▁shoes	-9.58126
▁bank	-9.5813
ah	-9.58146
▁los	-9.58209
▁behappy	-9.58241
▁wall	-9.58366
▁bu	-9.58379
▁maga	-9.5863
ate	-9.58644
▁per	-9.58867
▁round	-9.5888
▁cream	-9.59039
▁master	-9.59076
▁recover	-9.59098
▁sir	-9.59126
▁foodie	-9.59131
▁appreciate	-9.59185
▁books	-9.59192
▁match	-9.5929
ster	-9.59515
ka	-9.59573
▁touch	-9.59651
▁nurse	-9.59685
▁rose	-9.59727
▁answer	-9.59749
▁term	-9.59788
design	-9.59813
om	-9.59956
▁humpday	-9.60273
▁rainbow	-9.60314
▁brilliant	-9.60315
▁orange	-9.60333
ow	-9.60334
▁xoxo	-9.60348
▁bored	-9.60368
▁mid	-9.60396
▁staup	-9.60408
▁corrupt	-9.60414
▁epic	-9.60437
▁exercise	-9.60443
▁michael	-9.6046
▁politician	-9.60477
▁positivevibes	-9.60508
▁canada	-9.60635
▁creative	-9.60639
▁fine	-9.60648
▁simply	-9.60665
▁lord	-9.6067
▁ad	-9.60768
free	-9.60838
▁original	-9.60901
▁pe	-9.60913
▁tune	-9.60916
▁science	-9.60955
ying	-9.61039
▁definite	-9.61362
▁non	-9.61423
▁gr	-9.61441
come	-9.61445
room	-9.6153
▁ke	-9.61561
▁noh	-9.61622
▁bb	-9.61664
days	-9.61759
our	-9.61858
▁claim	-9.62077
▁breaking	-9.62322
▁moon	-9.62328
sm	-9.62375
work	-9.62542
▁sales	-9.62553
ck	-9.62593
▁drive	-9.62622
tags	-9.6269
▁comic	-9.62714
ri	-9.62843
▁edit	-9.63119
post	-9.63141
▁weird	-9.63236
▁snow	-9.63341
▁plann	-9.63594
▁cross	-9.63641
lo	-9.63815
▁essentialoil	-9.63911
▁texas	-9.63913
▁states	-9.63953
▁society	-9.63963
▁sept	-9.63999
▁protest	-9.64009
▁heaven	-9.64017
play	-9.64038
▁african	-9.64158
▁material	-9.64175
▁dumb	-9.64268
▁cousin	-9.64283
▁text	-9.64304
▁comedy	-9.6432
▁theatre	-9.64371
▁bill	-9.6442
▁door	-9.64627
▁band	-9.64629
gram	-9.64713
▁pl	-9.648
wp	-9.64818
▁clinton	-9.64834
▁journey	-9.65042
▁island	-9.65075
de	-9.6512
▁blame	-9.65132
▁magic	-9.65207
▁prove	-9.65369
ial	-9.65457
▁pls	-9.65474
side	-9.65537
▁gamer	-9.65573
uring	-9.65622
▁mini	-9.65681
▁ugh	-9.65797
▁nigga	-9.66005
soon	-9.66148
▁changes	-9.66299
▁meditation	-9.66444
stuck	-9.66544
▁wishe	-9.66545
▁studio	-9.66547
ard	-9.66566
gave	-9.666
▁ignore	-9.66662
jp	-9.66853
▁ocean	-9.66952
▁ness	-9.66968
▁pics	-9.66983
▁shut	-9.66983
▁bird	-9.67337
wood	-9.67356
sunday	-9.67389
▁spot	-9.67389
▁tree	-9.67397
▁ne	-9.67626
▁colors	-9.67671
▁islamic	-9.67716
▁boricua	-9.67753
▁michelle	-9.67754
▁childhood	-9.67766
▁performance	-9.67769
▁princess	-9.67776
▁praying	-9.67796
▁colombia	-9.6787
kkk	-9.67901
▁hop	-9.67957
▁mention	-9.67971
▁delicious	-9.67982
▁honest	-9.6799
▁girlfriend	-9.67991
▁paid	-9.68044
▁winner	-9.68097
▁advice	-9.68101
▁mindful	-9.68112
▁woke	-9.68183
▁yum	-9.68184
▁confirm	-9.68207
▁pala	-9.68275
▁warm	-9.68382
racis	-9.68389
▁rout	-9.68393
▁christina	-9.68421
▁oot	-9.68563
▁type	-9.68659
▁cloud	-9.68707
▁growing	-9.68835
▁shine	-9.68954
we	-9.69126
▁min	-9.69141
mp	-9.6915
chin	-9.69158
▁beard	-9.69281
organic	-9.69287
▁clients	-9.6957
old	-9.69678
▁confuse	-9.69744
▁fair	-9.69752
itting	-9.69807
▁bestfriend	-9.69967
ford	-9.69972
lgary	-9.69998
▁ones	-9.7009
▁blessing	-9.70108
▁relaxing	-9.70183
▁screen	-9.70427
▁factor	-9.7065
▁ge	-9.70665
les	-9.70679
ied	-9.70682
▁plans	-9.70811
▁swim	-9.70885
▁lea	-9.70972
▁hype	-9.7125
not	-9.7127
▁trend	-9.71276
▁com	-9.71366
▁op	-9.71388
▁ain	-9.71616
park	-9.71701
▁gif	-9.71749
▁entrepreneur	-9.71753
▁summeime	-9.71753
▁register	-9.71771
news	-9.71772
▁coldplay	-9.71786
▁happiest	-9.71802
▁spread	-9.71812
▁promise	-9.71826
▁vandalis	-9.71829
▁host	-9.7185
▁ugly	-9.7187
▁afraid	-9.71878
▁government	-9.71884
burgh	-9.71903
▁humor	-9.71906
▁delight	-9.71943
nation	-9.72032
▁involve	-9.72099
▁golf	-9.72106
▁benefits	-9.72183
▁liar	-9.72233
▁waste	-9.72254
▁herbal	-9.72292
▁painting	-9.72352
▁packing	-9.72419
kids	-9.72465
▁lets	-9.72488
▁danger	-9.72503
▁peaceful	-9.72515
family	-9.72526
▁cock	-9.72538
▁imagine	-9.7254
look	-9.72758
▁spiritual	-9.72917
▁mins	-9.72938
▁swimm	-9.73083
america	-9.73194
▁vic	-9.7323
▁million	-9.73258
▁diy	-9.7335
▁plant	-9.73573
▁enem	-9.73688
▁facts	-9.73691
ated	-9.73751
▁sushi	-9.73797
▁lil	-9.74108
ent	-9.74223
▁killing	-9.744
▁bubble	-9.74482
lover	-9.74583
vote	-9.74627
ham	-9.74714
place	-9.748
▁exist	-9.74803
▁bestie	-9.74988
▁scot	-9.75091
▁mon	-9.75317
▁east	-9.75376
▁europe	-9.75377
cide	-9.75377
▁easi	-9.75578
▁balance	-9.75649
ish	-9.75655
blogger	-9.75697
▁sat	-9.75768
▁drop	-9.75777
ories	-9.75804
▁repo	-9.75877
ad	-9.75888
▁cleveland	-9.75919
▁interview	-9.75922
▁reveal	-9.75926
▁unfounate	-9.75926
ical	-9.75958
▁response	-9.7596
▁senseless	-9.7596
▁bouncing	-9.75991
▁excellen	-9.7604
▁common	-9.7606
▁sma	-9.7606
▁scary	-9.76067
hx	-9.76074
▁terrible	-9.76128
▁reaction	-9.76158
▁lebron	-9.76159
▁strength	-9.76169
▁beyond	-9.76254
▁award	-9.76288
▁evil	-9.76351
▁ignoran	-9.76371
▁teach	-9.76449
▁jesus	-9.76468
▁gig	-9.76476
ted	-9.76494
▁bitches	-9.7658
▁robe	-9.76587
▁election	-9.76604
▁sounds	-9.76634
ine	-9.76767
ge	-9.76779
▁attitude	-9.76851
▁express	-9.76883
▁building	-9.76895
▁fav	-9.77121
▁goal	-9.77129
▁risk	-9.77196
▁likes	-9.77212
▁ro	-9.77224
twitter	-9.77239
▁papa	-9.77273
goals	-9.77415
▁image	-9.77517
ana	-9.7757
▁driver	-9.77575
friends	-9.77676
▁anyway	-9.78065
▁tho	-9.78128
▁jim	-9.78144
▁weight	-9.78332
▁republican	-9.78354
▁mark	-9.78455
▁hospital	-9.78476
▁fix	-9.78556
▁row	-9.78991
im	-9.79134
▁following	-9.7922
▁bts	-9.79221
▁suicide	-9.79332
▁ta	-9.79393
▁faces	-9.79726
▁spirit	-9.79756
▁bestfriends	-9.79763
▁basket	-9.80272
▁bliss	-9.80279
▁opinion	-9.80386
▁stock	-9.80397
▁clearly	-9.80406
▁silly	-9.80425
▁chocolate	-9.80435
▁china	-9.80447
▁fruit	-9.80469
▁main	-9.80535
▁purpose	-9.80629
▁vintage	-9.80657
morning	-9.80659
▁goodday	-9.80762
▁jew	-9.80787
▁david	-9.80811
▁sent	-9.80947
▁misogynist	-9.81001
▁invite	-9.81005
▁rhy	-9.81017
▁five	-9.81053
down	-9.81062
▁negative	-9.81141
▁plus	-9.81185
ikh	-9.81273
▁knowing	-9.81274
▁bright	-9.81287
▁network	-9.81361
▁indian	-9.81395
▁write	-9.81399
ight	-9.81514
▁humans	-9.81524
▁eve	-9.81525
▁outdoor	-9.81691
▁cha	-9.81756
wisdom	-9.81771
mylife	-9.81874
▁cop	-9.81936
▁finishe	-9.81956
▁lying	-9.81981
od	-9.8206
goes	-9.82062
app	-9.82169
▁pack	-9.82183
ba	-9.82357
school	-9.82383
▁grace	-9.82491
▁trans	-9.82595
▁creat	-9.82621
▁cup	-9.82757
▁classic	-9.82852
▁rule	-9.82902
▁ab	-9.83025
home	-9.83039
▁sold	-9.83087
▁client	-9.8323
▁print	-9.83301
sa	-9.83425
ot	-9.8346
▁cards	-9.83487
▁sing	-9.83498
▁ban	-9.83548
▁teacher	-9.83724
▁international	-9.83735
island	-9.83801
▁storm	-9.83826
▁singer	-9.83872
▁equal	-9.83905
▁throwback	-9.8417
▁player	-9.84475
▁prayforo	-9.84667
▁heas	-9.84693
fashion	-9.84797
▁hr	-9.84801
▁genuine	-9.84813
▁boycott	-9.84816
mi	-9.84826
▁likeforlike	-9.84827
▁middle	-9.84849
▁toddler	-9.84861
▁cnn	-9.84871
▁jan	-9.84871
vegas	-9.84881
▁felt	-9.84909
▁rainy	-9.8491
msel	-9.84946
▁delay	-9.85183
▁loveislove	-9.8519
▁total	-9.85203
▁recipe	-9.85215
▁sharing	-9.8522
▁schools	-9.85275
▁goodtimes	-9.85281
▁foot	-9.85414
▁works	-9.85543
▁attend	-9.85588
▁worked	-9.85613
ble	-9.85661
ter	-9.85696
ns	-9.85745
▁tony	-9.85763
▁wearing	-9.85801
▁flying	-9.85832
▁ali	-9.85954
▁counting	-9.85967
▁clothes	-9.8601
▁warriors	-9.8604
▁basic	-9.8614
▁scream	-9.86302
▁large	-9.86355
▁throw	-9.86367
▁purchase	-9.86368
▁ar	-9.8674
here	-9.8691
problem	-9.87029
▁ny	-9.87056
▁writer	-9.87498
▁chair	-9.87702
top	-9.87886
▁astro	-9.87922
smile	-9.88125
▁roll	-9.88139
▁shock	-9.88283
real	-9.88477
▁ig	-9.8857
▁mama	-9.88576
▁exam	-9.88616
wal	-9.88681
ther	-9.88743
▁sucks	-9.88905
etc	-9.88948
▁annoy	-9.89117
▁broker	-9.89139
use	-9.89221
▁tag	-9.89309
▁fool	-9.89394
▁colour	-9.89524
▁bye	-9.8957
▁blackandwhite	-9.89574
▁detox	-9.89576
▁bottle	-9.89581
▁rid	-9.89594
▁innocent	-9.89678
▁sisters	-9.89721
▁govt	-9.89733
log	-9.89748
▁pretend	-9.89769
▁doubt	-9.89791
▁global	-9.89834
▁aicle	-9.89835
▁poland	-9.89838
▁beginning	-9.89843
bo	-9.89851
▁honor	-9.89873
▁bitter	-9.89893
▁mobile	-9.89926
▁troll	-9.90003
hour	-9.90049
rlando	-9.90069
shit	-9.90086
▁profile	-9.90092
▁drunk	-9.90147
▁pot	-9.90203
▁shift	-9.90204
inity	-9.90242
face	-9.90316
men	-9.90332
▁edm	-9.90431
pe	-9.90476
bu	-9.90558
genda	-9.90653
▁warn	-9.9079
ery	-9.90858
addict	-9.91007
ating	-9.91014
club	-9.91057
▁meme	-9.9117
again	-9.91438
ti	-9.91595
▁turning	-9.91596
▁cost	-9.91635
▁lies	-9.91779
can	-9.92025
▁dare	-9.92044
▁bf	-9.92047
wdc	-9.92051
▁hang	-9.9215
▁tool	-9.9224
otd	-9.92313
▁consider	-9.92439
train	-9.92446
▁destroy	-9.92461
▁chi	-9.92547
▁wear	-9.92551
▁quality	-9.92615
hood	-9.92642
ping	-9.92668
▁site	-9.92816
▁press	-9.92864
▁del	-9.92976
▁goodbye	-9.93042
etting	-9.93154
▁lmao	-9.93313
pa	-9.93399
women	-9.93411
ence	-9.9345
▁pr	-9.93616
▁resist	-9.93706
▁bout	-9.93718
set	-9.93751
uk	-9.93786
▁whe	-9.93825
▁personal	-9.93835
▁calls	-9.93917
weets	-9.93919
▁aud	-9.93961
▁remove	-9.94024
▁stone	-9.94127
▁build	-9.94298
▁size	-9.94351
▁xbox	-9.94485
ps	-9.94534
▁attempt	-9.94574
▁difficult	-9.94574
▁icecream	-9.94575
▁jealous	-9.94575
▁alligator	-9.94576
▁luxury	-9.94576
▁knowledge	-9.94576
▁mexican	-9.94577
▁quiet	-9.94584
▁instapic	-9.94599
▁luv	-9.94633
▁iq	-9.94646
▁fuher	-9.94669
▁fabulous	-9.94714
▁candidate	-9.94732
▁ghost	-9.94748
▁force	-9.94782
▁lazy	-9.94787
▁shark	-9.94798
▁unhappy	-9.94801
▁recent	-9.94823
▁progress	-9.94825
laughter	-9.94857
▁character	-9.94864
▁toronto	-9.94866
▁ten	-9.94916
▁bae	-9.94962
ny	-9.94973
▁crowd	-9.94984
shooting	-9.9499
▁kitchen	-9.95023
that	-9.95031
▁data	-9.9506
▁version	-9.95072
▁ruin	-9.95101
▁gb	-9.95146
▁statement	-9.9515
▁ignor	-9.95155
▁keeps	-9.95173
▁mouth	-9.95203
▁leas	-9.95214
▁sneak	-9.95374
▁catch	-9.95385
▁apps	-9.954
▁mommy	-9.95445
▁ti	-9.95487
▁id	-9.95493
▁justice	-9.95522
usa	-9.95531
▁normal	-9.95675
▁four	-9.95738
dog	-9.95752
blacklivesmatter	-9.95762
▁fighting	-9.95824
olog	-9.95904
tips	-9.95986
light	-9.96172
▁z	-9.96186
▁holy	-9.96187
▁spin	-9.962
▁ski	-9.96218
▁connect	-9.96267
listening	-9.96287
ina	-9.96298
travel	-9.96362
▁pc	-9.96373
him	-9.96416
hea	-9.96471
ds	-9.96531
li	-9.96535
▁loa	-9.96578
▁driv	-9.96673
▁boom	-9.96951
potus	-9.9703
ir	-9.9705
▁remind	-9.97057
▁leaders	-9.97077
▁search	-9.97284
guy	-9.97289
nny	-9.97533
▁emo	-9.97545
▁suck	-9.97665
dom	-9.97748
▁hopeful	-9.97764
▁nightclub	-9.97767
▁hopefull	-9.97919
hot	-9.97939
▁fee	-9.97957
▁terror	-9.98015
▁sell	-9.98125
▁reject	-9.98137
▁sleepy	-9.98278
▁si	-9.98313
▁binge	-9.98362
▁suit	-9.98375
▁memor	-9.98454
▁paner	-9.98459
tour	-9.98633
▁mp	-9.98708
fair	-9.98872
▁dies	-9.98894
sucks	-9.98923
▁plz	-9.98981
▁member	-9.98994
cat	-9.99
▁complain	-9.99234
▁stars	-9.99365
ready	-9.99479
▁horror	-9.99534
▁fox	-9.99621
well	-9.99664
quality	-9.99697
▁ilove	-9.99702
turned	-9.99734
rid	-9.99786
▁clear	-9.99795
▁woohoo	-9.99823
▁except	-9.99835
▁emirat	-9.99838
▁weightloss	-9.99839
▁thousand	-9.99842
▁webcam	-9.99842
▁excuse	-9.99845
▁yellow	-9.99846
▁ceain	-9.99846
▁figure	-9.99862
▁obvious	-9.99865
▁homophobic	-9.99871
▁french	-9.99876
▁du	-9.99892
podcast	-9.99958
▁jeep	-9.99967
▁tokyo	-9.99969
▁restaurant	-9.99981
▁fave	-10
▁option	-10.0005
▁censor	-10.0009
dress	-10.0009
▁seek	-10.001
▁request	-10.0011
pride	-10.0013
▁jack	-10.0013
▁sweat	-10.002
▁bond	-10.0022
▁tiny	-10.0024
▁ignorant	-10.0031
▁famous	-10.0033
beat	-10.0036
win	-10.0043
▁centre	-10.005
▁paul	-10.0053
▁edin	-10.0056
▁craft	-10.0058
▁limit	-10.006
▁cinema	-10.0062
▁crime	-10.0067
▁mu	-10.0075
▁truck	-10.0079
▁milk	-10.0088
▁putins	-10.0091
▁cuddle	-10.0099
gp	-10.0119
▁gaming	-10.0129
change	-10.0144
▁dropp	-10.0161
io	-10.0164
▁wal	-10.0165
happiness	-10.0166
▁africa	-10.018
▁login	-10.0185
▁crap	-10.0187
▁mar	-10.0192
▁anne	-10.0199
▁trouble	-10.0211
fitness	-10.0216
season	-10.0221
project	-10.0224
▁didnt	-10.0226
▁glasses	-10.0229
board	-10.0235
▁niggas	-10.0237
▁gree	-10.0239
▁babe	-10.0246
▁jul	-10.0247
experience	-10.0254
▁sub	-10.0256
▁bath	-10.0265
▁none	-10.0273
▁pets	-10.0277
girls	-10.0282
▁british	-10.029
thoughts	-10.0299
hate	-10.0299
▁clos	-10.0301
▁raci	-10.0303
tt	-10.0308
scope	-10.0308
sis	-10.031
geno	-10.0312
pped	-10.0312
things	-10.0318
▁hearing	-10.0331
▁eng	-10.0334
how	-10.0337
▁includ	-10.0345
▁canadian	-10.0353
▁jp	-10.0356
mo	-10.0357
died	-10.0371
▁prince	-10.0375
wellness	-10.0394
▁su	-10.0401
▁chick	-10.0406
▁grandpa	-10.0415
▁loveyou	-10.0417
▁cheat	-10.0419
games	-10.0431
▁kit	-10.0436
▁author	-10.0442
ian	-10.0487
▁staying	-10.0488
▁draw	-10.0512
▁ukrain	-10.0513
▁cycl	-10.0522
ni	-10.0522
▁seashe	-10.0529
▁fb	-10.0535
▁commercial	-10.0539
▁explain	-10.0539
▁guitar	-10.0539
▁congress	-10.0539
▁thailand	-10.054
▁bestseller	-10.054
▁magnet	-10.0542
▁lifeisgood	-10.0542
▁mexico	-10.0543
released	-10.0543
ver	-10.0544
▁blood	-10.0545
dance	-10.0547
ways	-10.0551
▁industr	-10.0552
▁mistake	-10.0557
▁chicken	-10.0562
▁highlight	-10.0564
▁access	-10.0564
▁kindness	-10.0569
▁hashtag	-10.0572
▁romance	-10.0572
▁groom	-10.0573
▁joe	-10.058
tred	-10.0581
▁traveling	-10.0582
▁mirror	-10.0586
ning	-10.0587
alking	-10.0587
▁expectation	-10.0593
▁shocking	-10.0595
▁poll	-10.0597
▁channel	-10.0605
▁wood	-10.0607
dum	-10.0617
▁sit	-10.062
▁dogsof	-10.062
▁james	-10.062
▁murdered	-10.0623
▁based	-10.0642
▁photographer	-10.0644
ime	-10.0647
hat	-10.0647
▁fra	-10.0653
ood	-10.0658
▁chat	-10.066
▁shooter	-10.066
head	-10.066
nce	-10.0661
sleep	-10.0661
▁rally	-10.0663
▁note	-10.067
ding	-10.067
moment	-10.0675
▁schedule	-10.0679
beautiful	-10.0696
▁paper	-10.07
▁represent	-10.0701
▁motivate	-10.071
▁tough	-10.0715
▁horse	-10.0717
▁smoke	-10.0728
▁kinda	-10.0742
▁amen	-10.0743
▁youtuber	-10.0744
wedding	-10.0748
▁vip	-10.0749
▁members	-10.0751
▁abt	-10.0751
▁gi	-10.0753
▁ap	-10.0755
fun	-10.0755
▁mc	-10.0758
▁iron	-10.0789
table	-10.0798
▁cow	-10.0803
obama	-10.0804
▁alex	-10.0805
▁nerd	-10.0834
▁seat	-10.0838
▁gu	-10.0843
photo	-10.0845
▁betw	-10.0846
▁airp	-10.085
help	-10.0858
boys	-10.0863
get	-10.0864
op	-10.0866
often	-10.0871
▁remed	-10.0883
▁dc	-10.0888
▁mental	-10.0895
daily	-10.0903
▁ring	-10.0903
▁root	-10.0933
car	-10.0935
▁rat	-10.0953
▁eu	-10.0958
ovement	-10.0974
ze	-10.0981
▁tr	-10.0983
▁fi	-10.0989
▁serve	-10.0998
▁woo	-10.1001
▁photoshoot	-10.1027
▁program	-10.1031
▁misogyn	-10.1044
africa	-10.1052
▁vot	-10.106
▁log	-10.1063
▁russian	-10.1078
▁leader	-10.108
▁demo	-10.1081
cool	-10.1091
▁aim	-10.1108
▁outfit	-10.1124
▁essential	-10.1127
▁pharrell	-10.1128
▁indiegame	-10.1128
▁precious	-10.1128
▁ridiculous	-10.1128
▁period	-10.1129
▁conservative	-10.1129
▁address	-10.113
▁independent	-10.113
▁downtown	-10.1132
▁neck	-10.1133
▁third	-10.1134
▁amazon	-10.1134
▁vinyl	-10.1143
▁hamilton	-10.1143
▁reflection	-10.1145
▁intelligen	-10.1145
▁nazi	-10.1146
▁background	-10.1148
▁glass	-10.1149
worse	-10.1152
▁sexual	-10.1153
▁hockey	-10.1161
▁socialmedia	-10.1162
▁george	-10.1164
▁twi	-10.1166
ab	-10.1171
bury	-10.1174
given	-10.1174
▁crew	-10.1176
ize	-10.118
▁reache	-10.1183
▁califo	-10.1183
▁chose	-10.1184
detail	-10.1187
▁ep	-10.1189
▁inspiring	-10.1191
▁filter	-10.1195
ors	-10.1198
▁aldub	-10.1199
▁blast	-10.1199
▁central	-10.1207
▁code	-10.121
▁sunnyday	-10.121
fo	-10.1212
▁sp	-10.1213
▁gain	-10.1213
▁hump	-10.1215
▁ps	-10.1216
▁buzz	-10.1218
▁league	-10.1219
▁loud	-10.1231
▁pure	-10.1242
▁cafe	-10.1247
▁anton	-10.125
scot	-10.1252
▁praise	-10.1252
▁path	-10.1253
eek	-10.1265
ul	-10.1281
▁xenophobi	-10.1297
▁peri	-10.13
nder	-10.1303
▁escape	-10.1311
▁comfo	-10.1311
▁base	-10.1312
hu	-10.1318
first	-10.1322
▁production	-10.1322
▁bih	-10.1329
ee	-10.1331
watch	-10.1331
▁aap	-10.1335
▁matt	-10.1337
ville	-10.134
▁horrifi	-10.1341
▁spen	-10.1342
▁cloth	-10.1344
▁signed	-10.1346
▁remark	-10.1349
unch	-10.1356
▁ph	-10.1357
▁finals	-10.1368
▁rap	-10.1369
▁nu	-10.1386
▁poster	-10.1388
alad	-10.1389
▁nz	-10.1404
▁leak	-10.1405
▁bridge	-10.1406
attack	-10.1412
today	-10.1419
ile	-10.1421
coach	-10.1426
▁dat	-10.1435
▁inlove	-10.1437
▁laws	-10.1449
▁fu	-10.147
con	-10.1474
▁meal	-10.1475
ms	-10.1482
terroris	-10.1494
▁hasn	-10.1513
ain	-10.1516
▁excit	-10.1522
▁inter	-10.153
▁lion	-10.1545
▁carl	-10.1553
▁bang	-10.1576
▁cu	-10.1581
▁par	-10.1584
▁gel	-10.1586
▁trade	-10.1587
bourne	-10.159
▁satisf	-10.1592
▁mall	-10.1625
▁confus	-10.1626
▁shower	-10.1627
▁fellow	-10.1629
▁sleeping	-10.1632
chat	-10.1637
▁graduat	-10.1637
▁cr	-10.1639
▁drug	-10.165
▁bikini	-10.1661
▁mel	-10.1666
▁taste	-10.167
az	-10.1692
ser	-10.1703
▁pu	-10.1709
▁grade	-10.1709
▁carry	-10.1715
du	-10.1716
iz	-10.172
▁fell	-10.1722
▁polic	-10.1752
▁tupac	-10.1753
▁competition	-10.1753
▁process	-10.1753
▁false	-10.1754
▁insane	-10.1755
▁altright	-10.1756
▁ver	-10.1759
▁unbelievable	-10.176
▁caught	-10.1762
▁lap	-10.1765
▁effo	-10.1765
▁bitcoin	-10.1769
▁nominee	-10.1769
▁japanese	-10.1769
▁avoid	-10.1769
▁reply	-10.1771
talk	-10.1773
▁bob	-10.1775
▁boring	-10.1784
▁bigger	-10.1786
▁impression	-10.1788
▁practice	-10.1789
ashamed	-10.1791
▁reminder	-10.1791
▁confident	-10.1796
▁guest	-10.1796
▁android	-10.1814
▁copy	-10.1815
▁workshop	-10.1823
▁chapter	-10.1827
▁lit	-10.1827
god	-10.1834
▁golden	-10.1835
▁regard	-10.1843
ks	-10.1844
lves	-10.1847
▁musical	-10.1852
ap	-10.186
▁blacks	-10.1869
▁spark	-10.187
▁quit	-10.1875
▁european	-10.1876
▁becoming	-10.1879
▁depress	-10.1892
▁mis	-10.1899
▁mil	-10.19
▁ground	-10.1924
▁dick	-10.1929
choice	-10.1934
ou	-10.1935
list	-10.1944
▁stunn	-10.1953
bi	-10.1965
▁swag	-10.197
vant	-10.1974
team	-10.1977
▁weare	-10.1978
han	-10.1983
muk	-10.2002
ress	-10.2009
▁gf	-10.2009
▁parenting	-10.2028
▁sending	-10.203
feet	-10.2041
▁title	-10.2043
▁suppose	-10.2078
view	-10.2087
united	-10.2095
▁unleash	-10.2101
tuesday	-10.2104
hard	-10.2104
▁fe	-10.2105
▁mail	-10.211
selfie	-10.2123
strong	-10.2127
diet	-10.2135
ak	-10.2136
runch	-10.2149
▁extra	-10.2166
▁inde	-10.2167
▁dem	-10.2171
▁edc	-10.2176
▁injure	-10.2183
▁form	-10.2191
▁cali	-10.2194
▁excitemen	-10.22
fan	-10.2213
▁pas	-10.2215
dy	-10.222
▁radical	-10.2223
summer	-10.2228
▁royal	-10.2231
iness	-10.2237
▁peep	-10.2246
▁honey	-10.2251
local	-10.2253
▁bash	-10.2254
ali	-10.2263
▁democra	-10.2265
▁attenti	-10.2269
▁posts	-10.2273
▁apa	-10.2274
▁snaps	-10.2274
▁gabb	-10.2274
▁miles	-10.2286
▁actors	-10.2286
▁lu	-10.2288
▁jer	-10.229
▁killer	-10.2299
air	-10.2306
▁prayer	-10.2316
▁frank	-10.232
rd	-10.2343
▁table	-10.2343
▁smiley	-10.2345
▁kille	-10.2347
inthe	-10.2349
▁para	-10.2369
▁stor	-10.2374
forever	-10.2378
bestfriends	-10.2381
wear	-10.2385
▁materi	-10.2393
wi	-10.2408
▁brothers	-10.2411
great	-10.2413
ella	-10.2416
▁barcelon	-10.2419
▁desperate	-10.2419
▁electronic	-10.2419
▁soccer	-10.2419
▁condolence	-10.242
▁pamper	-10.242
▁situation	-10.242
▁crack	-10.2422
▁computer	-10.2422
▁drama	-10.2426
lock	-10.2428
▁israel	-10.243
▁materia	-10.2431
liverpool	-10.2433
▁sundaymorning	-10.2433
▁bogota	-10.2433
ans	-10.2433
▁amwrit	-10.2435
▁language	-10.2436
▁berlin	-10.2437
▁guncontrol	-10.2438
▁worship	-10.2438
▁upload	-10.2439
▁steal	-10.2439
▁giant	-10.2441
▁pissed	-10.2441
story	-10.2444
▁mode	-10.2444
oston	-10.2445
▁mod	-10.2446
▁steak	-10.2447
▁scum	-10.2453
▁sketch	-10.2454
▁degree	-10.2455
▁warcraft	-10.2458
▁enteainment	-10.2458
▁multipl	-10.2459
▁colorful	-10.2466
▁hawaii	-10.2471
▁zen	-10.2471
▁bloody	-10.2472
buster	-10.2473
▁int	-10.2474
▁impact	-10.2475
▁trash	-10.2476
▁paradi	-10.2479
▁nor	-10.2481
▁hanging	-10.2485
▁jam	-10.2489
▁oppounity	-10.2492
▁appear	-10.2496
▁promote	-10.2499
▁illustration	-10.251
▁clouds	-10.2514
▁bel	-10.2514
▁sydney	-10.2517
wa	-10.2528
▁incredible	-10.2528
bal	-10.2534
▁professional	-10.2545
que	-10.2548
nbc	-10.2555
▁vk	-10.2559
▁cookie	-10.256
▁conjur	-10.2561
▁mat	-10.2562
den	-10.2569
▁receiv	-10.257
▁raise	-10.2573
▁charge	-10.2573
▁cap	-10.2577
▁venue	-10.2589
pics	-10.2593
▁breath	-10.2595
▁qu	-10.2601
movie	-10.2611
▁wil	-10.2615
tv	-10.2618
ove	-10.2619
nia	-10.2622
▁sum	-10.2622
▁fam	-10.2626
▁speaker	-10.2635
▁athlete	-10.2637
▁voters	-10.2641
▁stronger	-10.2643
black	-10.2646
town	-10.2663
▁pos	-10.2664
▁heat	-10.2669
▁lee	-10.2675
▁yours	-10.2678
▁ag	-10.2679
▁dump	-10.2686
▁raw	-10.2698
▁gen	-10.27
ets	-10.2703
rc	-10.2711
▁chan	-10.2716
something	-10.273
▁bay	-10.2738
▁burn	-10.2751
▁fin	-10.2758
cox	-10.276
▁sc	-10.2762
▁rant	-10.278
pping	-10.2785
▁ego	-10.2787
▁respond	-10.2787
tbh	-10.2798
▁push	-10.2818
beauty	-10.2823
▁fingers	-10.2828
ique	-10.2832
▁glam	-10.2838
glasses	-10.2844
wanted	-10.2856
eles	-10.2856
host	-10.2864
▁manage	-10.2873
▁rate	-10.2881
▁nov	-10.2883
power	-10.2902
true	-10.291
lm	-10.2918
stagram	-10.2926
▁tax	-10.2935
▁np	-10.2947
mom	-10.2961
sad	-10.2961
ington	-10.297
▁fucked	-10.297
▁monkey	-10.2977
▁sandy	-10.2979
▁ye	-10.2979
▁six	-10.2994
▁dragon	-10.2995
job	-10.3005
▁incredibl	-10.3019
lady	-10.302
ix	-10.3025
gun	-10.3029
▁decor	-10.3035
▁determin	-10.3039
va	-10.3041
▁mess	-10.3044
▁activiti	-10.3047
plant	-10.3063
tobe	-10.3071
ea	-10.3097
lace	-10.3098
ring	-10.31
▁stick	-10.3113
▁feature	-10.3115
rk	-10.3129
chwandorf	-10.3134
▁brunette	-10.3134
▁sigh	-10.3134
▁silence	-10.3134
▁lipstick	-10.3134
▁advance	-10.3134
▁starbuck	-10.3134
▁tumblr	-10.3134
▁argument	-10.3135
▁jewelry	-10.3136
▁massacre	-10.3136
▁playlist	-10.3138
▁newcastle	-10.3138
▁selfish	-10.3139
▁etsy	-10.3141
▁fed	-10.3144
▁magical	-10.3145
▁losang	-10.3146
romantic	-10.3148
▁pleasure	-10.3151
▁niece	-10.3151
▁nephew	-10.3151
▁suspect	-10.3151
▁document	-10.3152
▁jackson	-10.3152
▁funeral	-10.3152
▁field	-10.3153
▁roof	-10.3154
▁stephen	-10.3155
▁cheap	-10.3159
▁camera	-10.316
▁repeat	-10.3161
▁feelgood	-10.3165
▁changing	-10.3166
▁proof	-10.3166
▁irish	-10.3168
nshot	-10.3169
▁hollywood	-10.317
▁gator	-10.3172
▁jocox	-10.3174
▁iam	-10.3174
▁grass	-10.3175
▁humble	-10.318
▁library	-10.3183
▁grad	-10.3184
▁brighton	-10.3192
aud	-10.3193
▁regret	-10.3195
▁assault	-10.3196
▁bastard	-10.3197
▁condition	-10.3199
▁general	-10.3203
▁nights	-10.3203
▁blind	-10.3205
▁ac	-10.3206
▁prize	-10.321
▁among	-10.3213
▁suppos	-10.322
▁pull	-10.3221
▁habit	-10.3227
search	-10.3229
▁jeff	-10.3233
▁defend	-10.3238
▁prepar	-10.3238
▁hide	-10.3239
▁tim	-10.3256
ko	-10.3256
matter	-10.3261
▁mix	-10.3265
ife	-10.3274
▁micro	-10.3275
▁che	-10.3288
ki	-10.3298
▁candle	-10.3301
▁direction	-10.3308
▁ador	-10.3312
cup	-10.3334
▁teamb	-10.3353
▁bloggers	-10.3368
▁anna	-10.3373
ture	-10.3375
blue	-10.3381
▁correct	-10.3396
▁director	-10.3398
▁semi	-10.3406
▁soft	-10.3418
ol	-10.3427
▁rise	-10.3428
ons	-10.3429
▁bio	-10.3431
▁flow	-10.3443
▁wheel	-10.3445
▁exams	-10.3447
▁summ	-10.3454
video	-10.3467
▁farm	-10.3472
ely	-10.3474
▁solve	-10.3479
ome	-10.3497
tweet	-10.3499
▁dan	-10.3507
ang	-10.3524
▁usual	-10.353
bar	-10.3532
▁marketing	-10.3538
▁moto	-10.3541
read	-10.3548
point	-10.3549
▁desse	-10.3554
sta	-10.356
▁wise	-10.3563
ice	-10.3569
▁blow	-10.3569
▁slave	-10.3571
guide	-10.3572
▁confiden	-10.3579
▁guide	-10.3604
rn	-10.3605
ltwa	-10.3623
model	-10.3627
▁kicks	-10.3628
▁foods	-10.363
▁tan	-10.363
▁optimist	-10.3632
▁sand	-10.3635
bc	-10.3651
child	-10.3652
▁abuse	-10.3653
▁col	-10.3654
▁vid	-10.3656
▁window	-10.3657
ones	-10.3664
ise	-10.367
▁cam	-10.3675
ions	-10.3675
correct	-10.3675
playing	-10.3676
▁brave	-10.3687
ingham	-10.3705
▁shake	-10.3709
west	-10.3712
min	-10.3733
▁wins	-10.3744
▁va	-10.3749
▁increase	-10.3756
▁cheese	-10.3764
ins	-10.3767
▁yea	-10.3768
▁funday	-10.377
▁continu	-10.3773
▁pakistan	-10.3781
star	-10.3785
end	-10.3791
▁rag	-10.3791
parent	-10.3795
▁ev	-10.3808
py	-10.3811
▁lift	-10.3811
too	-10.3813
▁research	-10.3815
his	-10.3816
▁motivat	-10.3817
bihday	-10.3825
lin	-10.3832
possibl	-10.3854
being	-10.3863
▁referen	-10.3864
▁wealth	-10.3867
▁achieve	-10.3868
arat	-10.3869
ties	-10.3877
▁chris	-10.3879
roses	-10.388
fam	-10.3885
taly	-10.3886
▁korea	-10.3888
ify	-10.3891
▁loves	-10.3896
▁feed	-10.3901
▁discriminati	-10.3903
▁disrespect	-10.3903
▁aloha	-10.3904
▁balloon	-10.3904
▁forecast	-10.3905
▁dollar	-10.3905
▁alarm	-10.3905
▁resource	-10.3906
▁prom	-10.3906
▁anxious	-10.3907
▁caoon	-10.3907
▁letsgo	-10.3907
▁violent	-10.3908
▁butterfl	-10.3908
▁lgbtq	-10.3909
▁consumer	-10.3909
▁criminal	-10.391
▁hahaha	-10.3911
▁acne	-10.3911
▁adidas	-10.3912
▁tom	-10.3913
▁tradition	-10.3915
▁river	-10.3917
▁bloom	-10.392
▁debate	-10.3921
▁random	-10.3921
▁ramadhan	-10.3922
▁lush	-10.3922
▁productive	-10.3923
▁crystal	-10.3924
▁nutrition	-10.3926
bs	-10.3926
▁massage	-10.3926
▁lip	-10.3927
▁bbw	-10.3933
▁twitch	-10.3934
▁instahappy	-10.3942
green	-10.3943
▁zelda	-10.3946
▁destin	-10.3946
▁prison	-10.3947
▁lawyer	-10.3948
▁lemon	-10.395
▁mud	-10.3953
▁location	-10.3956
▁charity	-10.3958
bag	-10.3959
▁lasvegas	-10.3964
▁rapist	-10.3966
▁grandma	-10.3966
▁label	-10.3973
nz	-10.3978
▁stranger	-10.3988
▁courage	-10.3994
▁credit	-10.3994
▁thrive	-10.3995
▁floor	-10.4002
▁gender	-10.4004
▁planet	-10.4005
▁taylor	-10.401
▁curry	-10.4017
▁invest	-10.4017
▁pair	-10.4026
▁champ	-10.4039
▁wwe	-10.4043
across	-10.4046
▁strip	-10.4056
▁geek	-10.4058
▁stoke	-10.406
▁wor	-10.4062
poli	-10.4065
▁bestofthe	-10.4066
rending	-10.4067
friend	-10.4075
▁ji	-10.4087
▁sundayfun	-10.4094
▁treasure	-10.4096
▁repoer	-10.4096
nice	-10.411
▁ri	-10.4111
▁load	-10.4119
▁opposit	-10.4121
▁yep	-10.4121
▁owl	-10.4125
▁letter	-10.4128
verage	-10.4129
▁selling	-10.4132
fa	-10.4135
▁ger	-10.4138
living	-10.4159
rm	-10.4163
▁whoop	-10.4165
▁charm	-10.4171
▁area	-10.4171
hile	-10.4176
▁workers	-10.4177
▁standing	-10.4178
▁greed	-10.4181
▁rome	-10.4182
sweden	-10.4183
▁fired	-10.4188
ide	-10.4196
ade	-10.4201
▁budd	-10.4202
▁bomb	-10.4205
street	-10.4214
▁worrie	-10.4214
mind	-10.4225
▁cast	-10.4228
▁friendly	-10.4232
▁moh	-10.4233
▁mylove	-10.4238
▁grey	-10.4239
▁loveher	-10.4242
▁realise	-10.4246
ential	-10.4246
▁ran	-10.4262
right	-10.4263
▁racial	-10.4268
▁tells	-10.427
▁tur	-10.428
▁paint	-10.4292
▁af	-10.4292
▁el	-10.4296
word	-10.4333
em	-10.4333
▁arch	-10.4335
ave	-10.4344
▁swift	-10.435
▁mylife	-10.4355
yay	-10.4362
▁lookin	-10.4377
kid	-10.4379
▁kitten	-10.438
better	-10.4386
▁hack	-10.4392
ition	-10.4397
challenge	-10.4405
▁ku	-10.4407
cloud	-10.4428
▁cad	-10.4429
ymouth	-10.4436
gi	-10.4439
▁retro	-10.4439
dc	-10.4441
▁wont	-10.4445
sey	-10.4445
tu	-10.4446
▁palm	-10.4451
fit	-10.4455
ut	-10.4457
▁western	-10.4481
▁inc	-10.4482
▁yu	-10.4485
antonyel	-10.4489
lifestyle	-10.4498
unes	-10.4499
▁flat	-10.4507
▁dev	-10.4514
ashiq	-10.452
crash	-10.4523
▁retail	-10.4537
▁pen	-10.4538
▁illegal	-10.4541
▁films	-10.4542
▁hall	-10.4553
▁ja	-10.4553
▁ear	-10.4558
mad	-10.4563
▁coz	-10.4565
▁zoo	-10.4569
▁cutie	-10.4571
writing	-10.4577
▁plays	-10.458
pp	-10.4585
moon	-10.4585
▁gear	-10.4602
unge	-10.4608
▁nomnom	-10.461
▁forgive	-10.462
▁las	-10.4622
▁duck	-10.4633
▁provide	-10.4638
though	-10.4641
peace	-10.4641
▁obsess	-10.4647
▁falls	-10.4648
ern	-10.466
ban	-10.466
ru	-10.467
ml	-10.4686
xchange	-10.4696
▁nose	-10.4701
▁idol	-10.4708
oke	-10.4708
means	-10.4711
box	-10.4716
words	-10.472
▁actual	-10.472
▁pokemon	-10.4736
▁fundrais	-10.4736
▁independence	-10.4736
▁lmfao	-10.4736
▁according	-10.4736
▁glastonbury	-10.4736
▁describe	-10.4736
▁possibilit	-10.4736
▁peppa	-10.4736
▁marvel	-10.4736
▁nightmare	-10.4737
▁realestate	-10.4737
▁compassion	-10.4737
▁jeweller	-10.4737
▁decade	-10.4737
▁vscocam	-10.4738
▁attractive	-10.4738
▁endorse	-10.4738
▁denial	-10.4739
▁contact	-10.474
▁kpop	-10.4741
▁conversation	-10.4742
▁systemic	-10.4742
▁washington	-10.4743
▁gang	-10.4745
▁quiz	-10.4746
▁pulsenightclub	-10.4746
▁leeds	-10.4748
▁difference	-10.4755
▁weapon	-10.4756
▁traitor	-10.4756
▁accident	-10.4756
▁vehicle	-10.4756
▁jewish	-10.4757
▁sis	-10.476
▁salute	-10.476
rni	-10.4761
ell	-10.4761
pi	-10.4762
▁announcement	-10.4763
▁jive	-10.4764
▁selflove	-10.4765
▁blogging	-10.4766
▁pageant	-10.4768
▁suffer	-10.477
▁donaldtrump	-10.4771
▁fascist	-10.4772
▁refuse	-10.4773
▁latina	-10.4774
▁greeting	-10.4779
▁village	-10.4782
▁prevent	-10.4782
▁utter	-10.4786
▁appreciation	-10.4787
▁producer	-10.4789
▁mixed	-10.479
▁oak	-10.4793
▁tra	-10.4794
▁cricke	-10.4797
only	-10.4799
batman	-10.48
▁potato	-10.4801
▁patient	-10.4811
▁rude	-10.4812
▁woot	-10.4813
▁logo	-10.482
rones	-10.4822
ware	-10.4823
▁bowl	-10.483
▁euref	-10.4831
books	-10.4842
▁belong	-10.4848
ku	-10.4849
adventures	-10.4856
▁heroes	-10.4862
▁homemade	-10.4868
▁active	-10.4873
▁oscar	-10.4873
▁knock	-10.4874
▁position	-10.4875
graphic	-10.4887
▁porait	-10.4887
▁str	-10.4898
camping	-10.4898
▁zone	-10.4904
hillary	-10.4906
▁voter	-10.4911
che	-10.4923
▁creativ	-10.4923
rous	-10.493
plann	-10.4946
▁transformation	-10.4946
ette	-10.495
▁clue	-10.4959
▁score	-10.4961
▁cutest	-10.4963
▁remix	-10.4964
▁hole	-10.4971
▁lessons	-10.4972
▁reso	-10.4973
ela	-10.4993
lab	-10.4994
▁loo	-10.5001
nightclubshoot	-10.5004
▁lock	-10.5007
size	-10.5013
positive	-10.5014
eeth	-10.5016
run	-10.5022
▁seconds	-10.5024
▁ram	-10.5025
▁dub	-10.5037
▁points	-10.505
▁higher	-10.5051
babygirl	-10.5055
▁insult	-10.5062
witz	-10.5063
ple	-10.5066
▁inner	-10.5093
▁ven	-10.5099
▁blues	-10.5104
grind	-10.5121
▁pla	-10.514
cross	-10.5157
▁bother	-10.5158
▁calif	-10.5161
ore	-10.5167
▁teachers	-10.5169
▁cc	-10.5177
▁gm	-10.5183
▁hus	-10.5198
▁rele	-10.5204
▁improve	-10.5221
▁extremel	-10.5227
▁gin	-10.5227
blog	-10.5231
▁wit	-10.5232
edit	-10.5234
▁bal	-10.5237
▁rage	-10.524
▁checked	-10.5241
led	-10.5258
there	-10.5258
▁spoil	-10.5267
llness	-10.5272
▁bur	-10.5273
▁graduate	-10.5277
▁wrot	-10.5289
rock	-10.5294
▁educate	-10.5297
tan	-10.5304
▁vibe	-10.5304
annual	-10.5323
rage	-10.5323
▁mate	-10.5328
▁gentle	-10.533
learning	-10.5344
ature	-10.5346
eve	-10.5346
weight	-10.5348
▁pleased	-10.535
wembl	-10.5355
▁dec	-10.5367
forget	-10.5369
pic	-10.5372
ral	-10.538
▁smash	-10.5381
human	-10.5392
▁thi	-10.5393
ario	-10.5393
marketing	-10.5394
hotel	-10.5395
wall	-10.5399
▁prepare	-10.5407
▁engage	-10.5409
▁promot	-10.5409
▁dw	-10.5412
di	-10.5417
gen	-10.5425
▁introduc	-10.5429
rain	-10.5433
training	-10.5434
chi	-10.5436
▁rob	-10.5443
▁swear	-10.5456
rought	-10.5456
▁newyear	-10.5464
if	-10.5479
▁selfies	-10.5484
▁passe	-10.5484
▁prob	-10.5485
try	-10.549
camp	-10.5492
thing	-10.5502
▁doctor	-10.5511
▁whi	-10.5514
▁decid	-10.5529
dub	-10.5531
squad	-10.5545
elling	-10.5547
ney	-10.555
ale	-10.5554
nes	-10.5554
ppy	-10.5566
▁wing	-10.557
▁yoy	-10.5571
▁lovers	-10.5573
▁nigeria	-10.5575
▁notmypres	-10.5587
▁polish	-10.559
▁kim	-10.5597
▁arrest	-10.5606
gan	-10.5616
▁discuss	-10.5632
▁louis	-10.5635
yard	-10.564
ache	-10.564
▁rebecca	-10.5645
▁abraham	-10.5645
▁cucumber	-10.5645
▁rehearsal	-10.5645
kejri	-10.5645
▁bottom	-10.5645
▁sitges	-10.5645
▁plenty	-10.5646
▁firefly	-10.5646
▁hilarious	-10.5646
▁convince	-10.5646
▁preorder	-10.5646
▁silent	-10.5646
▁diversity	-10.5646
▁fascism	-10.5646
▁hurry	-10.5647
▁neighbor	-10.5647
▁seaside	-10.5649
▁awful	-10.565
▁definition	-10.5651
▁ko	-10.5651
▁snack	-10.5652
▁witness	-10.5653
▁soulmate	-10.5654
▁dogsare	-10.5654
▁feminist	-10.5655
▁victory	-10.5656
▁instamo	-10.5657
▁carlpal	-10.5657
▁defeat	-10.5657
▁sweetie	-10.5658
▁increasing	-10.5659
▁hbd	-10.566
▁prayersfor	-10.566
october	-10.5662
▁measure	-10.5663
▁grandmother	-10.5663
▁senior	-10.5663
▁disease	-10.5664
▁nike	-10.5666
▁hiphop	-10.5667
▁citizen	-10.5667
▁virgin	-10.5667
▁pregnant	-10.5667
▁electric	-10.5667
▁nigger	-10.5669
▁vocal	-10.5669
union	-10.5669
▁johnny	-10.5669
▁gross	-10.567
▁jump	-10.5671
▁punish	-10.5671
▁chinese	-10.5673
▁peek	-10.5673
▁hubby	-10.5674
▁teams	-10.5676
▁smoking	-10.5678
bul	-10.5679
▁iloveyou	-10.5685
▁freaking	-10.5686
▁coolest	-10.5686
▁btw	-10.5689
▁marathon	-10.5697
▁afford	-10.5698
▁burger	-10.5699
▁speed	-10.57
▁fault	-10.5708
▁corner	-10.5709
▁cheek	-10.5714
▁moron	-10.5715
zing	-10.5715
ished	-10.5725
▁farmers	-10.5725
omo	-10.5726
▁motivational	-10.5729
▁metal	-10.573
▁employees	-10.5732
▁lbs	-10.5733
▁machine	-10.5733
▁blowing	-10.5737
▁exo	-10.5739
▁superhero	-10.5743
bank	-10.5745
angels	-10.5746
▁presentation	-10.5748
▁croatia	-10.5756
▁suspend	-10.5759
▁majest	-10.576
ug	-10.5764
▁held	-10.5767
▁outrage	-10.5768
▁billy	-10.5769
square	-10.5772
ria	-10.5776
mu	-10.5776
▁trick	-10.5778
▁kev	-10.5778
amp	-10.5779
▁premiere	-10.5787
▁thrill	-10.5792
▁alaba	-10.5792
▁standard	-10.5793
▁polaris	-10.5797
▁former	-10.58
▁mission	-10.5813
ss	-10.5814
▁forest	-10.582
▁ove	-10.5821
▁mickey	-10.5821
▁bound	-10.583
pot	-10.5831
▁discover	-10.5835
▁climate	-10.5839
▁reflect	-10.5843
▁replace	-10.5847
▁responsib	-10.5849
ass	-10.5849
▁brutal	-10.5856
▁adveis	-10.5858
▁balls	-10.5862
▁manager	-10.5864
expected	-10.5866
▁bon	-10.5866
▁cri	-10.5867
ren	-10.5877
ident	-10.5878
▁putin	-10.5885
▁dm	-10.5889
▁looki	-10.589
▁merc	-10.589
▁ref	-10.5891
▁luc	-10.5896
▁cars	-10.5899
▁whites	-10.59
space	-10.5902
▁cows	-10.5905
bad	-10.5917
ja	-10.5919
ff	-10.5923
white	-10.5924
▁imwith	-10.5928
ya	-10.5939
▁employ	-10.5958
▁democrat	-10.596
have	-10.5961
▁photograph	-10.5966
▁leg	-10.5973
▁shoe	-10.5974
ston	-10.5978
▁boo	-10.5981
ung	-10.5986
▁steph	-10.5997
gay	-10.5997
▁ty	-10.5997
▁doesnt	-10.6009
happens	-10.6014
ings	-10.6014
▁cell	-10.6016
gate	-10.6031
▁primar	-10.6034
haust	-10.6034
▁thats	-10.6053
▁pump	-10.606
pt	-10.6072
water	-10.6075
ud	-10.6077
hin	-10.6086
▁hol	-10.6086
ook	-10.6094
asked	-10.6106
ach	-10.6118
sterda	-10.6125
thursday	-10.6132
▁arab	-10.6135
gging	-10.6144
▁cos	-10.6151
hub	-10.6152
▁opened	-10.6154
▁crooked	-10.6156
▁awake	-10.6158
▁hv	-10.6165
▁disgrace	-10.6168
▁surge	-10.6173
milit	-10.6181
pop	-10.6189
oops	-10.6196
basis	-10.6198
▁pigg	-10.6214
law	-10.6226
rose	-10.6235
sweet	-10.6244
ille	-10.6247
▁committe	-10.625
▁adam	-10.6269
monday	-10.6275
cake	-10.628
▁kare	-10.6287
london	-10.6299
▁millions	-10.6301
▁justin	-10.6309
▁que	-10.6326
▁reverse	-10.6329
▁ideal	-10.6332
▁nowa	-10.6333
williams	-10.6335
journey	-10.6337
▁pops	-10.6348
▁bell	-10.6353
rings	-10.6354
▁twins	-10.6358
times	-10.6358
magic	-10.6366
▁fitf	-10.6382
▁runner	-10.6382
▁volunteer	-10.6393
▁cm	-10.6396
▁breathe	-10.6401
▁spoke	-10.6401
uary	-10.6404
▁thinkbig	-10.6424
fail	-10.643
▁typ	-10.6436
▁cancel	-10.6442
▁revolution	-10.6446
miserable	-10.6446
▁chef	-10.6447
▁smell	-10.6459
▁zo	-10.6465
anders	-10.6469
ite	-10.6469
front	-10.6473
nc	-10.6475
ac	-10.6475
▁surpris	-10.6477
ually	-10.6487
ong	-10.6493
▁santa	-10.6493
ure	-10.6496
hill	-10.6498
▁uni	-10.6499
▁crush	-10.65
▁plane	-10.6504
▁mot	-10.6506
rica	-10.651
▁instag	-10.6516
▁kingd	-10.6526
▁sake	-10.6526
lu	-10.6541
▁lesson	-10.6544
▁flip	-10.6553
▁soo	-10.6556
▁kara	-10.6564
heworld	-10.6573
▁wind	-10.6576
relaxation	-10.6579
poet	-10.6583
▁pi	-10.6585
▁van	-10.6585
ndset	-10.6596
▁wave	-10.6598
▁fil	-10.6603
▁multi	-10.6607
▁drag	-10.6607
▁split	-10.661
super	-10.6612
▁awork	-10.6619
▁custom	-10.6622
▁strawberr	-10.6624
▁shall	-10.6624
▁defen	-10.6631
▁weigh	-10.6644
mb	-10.6644
▁engineer	-10.6644
fu	-10.6645
▁nintendo	-10.6645
▁occur	-10.6645
▁sculpt	-10.6645
▁kharkiv	-10.6645
▁amateur	-10.6645
▁contract	-10.6645
▁perhaps	-10.6645
▁jessica	-10.6645
▁tagsforlike	-10.6645
▁trigger	-10.6645
▁genius	-10.6645
▁adopt	-10.6645
▁starwars	-10.6645
▁navy	-10.6645
marsha	-10.6645
▁bracelet	-10.6646
▁arkansas	-10.6646
▁failure	-10.6647
▁godbless	-10.6647
boutique	-10.6649
▁effective	-10.665
▁jon	-10.665
▁routine	-10.665
choosing	-10.6651
▁uncle	-10.6652
▁demand	-10.6655
▁sala	-10.6655
▁longhair	-10.6658
▁embrace	-10.6658
▁univers	-10.6658
▁katie	-10.6659
▁bare	-10.6659
ack	-10.666
▁immigrant	-10.6661
▁frog	-10.6661
▁constitution	-10.6662
▁instamoment	-10.6663
▁stupidity	-10.6666
▁pitti	-10.6668
▁cocktail	-10.6669
▁alcohol	-10.6669
▁singapore	-10.6669
▁nashville	-10.6669
▁domestic	-10.6669
▁solution	-10.6669
▁popular	-10.6671
orex	-10.6671
▁broadway	-10.6671
▁pitch	-10.6673
▁classroom	-10.6673
▁circle	-10.6675
▁addition	-10.6676
▁treason	-10.6676
▁scott	-10.6679
▁teaser	-10.6681
▁privat	-10.6682
▁overcome	-10.6684
▁kindle	-10.6684
▁officers	-10.6684
▁struggle	-10.6687
▁gayboy	-10.669
▁ipad	-10.6691
▁darling	-10.6695
▁digital	-10.6696
minecraft	-10.6696
▁pants	-10.6696
▁belgi	-10.6698
tley	-10.6699
▁giveaway	-10.6701
▁switch	-10.6701
▁monsoon	-10.6702
▁concept	-10.6703
▁scout	-10.6707
▁mateen	-10.6709
▁dust	-10.6712
▁guilt	-10.6716
▁featur	-10.6716
ofth	-10.6718
mh	-10.6721
▁dia	-10.6722
▁sober	-10.6725
▁msg	-10.6732
skin	-10.6734
▁officer	-10.6744
▁odd	-10.6745
game	-10.6757
▁encourage	-10.6758
▁sadden	-10.6759
ified	-10.6759
▁amari	-10.676
▁sk	-10.6762
ril	-10.6764
▁secur	-10.6766
▁delta	-10.6769
▁owner	-10.6776
▁center	-10.6776
▁sponsor	-10.678
▁wale	-10.6781
cheers	-10.6784
▁failed	-10.6786
▁weddings	-10.6788
reform	-10.6801
▁nick	-10.6801
pro	-10.6801
vr	-10.6802
song	-10.6805
▁gar	-10.6811
▁hater	-10.682
▁sel	-10.682
▁skills	-10.6833
▁bringit	-10.6836
▁staer	-10.6836
▁mari	-10.6836
▁brooklyn	-10.6838
them	-10.6839
▁swing	-10.6843
▁sofa	-10.6845
▁hong	-10.685
ev	-10.6857
shire	-10.6865
rice	-10.6866
▁stopthe	-10.6866
furni	-10.6873
▁dating	-10.6877
wing	-10.6889
▁environmental	-10.689
▁marij	-10.6897
▁junior	-10.6902
uana	-10.6904
ious	-10.6904
▁ce	-10.6907
▁coast	-10.6911
▁abc	-10.6912
▁oppressiv	-10.6914
▁writ	-10.6926
▁wars	-10.6927
cent	-10.6933
▁mater	-10.6936
▁shocke	-10.6938
▁cleaning	-10.6953
▁bully	-10.696
▁union	-10.696
▁jean	-10.696
ast	-10.6961
whil	-10.6962
▁contest	-10.6963
▁assholes	-10.6969
▁sugar	-10.6971
vin	-10.6972
tea	-10.6973
▁programme	-10.6975
▁rough	-10.6976
aught	-10.6978
▁whisk	-10.6978
father	-10.6983
▁te	-10.6991
last	-10.6992
open	-10.6995
erland	-10.6997
lic	-10.7
▁ben	-10.7014
wayst	-10.7027
▁nottingh	-10.7029
▁qua	-10.7034
distance	-10.7035
ik	-10.704
jo	-10.7041
▁mrs	-10.7045
store	-10.7045
bus	-10.7045
orable	-10.7051
ween	-10.7051
▁pix	-10.7052
ando	-10.7058
▁shakes	-10.7063
who	-10.7065
▁mary	-10.7067
▁nut	-10.707
east	-10.707
wise	-10.7108
never	-10.7109
▁nah	-10.7114
chain	-10.7114
market	-10.7118
washed	-10.7129
▁anal	-10.7131
▁lame	-10.7132
▁republicans	-10.7135
emans	-10.7138
per	-10.7139
▁explore	-10.7141
▁gays	-10.7147
▁pin	-10.7164
ye	-10.7164
▁expos	-10.7171
▁compare	-10.7174
uned	-10.718
▁fred	-10.7183
bay	-10.7186
▁gutte	-10.7196
ess	-10.7197
▁organis	-10.7205
▁charles	-10.7209
▁react	-10.7211
ible	-10.7212
▁solo	-10.7227
quite	-10.7227
own	-10.7228
fi	-10.7234
myjob	-10.7234
▁ni	-10.7256
▁cal	-10.7257
▁mars	-10.726
nite	-10.7266
ments	-10.7267
ics	-10.7272
▁yeg	-10.7276
sin	-10.7284
vi	-10.7291
nyc	-10.73
cove	-10.7302
apa	-10.7302
cut	-10.7307
▁perfection	-10.731
sky	-10.7316
▁cris	-10.7323
▁rick	-10.7323
▁kn	-10.7327
ogue	-10.733
▁tele	-10.7337
▁islamophob	-10.7339
▁meaning	-10.734
▁bluesk	-10.7344
▁messages	-10.7344
▁williams	-10.7356
▁william	-10.7357
reading	-10.7377
hell	-10.7389
got	-10.7396
shop	-10.74
▁baseb	-10.7403
▁pac	-10.7406
▁countr	-10.7408
little	-10.7418
▁lean	-10.742
puppet	-10.742
drink	-10.7433
▁victoria	-10.7437
▁tu	-10.7449
speech	-10.745
▁gate	-10.7462
person	-10.7466
tention	-10.7468
au	-10.7469
myself	-10.7469
togo	-10.7481
ridge	-10.7483
▁winn	-10.7484
war	-10.7501
▁mentor	-10.7509
▁asia	-10.7515
▁services	-10.7518
▁impress	-10.752
▁relate	-10.7522
▁kat	-10.7531
▁pit	-10.7532
▁wed	-10.7541
▁tap	-10.7542
▁yup	-10.7542
dreams	-10.7554
added	-10.7557
hip	-10.7564
▁crafts	-10.7569
▁explor	-10.7569
aster	-10.7574
rapped	-10.7581
▁finale	-10.7585
▁negativ	-10.7587
station	-10.7589
▁modi	-10.7589
ended	-10.7609
▁ob	-10.7632
session	-10.7632
▁extremis	-10.7641
▁moms	-10.7645
mine	-10.7647
▁theme	-10.7652
▁bee	-10.7657
▁happ	-10.766
▁messi	-10.7664
▁cd	-10.7683
▁suicid	-10.7684
yo	-10.7685
▁nite	-10.7692
ig	-10.7697
any	-10.7702
cheste	-10.7706
▁glitter	-10.7707
▁nomore	-10.7709
hicks	-10.771
limit	-10.7717
tive	-10.7726
woh	-10.7727
bridge	-10.7729
▁prayfo	-10.773
mag	-10.7731
kin	-10.7732
lips	-10.7733
▁earn	-10.7743
lovers	-10.7744
▁exp	-10.775
woman	-10.7753
▁cruel	-10.7755
▁expose	-10.7755
▁orangeisthenew	-10.7756
▁wattpad	-10.7756
▁bridesmaid	-10.7756
▁embarrass	-10.7756
▁financial	-10.7756
▁infinite	-10.7756
▁muhammad	-10.7756
▁neighbour	-10.7756
▁gordie	-10.7756
▁retire	-10.7756
▁mcdonald	-10.7756
▁technolog	-10.7756
▁proverb	-10.7756
▁vanilla	-10.7757
▁mentalhealth	-10.7757
▁flourish	-10.7757
▁vendor	-10.7757
▁religious	-10.7757
▁coupon	-10.7757
▁alternative	-10.7757
▁tyler	-10.7758
▁intoleran	-10.7758
▁emoji	-10.7758
▁industrial	-10.7758
▁hulk	-10.7759
▁abundan	-10.7759
▁glasto	-10.776
▁clown	-10.7761
▁drake	-10.7761
follow	-10.7761
▁distress	-10.7761
▁tournament	-10.7762
▁thunder	-10.7762
▁element	-10.7762
▁goodluck	-10.7765
▁outrageous	-10.7766
▁speaks	-10.7767
▁bruh	-10.7768
▁argentin	-10.7769
▁christ	-10.777
▁interior	-10.7771
▁ahhh	-10.7774
▁teamwork	-10.7776
▁logic	-10.7777
▁fuel	-10.7778
▁catsof	-10.7778
▁harry	-10.7779
▁elect	-10.778
forlife	-10.778
▁harass	-10.778
▁terrific	-10.778
▁neighborhood	-10.7781
▁corporate	-10.7781
▁individual	-10.7782
▁camgirl	-10.7782
▁ottawa	-10.7782
▁motherfucker	-10.7783
▁houston	-10.7783
▁feedback	-10.7783
▁connection	-10.7783
▁haircut	-10.7784
▁saturdaynight	-10.7784
▁inspir	-10.7785
▁safety	-10.7786
▁democratic	-10.7788
▁wenger	-10.7789
▁joyful	-10.779
▁alum	-10.7794
▁extend	-10.7796
▁intern	-10.7797
▁upgrade	-10.7797
▁pocket	-10.7799
▁homophobi	-10.78
▁valentine	-10.78
▁injustice	-10.78
miss	-10.7802
▁injur	-10.7803
▁italian	-10.7803
▁flash	-10.7804
lost	-10.7808
▁grill	-10.781
▁effect	-10.7812
▁bre	-10.7813
ramsey	-10.7813
▁stella	-10.7813
▁mount	-10.7815
▁develop	-10.7816
▁spoiled	-10.7818
▁jazz	-10.7819
▁upon	-10.7821
▁israeli	-10.7821
rocks	-10.7821
▁mango	-10.7821
gs	-10.7822
pace	-10.7823
▁mourn	-10.7823
▁ci	-10.7824
wo	-10.7826
▁dawn	-10.7827
▁lifeis	-10.7827
▁tummy	-10.7828
▁bihdays	-10.783
▁mummy	-10.783
▁queens	-10.7833
▁skinny	-10.7837
▁planned	-10.7838
▁council	-10.7843
▁surf	-10.7845
▁enter	-10.7848
▁mega	-10.7848
etic	-10.785
▁horses	-10.785
ybig	-10.785
▁deeply	-10.7851
dia	-10.7864
▁pub	-10.7866
▁veggie	-10.7867
▁augusta	-10.7868
disgraceful	-10.7868
▁screw	-10.7874
ger	-10.7875
dex	-10.7875
▁costa	-10.788
fire	-10.7881
▁flame	-10.7882
talks	-10.7886
ita	-10.7887
▁cash	-10.7896
▁doodle	-10.7898
▁refugees	-10.79
▁maria	-10.7902
ration	-10.7902
▁lyon	-10.7905
▁aware	-10.7905
garden	-10.7908
▁boots	-10.791
▁rush	-10.7913
loves	-10.7915
ends	-10.7916
▁journalist	-10.7919
▁wat	-10.792
▁tale	-10.7924
▁australian	-10.7926
ga	-10.7929
▁bread	-10.7933
▁fuckin	-10.7936
▁lump	-10.7938
▁slide	-10.7944
▁hire	-10.7945
▁xd	-10.7945
ular	-10.7947
▁indi	-10.7947
▁greatness	-10.7949
▁placement	-10.795
▁privilege	-10.7951
ji	-10.7954
▁dna	-10.7955
▁pup	-10.7959
del	-10.7961
▁highly	-10.7961
fully	-10.7964
ju	-10.7966
▁stray	-10.7968
▁auspo	-10.7973
▁kik	-10.7974
rich	-10.7975
▁lily	-10.7979
▁bra	-10.7983
▁tower	-10.7984
▁champions	-10.7984
▁philly	-10.7986
yet	-10.7993
▁punjabi	-10.7995
▁nowhere	-10.7996
▁kin	-10.7997
▁perfectly	-10.7999
▁har	-10.8003
▁thegood	-10.8004
▁cruise	-10.8009
▁hardwork	-10.8014
▁strange	-10.8018
lincol	-10.8021
▁corn	-10.8021
▁recogni	-10.8038
mark	-10.8052
▁lifehack	-10.8053
▁slim	-10.8058
aking	-10.8059
▁wasted	-10.8065
▁hook	-10.8068
▁aug	-10.8069
▁gray	-10.8069
▁frame	-10.8072
▁falling	-10.8079
ado	-10.808
▁strike	-10.8085
▁tee	-10.8091
▁nonsens	-10.8092
▁marine	-10.8092
ake	-10.8093
▁dep	-10.8094
▁funtime	-10.8098
dk	-10.81
pagan	-10.8104
▁engag	-10.8107
cked	-10.8109
ner	-10.8116
▁resign	-10.8126
▁beside	-10.8129
treat	-10.8135
▁upside	-10.8155
▁windows	-10.8159
▁applet	-10.8162
▁istan	-10.8173
▁tw	-10.8179
tch	-10.8185
from	-10.8188
▁signing	-10.8192
▁premi	-10.8203
▁subt	-10.8207
▁stoppe	-10.821
ations	-10.8219
ric	-10.8221
▁lad	-10.8228
▁shak	-10.8246
▁headline	-10.8248
▁dreamca	-10.825
▁cred	-10.825
ride	-10.8251
oo	-10.8255
ov	-10.8262
▁lab	-10.8278
pent	-10.8283
▁saved	-10.8287
▁bent	-10.8289
▁mentali	-10.8295
spect	-10.8297
▁invent	-10.8299
▁ill	-10.8304
▁vr	-10.8307
break	-10.8309
▁sink	-10.831
ano	-10.8316
▁sup	-10.8329
waiting	-10.8329
▁fm	-10.8345
aturday	-10.8346
▁refresh	-10.8348
▁acc	-10.8349
▁weekends	-10.8358
francisc	-10.8366
▁stan	-10.8366
▁chees	-10.8368
▁exc	-10.8382
▁personali	-10.8382
fl	-10.8383
wc	-10.839
▁hott	-10.8392
▁stroll	-10.8393
▁keys	-10.8396
▁rub	-10.8399
darkness	-10.8401
▁dive	-10.8413
ep	-10.8414
▁sam	-10.8417
lee	-10.8418
▁waited	-10.8422
▁gamers	-10.8429
▁fella	-10.843
mbled	-10.8446
▁lib	-10.8446
▁glow	-10.8454
dogs	-10.8463
▁theater	-10.8465
crime	-10.8466
▁masters	-10.8467
phy	-10.8472
▁camper	-10.8476
▁hav	-10.8477
gold	-10.8478
▁mor	-10.8478
obs	-10.848
cle	-10.848
bts	-10.8488
▁jai	-10.8499
▁myhappy	-10.8506
▁faced	-10.8512
▁instaa	-10.8515
▁mak	-10.8518
▁wembl	-10.8523
bit	-10.8526
ira	-10.8536
proud	-10.854
▁comb	-10.8541
tar	-10.8549
▁theresista	-10.8552
wards	-10.8554
▁hood	-10.8558
has	-10.8558
▁cont	-10.8567
▁cho	-10.8578
▁mcca	-10.8594
tec	-10.8609
▁seven	-10.8615
please	-10.8615
itude	-10.8617
always	-10.8627
ci	-10.8628
▁potter	-10.863
▁asshole	-10.8636
sexism	-10.8636
forward	-10.8637
▁tru	-10.8646
▁net	-10.8648
▁baker	-10.8648
nut	-10.8651
ukh	-10.8653
ct	-10.8659
▁valle	-10.866
su	-10.866
▁peak	-10.8665
▁playa	-10.8668
mont	-10.8669
console	-10.8671
kidding	-10.8675
church	-10.8683
swift	-10.8686
▁tip	-10.8688
clinton	-10.8689
conjur	-10.869
network	-10.8691
horror	-10.8691
▁rec	-10.8694
lifehack	-10.8694
studio	-10.8696
rey	-10.8697
ground	-10.8697
clothes	-10.8698
wednesday	-10.8698
junior	-10.87
▁lov	-10.8702
radio	-10.8703
transformation	-10.8705
▁thebest	-10.8708
ona	-10.871
bir	-10.8714
▁pun	-10.872
▁cycle	-10.8722
cosmetics	-10.8724
nky	-10.8725
▁wee	-10.8729
▁jet	-10.8734
dor	-10.8739
▁mug	-10.874
llahs	-10.8741
ized	-10.8741
ari	-10.8742
▁travell	-10.8744
watching	-10.8745
▁ultra	-10.8752
cr	-10.8754
▁atm	-10.8759
feeling	-10.8759
plus	-10.8762
about	-10.877
don	-10.8772
▁rev	-10.8774
let	-10.8776
ag	-10.8776
grann	-10.8787
▁recognize	-10.8789
▁sunrise	-10.881
ohio	-10.8817
▁badge	-10.8821
▁bud	-10.8824
▁contain	-10.8829
yoga	-10.8833
▁doggy	-10.8833
soul	-10.8842
▁bin	-10.8852
▁bass	-10.8853
wait	-10.8854
class	-10.8854
▁slimmingworld	-10.8858
▁chip	-10.8858
▁preach	-10.887
mc	-10.8887
▁charg	-10.8892
▁jaguar	-10.8894
burn	-10.8895
▁apologi	-10.8899
peopl	-10.89
▁champion	-10.89
▁warrior	-10.8902
spot	-10.8908
▁excite	-10.8911
▁introduce	-10.8913
ils	-10.8915
suit	-10.8925
▁stopp	-10.893
link	-10.8933
▁bali	-10.8935
▁stylis	-10.8949
bike	-10.8954
wine	-10.8954
▁numb	-10.896
▁hip	-10.8973
know	-10.8974
hrowbackthursday	-10.8978
▁accessor	-10.898
▁premier	-10.898
▁wak	-10.8983
tation	-10.8987
▁jun	-10.8987
▁pearl	-10.8988
▁econom	-10.899
▁mas	-10.8992
▁attract	-10.8995
▁orienta	-10.8998
▁vlog	-10.9001
▁letsdo	-10.9006
▁bristol	-10.9006
▁carnival	-10.9006
▁glasgow	-10.9006
▁pougal	-10.9006
▁tennessee	-10.9006
▁ceremon	-10.9006
▁disappear	-10.9006
▁constant	-10.9006
▁landscape	-10.9006
▁afghan	-10.9006
▁blatant	-10.9006
▁samsung	-10.9006
▁sarcas	-10.9006
▁gossip	-10.9006
▁surround	-10.9006
▁farewell	-10.9006
▁watermelo	-10.9006
▁selfharm	-10.9007
▁florence	-10.9007
▁abandon	-10.9007
▁montreal	-10.9007
▁pinoy	-10.9007
▁require	-10.9007
▁appointment	-10.9007
▁vijay	-10.9007
▁anchor	-10.9008
▁betray	-10.9008
▁craving	-10.9008
▁grab	-10.9008
▁cherry	-10.9008
▁conspirac	-10.9008
▁bollywood	-10.9008
▁desire	-10.9009
olathe	-10.9009
step	-10.9009
toric	-10.901
▁resignation	-10.9011
▁snatch	-10.9011
▁brief	-10.9012
▁natalie	-10.9013
▁starek	-10.9014
▁region	-10.9014
▁destination	-10.9014
▁threaten	-10.9014
▁refund	-10.9015
▁relat	-10.9015
▁wendy	-10.9016
▁wander	-10.9018
▁declare	-10.9019
▁harm	-10.902
▁trek	-10.902
▁display	-10.902
▁audition	-10.902
▁collect	-10.9021
▁rifle	-10.9021
▁clap	-10.9022
▁stadium	-10.9022
▁dese	-10.9022
▁airline	-10.9023
▁kelly	-10.9025
▁fairyta	-10.9025
▁mensfashion	-10.9026
▁tak	-10.9027
▁triste	-10.9028
▁piss	-10.9029
customerservice	-10.9029
▁nxt	-10.903
▁appeal	-10.9031
▁kar	-10.9031
▁audio	-10.9031
▁sabbath	-10.9033
▁xboxone	-10.9034
▁teenager	-10.9035
ft	-10.9035
▁pregnancy	-10.9036
▁centur	-10.9036
▁glorious	-10.9037
▁wildlife	-10.9038
▁damage	-10.9039
boat	-10.9041
ily	-10.9042
founate	-10.9042
picnic	-10.9043
▁disappointment	-10.9043
▁goodread	-10.9046
▁sacrifice	-10.9047
▁relative	-10.9047
▁greek	-10.9048
▁economic	-10.9048
cal	-10.9052
burg	-10.9052
▁brighten	-10.9052
▁hiking	-10.9054
▁monster	-10.9058
▁breakup	-10.9063
was	-10.9068
▁museum	-10.9071
▁expat	-10.9073
▁pueo	-10.9075
▁unite	-10.9075
gains	-10.9076
▁sauce	-10.9077
▁missyou	-10.9077
▁belief	-10.9077
▁shades	-10.9077
▁brick	-10.9078
bucket	-10.9079
com	-10.908
▁march	-10.9084
▁mill	-10.9084
▁engineering	-10.9085
▁strawberry	-10.9091
▁proper	-10.9092
▁barry	-10.9093
▁vega	-10.9094
saturday	-10.9094
▁booking	-10.9099
▁newjob	-10.9104
▁float	-10.9105
▁bum	-10.9111
▁advocate	-10.9112
▁slice	-10.9112
▁pencil	-10.9119
press	-10.9124
▁trial	-10.9127
gh	-10.913
ys	-10.913
▁thug	-10.9131
▁ima	-10.9132
▁worldocea	-10.9134
▁fixed	-10.9138
▁resident	-10.9142
kok	-10.9142
▁shape	-10.9145
▁greatful	-10.9149
▁mast	-10.9151
▁aunt	-10.9151
▁status	-10.9153
babe	-10.9154
▁admit	-10.9154
▁emma	-10.9154
▁huh	-10.9156
aska	-10.9159
▁boost	-10.916
▁psycho	-10.9163
▁korean	-10.9164
▁slaughter	-10.9164
fish	-10.9164
anna	-10.9165
vo	-10.9165
▁punt	-10.9169
▁pout	-10.9171
▁fringe	-10.9172
▁annoying	-10.9173
▁catching	-10.9174
▁banker	-10.9176
▁install	-10.9176
▁answered	-10.9176
▁lovemy	-10.918
tcher	-10.9187
▁broad	-10.919
palace	-10.9195
▁rugby	-10.9197
▁candy	-10.92
▁thevoice	-10.9202
orni	-10.9202
▁twin	-10.9202
▁section	-10.9204
▁chronic	-10.9206
▁clar	-10.9209
▁empower	-10.9215
▁pres	-10.9216
▁dope	-10.9216
▁button	-10.9219
dead	-10.9235
▁zero	-10.924
▁saint	-10.9241
▁eleg	-10.9241
▁daniel	-10.9244
action	-10.9246
▁hum	-10.9251
hana	-10.9254
▁drugs	-10.9257
▁tule	-10.9258
▁vaca	-10.9271
see	-10.9272
▁motor	-10.9277
election	-10.9285
▁touche	-10.9285
long	-10.9286
▁coward	-10.929
note	-10.9292
▁complaint	-10.9293
▁mag	-10.9299
its	-10.93
▁unity	-10.9306
gator	-10.9307
▁naturally	-10.9308
▁philip	-10.9313
leston	-10.9313
▁deni	-10.9323
▁livelife	-10.9329
just	-10.933
▁gov	-10.9338
hits	-10.9338
▁defame	-10.9341
▁inked	-10.9341
▁galler	-10.9345
andhi	-10.9347
▁gem	-10.935
polis	-10.9355
ual	-10.9358
▁dissap	-10.936
rah	-10.9369
emergenc	-10.937
▁ebook	-10.9375
▁pcs	-10.9376
fc	-10.9378
▁mike	-10.9378
tw	-10.9385
▁insight	-10.9385
▁tube	-10.9387
▁covered	-10.9393
dies	-10.94
pig	-10.9402
▁eco	-10.9405
▁rolling	-10.9408
▁kg	-10.9419
▁stom	-10.9422
▁scar	-10.9425
istic	-10.9433
tra	-10.9433
▁payday	-10.9437
▁prime	-10.9437
eezy	-10.9444
▁prov	-10.9446
yrs	-10.9453
ded	-10.9458
▁anthem	-10.9468
▁bubbl	-10.9471
▁yelc	-10.9473
▁manag	-10.9474
▁lower	-10.9482
▁cdn	-10.9498
▁den	-10.9498
▁optimis	-10.9499
▁rare	-10.9503
▁dig	-10.9506
▁include	-10.9512
▁goat	-10.9515
▁trends	-10.9516
▁songwrit	-10.9518
ssed	-10.9527
etta	-10.9527
▁novel	-10.9528
oon	-10.9532
ambassador	-10.9543
▁mont	-10.9544
ofa	-10.9564
▁glamo	-10.9564
▁heel	-10.9569
▁conc	-10.957
modu	-10.9571
▁happie	-10.9573
roll	-10.9573
▁atlant	-10.9577
ama	-10.9578
▁rio	-10.9579
▁beep	-10.958
▁juice	-10.9583
▁loose	-10.9592
▁pol	-10.9592
▁graphic	-10.9592
chips	-10.9594
aka	-10.9596
mer	-10.9597
▁shipp	-10.9597
▁rep	-10.9601
▁cypr	-10.9601
rie	-10.9603
▁ink	-10.9615
der	-10.9621
▁lips	-10.9625
▁chil	-10.9643
▁opera	-10.9645
▁older	-10.9648
▁blam	-10.9652
quote	-10.9655
▁dancer	-10.9656
sed	-10.966
appy	-10.966
▁phil	-10.9665
lies	-10.9665
mar	-10.9667
agement	-10.9669
▁sha	-10.9669
lot	-10.9679
president	-10.968
will	-10.9683
but	-10.9684
pl	-10.9689
ines	-10.9693
▁yel	-10.9701
date	-10.9703
▁foto	-10.9713
▁baba	-10.9719
▁cro	-10.9726
▁cl	-10.9731
▁peter	-10.9735
ler	-10.9736
▁prope	-10.9747
▁reunite	-10.975
▁icon	-10.9752
buk	-10.9762
▁rg	-10.9764
▁putt	-10.9766
even	-10.9771
fohe	-10.9772
▁aw	-10.9773
▁om	-10.9773
▁records	-10.9773
tho	-10.9781
▁rational	-10.9788
bby	-10.9789
▁devastat	-10.9797
▁gre	-10.9803
service	-10.9806
▁bone	-10.9807
▁lively	-10.9808
▁subs	-10.981
omania	-10.9811
▁greatday	-10.9814
res	-10.9815
▁bri	-10.9823
seen	-10.9827
scifi	-10.9828
▁fund	-10.983
spirit	-10.9842
▁assume	-10.9847
ming	-10.9857
▁irre	-10.986
▁lisa	-10.9862
har	-10.9867
creator	-10.987
▁sen	-10.9878
▁lang	-10.989
▁era	-10.9891
message	-10.9903
ef	-10.9904
shed	-10.991
wan	-10.9918
ezu	-10.9919
rak	-10.9929
rew	-10.993
oc	-10.993
ouch	-10.9931
nx	-10.9941
ett	-10.9941
ideas	-10.9948
▁irl	-10.9952
voice	-10.9956
▁couples	-10.996
ek	-10.9977
cute	-10.9984
▁captain	-10.9984
bomb	-10.9995
▁fou	-10.9998
spring	-11.0002
iff	-11.0004
everyone	-11.0017
▁venu	-11.0018
yc	-11.0029
excited	-11.0029
▁pug	-11.003
aist	-11.0037
erie	-11.0038
▁capital	-11.0039
diego	-11.004
making	-11.0043
funny	-11.0043
wheel	-11.0048
▁capture	-11.0053
▁poo	-11.0053
▁gp	-11.0053
month	-11.0069
ky	-11.0072
zy	-11.0073
everything	-11.0073
through	-11.0078
money	-11.0092
ologne	-11.0092
formation	-11.0093
▁coco	-11.0095
group	-11.0095
▁caus	-11.0095
business	-11.0098
▁sharp	-11.01
▁audi	-11.0101
diff	-11.0103
▁guid	-11.0108
▁immigrat	-11.0109
university	-11.0112
alyssa	-11.012
▁cb	-11.0122
▁vir	-11.0128
ini	-11.0129
empower	-11.013
secret	-11.0131
▁sim	-11.0139
trust	-11.014
▁sn	-11.0142
pool	-11.0144
▁sail	-11.015
ls	-11.015
▁beast	-11.0155
ummer	-11.0158
bear	-11.0162
best	-11.0164
▁walt	-11.0184
▁instam	-11.0193
case	-11.0195
broad	-11.0198
▁bir	-11.0205
▁diamond	-11.0206
▁rebel	-11.0206
▁des	-11.0207
▁turk	-11.0211
irf	-11.0221
tterwarnu	-11.0223
▁wk	-11.0225
rac	-11.0226
aya	-11.0228
▁eli	-11.0228
science	-11.0229
▁exhibit	-11.023
nu	-11.0233
lounge	-11.0236
▁freak	-11.0242
▁addict	-11.0245
together	-11.0246
rat	-11.0248
▁conve	-11.0253
▁owners	-11.026
▁rocket	-11.026
joke	-11.0266
comics	-11.0273
cast	-11.0276
▁eva	-11.0282
ving	-11.0283
fin	-11.0285
karee	-11.0286
shore	-11.0287
▁ric	-11.0287
witter	-11.0288
▁taco	-11.0289
▁beyou	-11.0291
christina	-11.0291
▁km	-11.0291
▁roo	-11.0292
▁disa	-11.0293
▁jane	-11.0295
event	-11.0297
▁experienc	-11.0297
▁sab	-11.0298
▁crash	-11.03
▁imaginati	-11.03
▁antisemiti	-11.0307
ped	-11.0308
tech	-11.0312
born	-11.0316
▁edition	-11.0325
▁traffic	-11.0327
ants	-11.0332
▁integr	-11.0334
▁kno	-11.0339
▁rad	-11.0341
▁range	-11.0342
eenth	-11.0347
▁brit	-11.0354
▁latin	-11.0356
▁overwhelm	-11.0357
▁amaz	-11.0361
▁jacob	-11.0369
what	-11.0369
▁env	-11.0371
▁kisse	-11.0376
▁sooooo	-11.0381
sitive	-11.0386
▁shis	-11.0389
itation	-11.04
▁curb	-11.0402
zza	-11.0402
ala	-11.0402
▁prosec	-11.0408
▁exci	-11.0413
▁regula	-11.0415
▁brazil	-11.0419
▁transform	-11.0422
▁steve	-11.0428
augu	-11.0429
▁civil	-11.0431
▁detroit	-11.0435
▁divorce	-11.0435
▁elephant	-11.0435
▁eyebrow	-11.0435
▁minnesota	-11.0435
▁pedophil	-11.0435
▁pineapple	-11.0435
▁reggae	-11.0435
▁thalaivaa	-11.0435
▁ultimate	-11.0435
▁experiment	-11.0435
▁neutral	-11.0435
▁triumph	-11.0435
▁vegetable	-11.0435
▁fascinati	-11.0435
▁sociopath	-11.0435
▁harrypotter	-11.0435
▁delegate	-11.0435
▁unemploy	-11.0435
▁empire	-11.0435
▁tinyplanet	-11.0435
▁aupair	-11.0435
▁psycholog	-11.0435
▁foreign	-11.0435
▁hackney	-11.0435
▁ojmade	-11.0435
▁pundit	-11.0435
▁royaltyfree	-11.0435
▁quanti	-11.0435
▁dish	-11.0436
▁prefer	-11.0436
▁stanley	-11.0436
▁hijack	-11.0436
▁comfy	-11.0436
▁championship	-11.0436
earlier	-11.0436
utiful	-11.0437
▁comprehend	-11.0437
▁bathroom	-11.0437
▁unicorn	-11.0437
▁humanrights	-11.0437
▁cameron	-11.0437
▁labour	-11.0437
▁panel	-11.0437
▁approve	-11.0438
▁stressfree	-11.0438
▁gypsy	-11.0438
▁amount	-11.0438
▁institution	-11.0439
▁prospect	-11.0439
disturb	-11.0439
▁galway	-11.0439
▁henry	-11.0439
▁goofy	-11.044
▁comprehensi	-11.044
▁offensive	-11.0441
▁freespirit	-11.0441
▁legendary	-11.0441
▁gurl	-11.0442
▁jerry	-11.0446
▁blueeyes	-11.0446
▁fancy	-11.0447
ceified	-11.0449
wisconsin	-11.0449
ordinary	-11.0451
▁fearless	-11.0451
▁notification	-11.0452
▁apament	-11.0453
▁principle	-11.0453
▁patch	-11.0456
▁reserv	-11.0456
▁dustin	-11.0457
▁omar	-11.0457
▁progressive	-11.0458
millennial	-11.0461
▁leftist	-11.0463
▁achievement	-11.0463
▁bump	-11.0463
▁udta	-11.0464
▁bonus	-11.0464
▁cmon	-11.0466
▁wetter	-11.0466
▁mallorca	-11.0467
hippie	-11.0467
▁purple	-11.0467
▁depaure	-11.0467
▁luke	-11.0467
▁caribbean	-11.0468
▁gemini	-11.0468
▁malaysia	-11.0469
▁marbella	-11.0469
▁impo	-11.0469
▁survivor	-11.0469
▁disorder	-11.0469
▁flashback	-11.047
▁item	-11.0472
rest	-11.0472
▁engagement	-11.0472
▁giggl	-11.0473
fuck	-11.0473
▁thomas	-11.0474
▁oppounit	-11.0475
▁billion	-11.0475
▁shane	-11.0475
▁bogum	-11.0477
▁cult	-11.0481
▁minority	-11.0485
▁rapper	-11.0485
ron	-11.0485
▁hormone	-11.0486
▁breeze	-11.0486
▁drums	-11.0487
▁heaache	-11.0488
▁expe	-11.049
▁alien	-11.0491
▁ide	-11.0491
▁instatravel	-11.0493
▁simon	-11.0498
▁laura	-11.0505
▁fili	-11.0509
▁nailed	-11.0511
▁heavy	-11.0514
▁sorrow	-11.0515
▁modern	-11.0515
▁incident	-11.0516
▁dorset	-11.0517
lready	-11.0519
▁twist	-11.052
▁crown	-11.0522
▁disagree	-11.0523
▁showcase	-11.0525
ray	-11.0526
▁esp	-11.0527
▁checkout	-11.0529
▁profit	-11.053
▁almight	-11.0531
▁dragg	-11.0532
▁lewis	-11.0534
▁clo	-11.0544
▁hyper	-11.0544
▁emotionally	-11.0544
▁jumping	-11.0547
▁refer	-11.0549
▁holly	-11.0552
▁shadow	-11.0552
▁deaths	-11.0553
▁showtime	-11.0555
▁endof	-11.0558
kept	-11.056
▁sw	-11.0562
▁smoothie	-11.0563
▁honour	-11.0564
▁treatment	-11.0566
▁hustle	-11.0568
▁draft	-11.0568
▁misc	-11.0572
▁bite	-11.0574
▁dave	-11.0576
dge	-11.0581
▁investigat	-11.0587
▁semiti	-11.059
▁pushing	-11.0591
champ	-11.0592
▁ahhhh	-11.0594
▁poe	-11.0594
shuaibu	-11.0595
▁zeal	-11.0603
▁peh	-11.0605
▁giftidea	-11.0608
▁elizabeth	-11.061
sibling	-11.0611
ich	-11.0628
▁yogi	-11.0631
▁historical	-11.0633
▁sticker	-11.0642
obsession	-11.0646
▁balanced	-11.0647
ned	-11.0649
▁package	-11.065
▁libe	-11.0653
▁ru	-11.0654
▁hypocrite	-11.0662
onference	-11.067
▁ivan	-11.0673
knight	-11.0675
▁wide	-11.0675
▁compi	-11.0676
▁ranger	-11.0677
ew	-11.0683
▁plain	-11.0686
curious	-11.0687
▁hehe	-11.0689
▁prof	-11.0697
▁decorat	-11.0698
▁sicken	-11.0699
▁stem	-11.0708
omf	-11.0712
▁eternal	-11.0716
▁prosper	-11.0719
tting	-11.0721
bob	-11.0728
mber	-11.0733
craft	-11.074
▁knee	-11.0742
inventi	-11.0742
cha	-11.075
▁skate	-11.0767
sp	-11.0768
▁jar	-11.0772
ofthr	-11.0776
▁hai	-11.0784
▁winni	-11.0785
▁tiger	-11.0787
sleeve	-11.0787
▁barbie	-11.0792
▁apply	-11.0795
tribute	-11.0802
learned	-11.0805
si	-11.0812
alone	-11.0814
▁decorati	-11.0824
▁asks	-11.0835
ui	-11.0836
▁fest	-11.0838
celebration	-11.084
raining	-11.0844
want	-11.0845
▁feelin	-11.0845
iscoming	-11.0847
▁bombs	-11.0849
dream	-11.085
gency	-11.0861
dele	-11.0862
▁reall	-11.0864
▁cuck	-11.0868
find	-11.0872
▁cancell	-11.0874
▁lan	-11.0874
▁ace	-11.0879
▁patien	-11.0888
og	-11.0889
▁deceive	-11.089
▁sides	-11.0892
kes	-11.0895
setts	-11.0901
ayya	-11.0903
▁server	-11.091
▁physic	-11.0913
▁mile	-11.0915
▁mtb	-11.0919
advantage	-11.0922
▁argu	-11.0934
▁deck	-11.0936
▁marc	-11.0945
yyy	-11.0948
▁aka	-11.0961
release	-11.0964
cu	-11.0965
▁dry	-11.0966
mantra	-11.0968
gift	-11.0972
▁hindu	-11.0972
▁royals	-11.0973
nsday	-11.0973
clean	-11.0978
smiles	-11.0981
maste	-11.0983
rex	-11.0984
▁divide	-11.0985
map	-11.099
▁chicks	-11.0994
▁manga	-11.0994
▁shin	-11.1
▁vacations	-11.1002
oman	-11.1004
▁bac	-11.1011
jan	-11.1013
▁nj	-11.1017
▁divisi	-11.1017
▁lik	-11.1026
big	-11.1036
▁stair	-11.1041
▁polo	-11.105
▁brows	-11.1054
fer	-11.106
gainst	-11.1061
▁dedicat	-11.1065
▁dismantle	-11.1069
▁boob	-11.1073
hidd	-11.1081
▁ker	-11.1083
selection	-11.1083
ium	-11.1093
▁vo	-11.1093
▁brith	-11.1096
▁bak	-11.111
loss	-11.1114
▁criticis	-11.1115
▁bj	-11.112
hired	-11.1126
lv	-11.1136
dh	-11.114
▁rotte	-11.114
▁nuts	-11.1141
bloggers	-11.1147
mann	-11.115
lk	-11.1154
lake	-11.1156
shide	-11.1157
▁milo	-11.1164
dan	-11.1167
▁extreme	-11.1179
▁desk	-11.1183
used	-11.1191
agne	-11.1196
pr	-11.1203
▁bou	-11.1214
▁din	-11.1225
▁archi	-11.1226
▁jus	-11.1227
▁hoe	-11.1243
▁minion	-11.1247
issue	-11.1254
▁backward	-11.1256
▁drain	-11.1261
oh	-11.1267
todo	-11.1275
thru	-11.1276
▁browns	-11.1276
▁horrif	-11.1277
keeping	-11.1277
▁pll	-11.1285
cafe	-11.129
▁aint	-11.1293
theday	-11.1298
▁nope	-11.1301
ification	-11.1323
▁handle	-11.1326
remed	-11.1328
▁separat	-11.1335
▁salt	-11.1336
▁dun	-11.1338
▁finn	-11.1339
▁decline	-11.1344
▁pipe	-11.1345
number	-11.135
▁observ	-11.1355
ind	-11.137
ame	-11.1371
suppo	-11.1374
everal	-11.1375
▁pupp	-11.138
▁hung	-11.1381
▁gas	-11.1388
▁dans	-11.139
▁german	-11.1391
choices	-11.1402
iti	-11.1403
uddy	-11.1405
▁bake	-11.1408
stag	-11.141
hug	-11.1425
▁tommor	-11.1437
cap	-11.1438
ute	-11.1439
ndo	-11.1447
think	-11.1452
▁pj	-11.1456
▁bumme	-11.1465
state	-11.1477
ski	-11.1482
▁pal	-11.1488
tty	-11.149
▁onto	-11.149
▁vape	-11.1491
vs	-11.1493
iv	-11.1494
▁devil	-11.1503
▁rais	-11.1504
▁pounds	-11.1504
bang	-11.1506
palm	-11.1512
fathersday	-11.1517
user	-11.1525
▁commit	-11.1526
gin	-11.1531
▁pressure	-11.1537
ending	-11.1545
▁cape	-11.1549
told	-11.1552
▁eh	-11.1553
control	-11.1554
▁conf	-11.1556
ined	-11.1558
▁academ	-11.1567
sorry	-11.1581
▁ambi	-11.1581
mus	-11.1587
▁sav	-11.1592
loved	-11.1593
eid	-11.1597
▁perce	-11.1597
teacher	-11.1608
▁pier	-11.1609
als	-11.1609
maker	-11.1611
anning	-11.1613
vine	-11.1614
livesmatter	-11.1614
▁ec	-11.1616
▁bat	-11.1617
▁dubl	-11.1617
move	-11.1619
ire	-11.1625
turke	-11.1626
ecula	-11.1627
via	-11.1629
▁dee	-11.1632
▁lat	-11.164
sale	-11.1642
zi	-11.1645
▁anim	-11.1646
▁trumps	-11.1649
tonight	-11.165
▁aus	-11.1651
shes	-11.1655
▁pie	-11.1657
▁creep	-11.1667
lusion	-11.1671
stop	-11.1674
▁mal	-11.1676
gue	-11.168
cou	-11.1689
after	-11.1698
grad	-11.1703
check	-11.1704
fresh	-11.1707
▁rum	-11.1716
▁drum	-11.1718
▁celeb	-11.1723
health	-11.174
england	-11.1741
eah	-11.1744
education	-11.1747
respect	-11.1748
lton	-11.1758
card	-11.1758
coffee	-11.1759
pizza	-11.176
memories	-11.1761
lla	-11.1763
▁sy	-11.1763
ven	-11.1765
history	-11.1767
office	-11.177
smiling	-11.1771
hy	-11.1772
pre	-11.1774
swear	-11.1775
paper	-11.1777
author	-11.1777
christmas	-11.178
▁tail	-11.1781
lucky	-11.1782
▁indig	-11.1783
bound	-11.1787
capture	-11.1787
▁mus	-11.1791
porait	-11.1793
professional	-11.1794
drawing	-11.1795
philly	-11.1797
pie	-11.1798
yourjo	-11.1801
zero	-11.1804
connect	-11.1805
gaming	-11.1808
privilege	-11.181
venue	-11.1811
▁chihuahua	-11.1812
▁je	-11.1812
oy	-11.1815
▁renew	-11.1815
▁casting	-11.1816
▁chao	-11.1818
energy	-11.1821
politic	-11.1824
zone	-11.1825
pos	-11.1827
begin	-11.1829
▁pap	-11.1848
▁ship	-11.1855
zan	-11.1855
rium	-11.1858
gamer	-11.1859
▁prep	-11.1863
ax	-11.1866
▁pb	-11.187
mediat	-11.1873
utch	-11.188
rick	-11.1895
ec	-11.1903
egen	-11.1905
▁awww	-11.1913
kong	-11.1915
chair	-11.192
▁mk	-11.1922
gr	-11.1923
cards	-11.1927
▁za	-11.1929
stuff	-11.1936
waves	-11.1938
▁kan	-11.1941
▁tattoos	-11.1952
daddy	-11.1954
▁souls	-11.1957
ody	-11.1959
andrew	-11.1964
▁egg	-11.1967
ender	-11.1968
paint	-11.1968
▁engr	-11.1976
ez	-11.1989
▁thriv	-11.1993
robot	-11.1997
oney	-11.1998
▁eg	-11.2
▁butt	-11.2001
▁energ	-11.2014
▁sass	-11.2014
▁jok	-11.2016
sexual	-11.2016
▁meds	-11.2023
▁beau	-11.2024
▁bias	-11.2028
rl	-11.2032
▁profil	-11.2036
ried	-11.2039
▁slap	-11.2044
▁ward	-11.2044
itty	-11.2051
▁doggie	-11.2064
▁smith	-11.2072
▁depend	-11.2073
▁topic	-11.2074
american	-11.2074
ragh	-11.208
▁syria	-11.2084
▁constructi	-11.2085
cks	-11.2087
lou	-11.2088
▁pursu	-11.2091
ummy	-11.2091
▁memorial	-11.2091
ublin	-11.2094
ensive	-11.2098
▁ol	-11.2099
▁profession	-11.2099
▁atmospher	-11.2102
▁awkward	-11.2102
▁brochure	-11.2102
▁charlotte	-11.2102
▁dachshund	-11.2102
▁establish	-11.2102
▁felicidad	-11.2102
▁homesweethome	-11.2102
▁hooligan	-11.2102
▁jungkook	-11.2102
▁rohingya	-11.2102
▁squirrel	-11.2102
▁sustainable	-11.2102
▁vegetarian	-11.2102
▁clannad	-11.2102
▁crochet	-11.2102
▁persuade	-11.2102
▁rwnj	-11.2102
▁alhamdul	-11.2102
▁approach	-11.2102
▁solidarity	-11.2102
▁norfolk	-11.2102
▁waltdisney	-11.2102
▁eastcoast	-11.2102
▁tropical	-11.2102
▁elitist	-11.2102
▁survey	-11.2102
▁cyber	-11.2102
▁supreme	-11.2102
▁whisper	-11.2102
▁bodrum	-11.2102
▁uniform	-11.2102
▁cipd	-11.2102
▁hijab	-11.2102
▁extinct	-11.2102
▁indonesia	-11.2102
▁patriarch	-11.2102
▁kylie	-11.2102
▁maintain	-11.2102
▁rigged	-11.2102
▁dairy	-11.2102
▁shatter	-11.2102
▁disband	-11.2103
▁daisy	-11.2103
▁harvest	-11.2103
▁blowjob	-11.2103
hol	-11.2104
▁gluten	-11.2104
▁affair	-11.2104
▁nigth	-11.2104
▁lopez	-11.2104
▁spectacle	-11.2104
▁kanye	-11.2105
▁phase	-11.2105
▁barack	-11.2105
▁mitb	-11.2106
▁senator	-11.2106
▁fakenews	-11.2106
▁keith	-11.2106
▁wakeupamerica	-11.2106
istan	-11.2106
▁furry	-11.2107
▁gravity	-11.2107
▁jordan	-11.2109
▁creature	-11.2109
▁stumble	-11.2109
▁grandfather	-11.2109
▁preview	-11.211
▁paicular	-11.2111
▁nomakeup	-11.2111
▁recharge	-11.2112
▁edward	-11.2114
▁ginger	-11.2114
lobster	-11.2114
▁aruba	-11.2115
▁patio	-11.2115
▁growthhac	-11.2116
▁vanity	-11.2116
▁submi	-11.2116
▁roger	-11.2118
▁jamaica	-11.2118
▁legit	-11.2118
▁poppy	-11.2118
▁commitment	-11.2118
▁girlpower	-11.2122
▁deleteyoura	-11.2122
▁cocoa	-11.2122
▁comedian	-11.2123
▁hitler	-11.2125
▁scen	-11.2126
▁healthyeating	-11.2126
▁cooper	-11.2126
▁border	-11.2127
▁teddy	-11.2128
▁awa	-11.2129
▁feat	-11.213
▁cuba	-11.2132
▁igersb	-11.2133
▁hunger	-11.2133
▁precise	-11.2134
▁bridal	-11.2135
▁collage	-11.2136
▁sandwich	-11.2136
▁flood	-11.2137
▁halfway	-11.2137
▁legal	-11.2137
▁tank	-11.2138
▁disabl	-11.2139
▁cupcake	-11.2139
▁dallas	-11.214
thecon	-11.214
▁legacy	-11.214
▁vibrant	-11.2141
▁loki	-11.2141
▁narrative	-11.2141
▁brent	-11.2141
▁cutting	-11.2141
▁palette	-11.2142
dale	-11.2142
▁pastel	-11.2142
▁discount	-11.2142
▁pretties	-11.2143
▁whiskey	-11.2143
▁unlike	-11.2145
convention	-11.2145
▁tease	-11.2146
▁milf	-11.2147
walk	-11.2147
main	-11.2147
gious	-11.2149
▁terrifi	-11.215
▁fol	-11.2152
▁firework	-11.2153
▁amendment	-11.2154
▁makeamerica	-11.2156
▁mentally	-11.2157
▁latino	-11.2158
decor	-11.2159
▁ryan	-11.216
▁succe	-11.2163
▁conta	-11.2164
▁poop	-11.2167
▁dictator	-11.2167
single	-11.2169
▁favor	-11.2169
▁slamm	-11.2169
▁celebrity	-11.217
▁dozen	-11.2171
▁blink	-11.2171
▁probe	-11.2171
▁bleed	-11.2172
▁kent	-11.2172
▁script	-11.2172
▁valid	-11.2173
▁ninja	-11.2175
▁sentence	-11.2175
▁guardia	-11.2175
▁semest	-11.2177
▁dukh	-11.2181
jay	-11.2184
▁latenight	-11.2187
▁eagle	-11.2189
▁nhs	-11.2192
▁empowering	-11.2192
augh	-11.2192
▁ishq	-11.2193
▁curvy	-11.2194
▁peach	-11.2196
▁hooked	-11.2197
guns	-11.2197
▁encounter	-11.2197
▁alice	-11.2198
▁genetic	-11.2198
▁ufc	-11.22
▁burnt	-11.2201
▁settle	-11.2202
▁edge	-11.2202
▁brokenhea	-11.2205
▁dnc	-11.2211
▁thick	-11.2215
▁lovin	-11.2215
▁zara	-11.2227
▁tmr	-11.2229
▁witch	-11.2231
▁proven	-11.2237
▁bucks	-11.2239
sea	-11.2239
▁realiz	-11.224
▁qualifi	-11.2241
sequence	-11.2241
bb	-11.2245
pathetic	-11.2247
▁yorkshire	-11.2252
▁enthusias	-11.2252
▁susan	-11.2255
▁asap	-11.2255
▁jaguarst	-11.2256
▁ea	-11.2261
▁wreck	-11.2262
lift	-11.2263
▁buil	-11.2263
▁johnson	-11.2265
▁wha	-11.2269
▁facing	-11.2275
▁surface	-11.2276
▁donate	-11.2276
▁chels	-11.228
▁ray	-11.2284
pan	-11.2285
▁earned	-11.2285
▁isolat	-11.2288
▁abs	-11.2288
▁khan	-11.229
andson	-11.2291
▁burning	-11.2291
▁puff	-11.2291
▁abilit	-11.2293
▁succu	-11.2294
▁harmony	-11.2295
▁cardio	-11.2295
▁hm	-11.2297
▁grooming	-11.2298
mon	-11.2299
povey	-11.2299
▁reader	-11.2299
helps	-11.2302
▁bail	-11.2304
▁hbo	-11.2308
▁homeless	-11.2308
▁sew	-11.2309
▁journalis	-11.2312
▁critical	-11.2324
▁settlement	-11.2325
unny	-11.2329
▁hap	-11.2331
▁ash	-11.2342
feel	-11.2344
▁clash	-11.2345
mojo	-11.2347
▁husky	-11.2347
▁comeon	-11.2349
▁bron	-11.2351
left	-11.2353
ssy	-11.2356
lvani	-11.2361
recorded	-11.2362
▁developer	-11.2364
▁wallet	-11.2366
ters	-11.2368
▁dread	-11.2369
▁grie	-11.237
▁bow	-11.2371
▁brew	-11.2373
▁extremist	-11.2374
▁junk	-11.2378
▁max	-11.2378
▁amanda	-11.2384
▁linked	-11.2385
fy	-11.2386
kies	-11.2389
▁spell	-11.239
mode	-11.239
▁dental	-11.2391
▁paicipat	-11.2394
▁carolin	-11.2395
ality	-11.2395
▁flowerlove	-11.2407
▁chia	-11.2413
▁phd	-11.2415
▁wohoo	-11.2415
▁wound	-11.2415
▁ole	-11.2416
▁cum	-11.2416
▁riot	-11.2418
fear	-11.2418
▁ceo	-11.2419
▁greet	-11.2422
rus	-11.2426
nw	-11.2426
▁outlet	-11.2428
sing	-11.2429
▁gangs	-11.2435
▁appall	-11.2435
uram	-11.2442
wd	-11.2445
fe	-11.2447
▁provid	-11.2451
put	-11.2453
▁gators	-11.2457
▁backto	-11.2458
▁internal	-11.2459
▁smells	-11.2459
milo	-11.2466
▁nat	-11.2467
▁steam	-11.247
araz	-11.2472
▁fianc	-11.2474
▁gather	-11.2476
▁disco	-11.2477
▁donation	-11.2481
unnies	-11.2484
pc	-11.2484
▁cor	-11.2487
ara	-11.249
▁ditch	-11.2501
▁poc	-11.2505
anned	-11.2506
▁ana	-11.2507
ino	-11.2517
▁murderer	-11.2518
cold	-11.252
vidence	-11.2525
jet	-11.2528
call	-11.2532
ead	-11.2535
▁gutt	-11.2537
▁sham	-11.2542
▁recogniz	-11.2548
▁improv	-11.2549
▁grown	-11.2549
cious	-11.2558
▁fever	-11.2566
▁thai	-11.2567
▁shore	-11.2573
▁outof	-11.2584
za	-11.2588
▁hyde	-11.259
▁frie	-11.2593
hern	-11.2594
ebay	-11.2597
stomp	-11.26
onthe	-11.2603
▁forum	-11.2606
▁suicides	-11.261
▁chest	-11.2615
beer	-11.2617
▁tick	-11.2623
▁mt	-11.2626
▁rn	-11.2629
▁spider	-11.2631
▁cracker	-11.2637
▁pastor	-11.264
▁prop	-11.2641
monthsar	-11.2648
▁launche	-11.2653
tc	-11.2654
▁legs	-11.2655
▁innovati	-11.2657
▁trumpism	-11.2658
▁loyal	-11.266
▁haunt	-11.266
▁xo	-11.2667
▁puppet	-11.2669
truck	-11.267
ord	-11.2673
rift	-11.2673
▁easie	-11.2674
▁newyears	-11.2676
▁mothers	-11.2681
ran	-11.2684
▁restore	-11.269
▁anc	-11.2709
ross	-11.2712
hold	-11.2715
road	-11.272
▁toys	-11.272
tted	-11.2721
saying	-11.2722
▁der	-11.2728
videos	-11.2729
▁gud	-11.2733
▁suits	-11.2736
math	-11.2741
▁remov	-11.2742
▁alot	-11.2743
grump	-11.2745
▁epi	-11.2746
▁publish	-11.2749
stage	-11.2753
weeks	-11.2755
▁beaut	-11.2755
▁josh	-11.2759
▁hoo	-11.2761
▁blank	-11.2764
scientist	-11.2765
▁speci	-11.2765
aa	-11.2768
shake	-11.277
lash	-11.277
▁lime	-11.2772
▁gentlem	-11.2778
▁pasta	-11.2779
ose	-11.278
▁cuts	-11.2782
▁ky	-11.2783
diva	-11.2792
▁sparkle	-11.2793
▁gary	-11.2793
lust	-11.28
▁lb	-11.2813
ros	-11.2815
▁meat	-11.2817
span	-11.2818
dium	-11.2825
▁halo	-11.2828
▁mens	-11.283
sible	-11.2831
withyou	-11.2836
ier	-11.2837
▁vit	-11.2853
force	-11.286
concerned	-11.2863
lc	-11.2864
▁shai	-11.2864
▁viewing	-11.2869
▁tri	-11.2871
▁pra	-11.2872
▁wors	-11.2877
▁kh	-11.2878
lia	-11.2879
loveit	-11.2906
▁empath	-11.291
chest	-11.292
tri	-11.2924
nna	-11.2931
▁toast	-11.2933
▁ww	-11.2939
▁define	-11.2947
▁medica	-11.2948
ago	-11.2958
temporar	-11.2958
sion	-11.2966
▁led	-11.2982
▁critic	-11.2994
▁dang	-11.3
▁spoiler	-11.3005
▁restin	-11.3008
▁islamis	-11.301
▁fur	-11.3012
▁fade	-11.3014
▁patriot	-11.3019
scam	-11.3026
▁tai	-11.3033
oul	-11.3037
▁dank	-11.304
act	-11.3045
▁avg	-11.305
▁bot	-11.3052
▁gee	-11.3054
taku	-11.3057
▁joint	-11.3059
mat	-11.306
▁leo	-11.3063
▁walker	-11.3067
▁mic	-11.3071
▁aging	-11.3092
alright	-11.3092
than	-11.3093
▁dut	-11.3099
▁worldwi	-11.31
vile	-11.3101
▁greens	-11.3101
fantasy	-11.3102
▁basi	-11.3103
rights	-11.3108
kind	-11.3117
bell	-11.3118
▁mere	-11.3123
▁dri	-11.3123
▁sip	-11.3126
hack	-11.3132
bull	-11.3137
killer	-11.314
▁devo	-11.314
geek	-11.3149
lt	-11.3149
des	-11.3155
sday	-11.3162
▁classe	-11.3166
dl	-11.3182
pol	-11.3184
▁equi	-11.3186
▁wage	-11.3186
wt	-11.3187
▁tem	-11.3191
raz	-11.3196
high	-11.3199
year	-11.3202
sch	-11.3203
▁ed	-11.3207
splay	-11.3208
▁bla	-11.3217
▁studios	-11.322
ink	-11.3223
ction	-11.323
hora	-11.3231
▁hom	-11.3232
mx	-11.3234
▁mam	-11.3234
peg	-11.3243
▁sagar	-11.3247
▁attic	-11.3249
▁craz	-11.3257
▁pale	-11.3259
▁hahahaha	-11.3266
ocks	-11.3268
vision	-11.3271
▁suddenl	-11.3284
▁ally	-11.3284
▁plate	-11.3289
aline	-11.3289
fall	-11.3291
▁ache	-11.3311
▁juic	-11.3312
ffs	-11.3316
wed	-11.3323
entry	-11.3329
funday	-11.3331
▁barn	-11.3338
mbridge	-11.3345
healthy	-11.3345
biz	-11.3347
▁await	-11.3352
▁defin	-11.3353
ced	-11.3353
▁believ	-11.3361
▁coke	-11.3362
very	-11.3365
▁kate	-11.3365
ani	-11.3367
retri	-11.337
▁gum	-11.3375
scann	-11.3378
▁daddie	-11.3385
▁loneli	-11.3385
▁casa	-11.3387
▁aid	-11.3389
▁destructi	-11.3401
▁rider	-11.3421
genre	-11.3428
ches	-11.3432
▁cure	-11.3433
▁dept	-11.3433
▁philippi	-11.3433
lap	-11.3438
along	-11.3441
queen	-11.3452
tary	-11.3452
blessed	-11.3457
kara	-11.3461
tomorrow	-11.3464
▁cla	-11.3469
▁daddys	-11.3469
cs	-11.3473
ole	-11.3475
myfamily	-11.3477
online	-11.3477
▁clip	-11.3481
lay	-11.3482
▁object	-11.3483
spel	-11.3489
▁goin	-11.35
nda	-11.35
▁accuse	-11.3501
av	-11.3514
▁comfoabl	-11.3516
▁bounce	-11.3522
▁atl	-11.3525
▁talks	-11.3534
▁iconi	-11.3534
exist	-11.3535
▁grant	-11.3536
hday	-11.3537
▁polici	-11.3543
▁closet	-11.3543
nights	-11.3546
itles	-11.355
amazing	-11.3552
ank	-11.3562
bab	-11.3564
mme	-11.3568
▁loos	-11.3571
australia	-11.3575
storm	-11.3575
▁tre	-11.3577
▁bodie	-11.358
nwa	-11.3583
angry	-11.3584
▁neo	-11.3588
▁aga	-11.3594
opath	-11.3599
val	-11.36
erry	-11.3604
max	-11.3605
▁traveler	-11.3607
▁mm	-11.3608
abank	-11.3614
▁thin	-11.3617
ield	-11.3622
▁lay	-11.3624
before	-11.3624
wich	-11.3636
hole	-11.364
opra	-11.364
ismore	-11.3641
grateful	-11.3646
▁wip	-11.3662
▁candid	-11.3664
▁yell	-11.3667
ears	-11.3668
▁lite	-11.3673
▁saturdays	-11.3675
iwan	-11.3676
▁letthe	-11.3678
june	-11.3683
▁triathl	-11.3683
▁cra	-11.3684
going	-11.3689
accept	-11.369
ruz	-11.3691
▁compos	-11.3694
aging	-11.3699
▁jay	-11.3702
oking	-11.3708
▁tent	-11.3708
▁needa	-11.3713
▁abu	-11.3715
elle	-11.3715
▁este	-11.3716
▁wc	-11.3717
▁pho	-11.3722
etalia	-11.3723
rself	-11.3727
agan	-11.3728
fiction	-11.3734
▁releas	-11.3734
launch	-11.3735
lation	-11.3736
development	-11.3736
welcome	-11.3739
tage	-11.374
account	-11.3742
freedom	-11.3744
anks	-11.3746
culture	-11.3749
▁fighter	-11.3753
▁spam	-11.3753
rang	-11.3755
muscle	-11.3758
▁priorit	-11.376
enough	-11.3761
ymous	-11.3761
▁karee	-11.3763
countdown	-11.3767
running	-11.3768
collection	-11.377
galaxy	-11.3773
lunch	-11.3773
▁gali	-11.3775
league	-11.3777
decision	-11.3778
buzz	-11.3783
▁streets	-11.3783
brew	-11.3787
logic	-11.3792
rugby	-11.3792
standard	-11.3794
sydney	-11.3795
▁thrille	-11.3799
sideof	-11.3802
legend	-11.3807
curry	-11.3809
normal	-11.381
▁lights	-11.3811
attitude	-11.3811
florida	-11.3814
▁mask	-11.3819
regard	-11.3819
padre	-11.3824
rough	-11.3826
▁motorcy	-11.3828
bitch	-11.3831
dson	-11.3831
manager	-11.3832
bed	-11.3833
zen	-11.3834
shift	-11.3835
mafia	-11.3843
sha	-11.3847
piece	-11.3855
donald	-11.3857
ajan	-11.386
ged	-11.3862
brutal	-11.3865
▁happines	-11.3867
▁versa	-11.387
▁lola	-11.3877
▁sid	-11.3878
evening	-11.388
illustration	-11.3881
xteen	-11.3882
screen	-11.3886
kip	-11.3892
sters	-11.3892
thinking	-11.3896
soft	-11.3898
ica	-11.3902
inton	-11.3911
ndiego	-11.3912
dontcare	-11.3913
▁nail	-11.3919
▁hates	-11.3928
▁ale	-11.3928
▁anf	-11.3928
ems	-11.3934
▁employee	-11.394
uz	-11.3943
ccount	-11.3955
falls	-11.3956
▁norm	-11.396
▁smooth	-11.396
▁penn	-11.3962
leaders	-11.3965
▁tel	-11.397
▁wrestl	-11.3981
▁allies	-11.3984
stone	-11.3985
mission	-11.3994
▁panda	-11.4
foster	-11.4
▁truths	-11.4009
▁castle	-11.401
vp	-11.4013
▁moral	-11.4021
edup	-11.4028
▁kimb	-11.4031
▁bark	-11.4031
hoo	-11.4031
▁ft	-11.4036
fbi	-11.4039
▁salut	-11.4044
▁saturda	-11.4044
risk	-11.4045
raya	-11.4045
▁compet	-11.4048
▁select	-11.4049
▁follo	-11.405
▁whitesupremac	-11.4057
▁aft	-11.4059
▁whats	-11.4062
works	-11.4063
▁promoti	-11.4069
lsw	-11.4072
▁noooo	-11.4073
hardly	-11.4078
letter	-11.408
voca	-11.4081
abba	-11.4084
snow	-11.4088
vulga	-11.4093
▁straw	-11.4101
▁unbreakable	-11.4101
ferguson	-11.4101
▁meatloaf	-11.4101
▁unconditional	-11.4101
▁acknowledge	-11.4102
▁caucasian	-11.4102
▁exclusive	-11.4102
▁georgia	-11.4102
▁presumptive	-11.4102
▁garbage	-11.4102
▁jennifer	-11.4102
▁laundry	-11.4102
▁leisure	-11.4102
▁prototyp	-11.4102
junkie	-11.4102
▁administrati	-11.4102
▁attorney	-11.4102
▁instrument	-11.4102
▁kickstaer	-11.4102
▁mileycyrus	-11.4102
▁suffolk	-11.4102
▁deplorable	-11.4102
▁redneck	-11.4102
▁aladdin	-11.4102
▁tutorial	-11.4102
▁mohammed	-11.4102
▁monitor	-11.4102
▁perfume	-11.4102
▁rahul	-11.4102
▁unitedstates	-11.4102
▁henderson	-11.4102
▁ethnic	-11.4102
▁volatil	-11.4102
▁fulfill	-11.4102
▁conscious	-11.4102
▁strateg	-11.4102
▁snooze	-11.4102
▁copaamerica	-11.4102
▁fetish	-11.4102
▁byebye	-11.4102
▁broadcast	-11.4102
▁depament	-11.4102
▁dictionar	-11.4102
▁frozen	-11.4102
▁guarantee	-11.4102
▁mumbai	-11.4102
▁recommend	-11.4102
▁collaps	-11.4102
▁koala	-11.4102
▁damien	-11.4102
▁iraq	-11.4102
▁colleague	-11.4102
▁curlyhair	-11.4102
▁ineedto	-11.4102
▁dominican	-11.4102
▁lancaster	-11.4102
▁loveconquersha	-11.4102
followforfollow	-11.4102
▁tgifriday	-11.4102
▁conflict	-11.4102
▁suprise	-11.4103
▁subject	-11.4103
▁imissyou	-11.4103
▁palestinian	-11.4103
▁camden	-11.4103
▁nascar	-11.4103
rio	-11.4103
▁negro	-11.4103
▁miniature	-11.4103
▁inflation	-11.4104
▁supernatural	-11.4104
▁nikon	-11.4104
▁facial	-11.4104
▁midsummer	-11.4104
▁subscribe	-11.4104
fromhome	-11.4105
▁pipeline	-11.4105
▁cassie	-11.4105
▁handbag	-11.4105
▁essex	-11.4105
▁homeowner	-11.4106
▁migrant	-11.4106
cient	-11.4106
▁minister	-11.4106
▁nevergiveup	-11.4106
▁craziest	-11.4106
▁globe	-11.4107
▁draghi	-11.4107
▁karma	-11.4107
▁slander	-11.4107
▁appearance	-11.4108
▁symp	-11.4108
▁columbia	-11.4108
▁nadal	-11.4109
▁screenshot	-11.4109
▁unify	-11.4109
▁smaphone	-11.4109
▁struggling	-11.411
▁unexpected	-11.411
▁scrub	-11.411
▁assessment	-11.411
▁inlovewith	-11.4111
▁mornin	-11.4111
▁ripantonyel	-11.4111
▁jason	-11.4112
▁assistant	-11.4112
▁simpli	-11.4112
▁letsplay	-11.4113
▁shofilm	-11.4113
▁ocd	-11.4115
▁catchup	-11.4115
▁resolve	-11.4115
▁criticize	-11.4115
▁instafollow	-11.4116
▁tomato	-11.4116
▁gettin	-11.4116
▁diploma	-11.4117
▁rockstar	-11.4117
rumpf	-11.4118
▁natsu	-11.4119
▁unjust	-11.4119
▁impos	-11.4119
▁vacc	-11.4119
▁swap	-11.4119
▁breast	-11.4119
▁activist	-11.412
▁grandson	-11.412
winds	-11.412
▁cabin	-11.4121
▁tracy	-11.4121
▁unfollow	-11.4122
▁prayingfor	-11.4122
▁whistl	-11.4122
boss	-11.4122
▁flaming	-11.4122
▁solid	-11.4123
▁unwanted	-11.4123
▁makemoney	-11.4123
▁killary	-11.4124
cracked	-11.4126
▁drown	-11.4126
▁scuba	-11.413
▁lyft	-11.413
▁trumptrain	-11.413
xic	-11.4131
▁cannabis	-11.4131
▁marble	-11.4131
▁ralph	-11.4132
▁identif	-11.4132
▁blunt	-11.4133
▁scroll	-11.4133
▁myfavorite	-11.4133
mask	-11.4133
▁ilovethe	-11.4134
▁verbal	-11.4135
▁pepper	-11.4135
▁converse	-11.4135
▁exec	-11.4136
▁cyclist	-11.4136
▁superstar	-11.4137
▁dislike	-11.4137
▁transpo	-11.4137
▁preparation	-11.4138
▁ind	-11.4138
▁collector	-11.4138
topia	-11.414
▁conduct	-11.414
▁munic	-11.4141
▁prank	-11.4142
▁commute	-11.4142
▁gettingfit	-11.4143
▁hmm	-11.4147
▁pancake	-11.4148
▁passpo	-11.4148
▁appropriate	-11.4149
▁larry	-11.4149
▁liquid	-11.4149
▁popcorn	-11.4149
▁brussels	-11.4149
▁bachelorette	-11.4149
▁workhard	-11.415
▁twilight	-11.4151
▁retard	-11.4154
banana	-11.4154
▁penny	-11.4154
forest	-11.4155
▁playstation	-11.4155
▁countrymusic	-11.4155
▁thoughtful	-11.4155
▁reddit	-11.4156
rate	-11.4156
vlogger	-11.4157
▁barrel	-11.4157
▁twenty	-11.4159
wick	-11.416
▁chasing	-11.416
▁nicola	-11.4161
▁highschool	-11.4161
▁roza	-11.4163
▁peru	-11.4163
▁robin	-11.4165
▁selena	-11.4165
▁sophi	-11.4166
▁mtv	-11.4167
▁daystogo	-11.4168
▁esco	-11.4168
▁braid	-11.4169
▁cowboy	-11.417
▁fixtures	-11.4171
wave	-11.4172
▁glove	-11.4172
welsh	-11.4172
▁gsw	-11.4178
▁havin	-11.4178
mans	-11.4181
▁commer	-11.4183
▁tuning	-11.4185
▁triple	-11.4186
mor	-11.4187
▁booty	-11.4188
▁ruby	-11.4189
▁threat	-11.4189
wash	-11.4189
▁angst	-11.419
▁flick	-11.4192
▁merry	-11.4192
▁blv	-11.4193
▁pirates	-11.4195
▁jacket	-11.4195
▁pearly	-11.4198
▁ounce	-11.4202
▁tyrann	-11.4202
lord	-11.4203
arian	-11.4206
▁expression	-11.4209
▁bhag	-11.421
▁neil	-11.4211
▁casual	-11.4211
▁heavenly	-11.4213
▁dramatic	-11.4215
▁veterans	-11.4216
▁bailey	-11.4218
▁district	-11.4219
▁hedgehog	-11.422
▁dances	-11.4223
▁communal	-11.4223
▁nursing	-11.4227
couture	-11.4228
hab	-11.4236
▁muba	-11.4237
▁achieved	-11.4238
tta	-11.4239
▁needmore	-11.424
▁omit	-11.4245
▁gl	-11.4248
▁backpack	-11.4249
bon	-11.4249
▁stereotype	-11.4249
▁bench	-11.425
▁roar	-11.4252
▁cursed	-11.4253
▁eac	-11.4258
▁feder	-11.4259
▁rewards	-11.4261
▁twat	-11.4262
▁marb	-11.4264
scene	-11.4266
▁arsen	-11.4266
▁indiana	-11.4268
▁moo	-11.4268
▁quaer	-11.4268
int	-11.4269
▁ifta	-11.4272
jam	-11.4276
▁plaza	-11.4279
▁biher	-11.4281
▁girly	-11.4283
▁repli	-11.4283
▁havefun	-11.4283
▁cre	-11.4287
ography	-11.4289
▁burst	-11.429
roots	-11.429
▁lauren	-11.4291
▁dinosaur	-11.4292
▁ruth	-11.4292
▁ilovemy	-11.4293
ue	-11.4295
▁monthsar	-11.4295
▁thanx	-11.4296
▁jj	-11.4297
▁duke	-11.43
hairstyle	-11.4301
▁nepal	-11.4304
ust	-11.4305
▁hypocrit	-11.4307
▁sample	-11.4315
aga	-11.4315
ker	-11.4317
▁scam	-11.4319
▁spice	-11.4319
wife	-11.4322
▁quill	-11.4325
▁inbox	-11.4326
▁vie	-11.4328
nze	-11.4342
▁mob	-11.4343
▁manner	-11.4343
▁rig	-11.4347
▁grave	-11.4353
jal	-11.4355
▁dua	-11.4356
▁ah	-11.4361
getting	-11.4362
oye	-11.4362
aleh	-11.4366
▁salon	-11.4367
sun	-11.4368
▁az	-11.437
▁il	-11.4371
▁leaf	-11.4374
withthe	-11.4376
▁parade	-11.4376
colli	-11.4378
▁colin	-11.4382
▁roast	-11.4383
dator	-11.4389
▁determine	-11.439
feels	-11.4395
▁kayl	-11.4395
▁trim	-11.4396
▁cube	-11.44
▁tacos	-11.4402
▁skill	-11.4403
▁thirst	-11.4408
these	-11.4412
▁relieve	-11.4413
▁expand	-11.4413
▁norman	-11.4414
▁booster	-11.4415
ked	-11.4416
▁anima	-11.4418
▁spew	-11.4421
▁jodi	-11.4423
▁repoing	-11.4424
▁stays	-11.4427
eat	-11.4428
▁shill	-11.443
▁bobo	-11.4431
▁quay	-11.4432
▁firsttime	-11.4433
▁lastday	-11.4434
▁painful	-11.4437
zzy	-11.4439
▁hint	-11.4441
▁galaxy	-11.4442
▁saints	-11.4445
▁psyched	-11.4445
wins	-11.4449
terday	-11.4454
floral	-11.4458
▁muscle	-11.4458
▁easter	-11.4458
creations	-11.4461
ives	-11.4461
▁believed	-11.4461
▁command	-11.4462
▁amaze	-11.4465
▁wid	-11.4467
gu	-11.4469
▁nab	-11.4473
▁pigs	-11.4478
▁hike	-11.4479
▁sacr	-11.4481
▁breed	-11.4483
▁lgbti	-11.4486
▁bust	-11.449
▁rc	-11.4493
psy	-11.4495
core	-11.4498
▁frnd	-11.4498
▁pitt	-11.4499
▁les	-11.4501
▁lett	-11.4502
mates	-11.4503
chemist	-11.4506
josh	-11.451
▁nicol	-11.4517
▁branch	-11.4519
▁gaza	-11.4522
full	-11.4522
wind	-11.4524
▁beg	-11.4524
grade	-11.4527
▁rite	-11.4527
▁cliff	-11.453
▁gene	-11.4531
▁ferr	-11.4537
gain	-11.4537
▁genero	-11.4539
flow	-11.454
▁worries	-11.4542
▁ms	-11.4546
▁bun	-11.4547
settlement	-11.4552
▁visitor	-11.4555
▁sooo	-11.4558
▁cbs	-11.4561
▁skip	-11.4567
▁diab	-11.4569
▁contented	-11.4572
▁weirdo	-11.4572
▁alyssa	-11.4573
▁melt	-11.4581
▁lovelies	-11.4581
mix	-11.4581
pd	-11.459
▁dressed	-11.4596
▁kilo	-11.4596
ags	-11.4598
venge	-11.4599
▁fro	-11.4599
▁mentors	-11.46
gone	-11.4603
rdu	-11.4607
▁mono	-11.4612
▁fir	-11.4614
isa	-11.4615
▁rom	-11.4615
▁monro	-11.4621
aysto	-11.4625
▁ham	-11.4625
▁returning	-11.4626
ket	-11.4627
▁dam	-11.4632
▁bck	-11.4633
rewrite	-11.4633
▁jk	-11.4634
▁nua	-11.4641
▁moz	-11.4643
cking	-11.4643
▁womenin	-11.4649
dness	-11.4651
▁appreciat	-11.4652
▁volunteers	-11.4654
doors	-11.466
andthe	-11.4662
▁schem	-11.4663
obno	-11.467
▁ironic	-11.468
▁circu	-11.468
▁matur	-11.4681
nton	-11.4683
▁poole	-11.4684
▁consult	-11.4684
▁wash	-11.4686
▁wifey	-11.4687
▁sai	-11.4688
▁cmt	-11.4688
tagne	-11.4694
▁tight	-11.4694
▁oxf	-11.4698
irm	-11.47
inning	-11.4701
▁tlc	-11.4704
▁coues	-11.4709
aaaa	-11.4709
▁tweep	-11.471
▁teammate	-11.4717
af	-11.4719
cam	-11.4719
▁noone	-11.4735
▁oceans	-11.4738
ustin	-11.4741
▁iran	-11.4744
erson	-11.4759
▁filmmak	-11.4762
eating	-11.4763
▁avenge	-11.4764
gif	-11.4769
▁sno	-11.4777
▁audit	-11.4777
lives	-11.478
▁ks	-11.4783
improvement	-11.4784
tom	-11.4806
ernes	-11.4807
▁poi	-11.4809
etti	-11.4814
▁jewel	-11.4821
tell	-11.4822
▁ste	-11.4822
fly	-11.4825
haus	-11.4833
alib	-11.4841
under	-11.4845
leak	-11.4848
pole	-11.4858
▁prejudice	-11.4858
hus	-11.486
path	-11.4861
▁capitalis	-11.4862
▁accus	-11.4862
▁marie	-11.4864
▁vis	-11.4869
hanna	-11.4874
arse	-11.4875
hand	-11.4876
▁paners	-11.4876
iji	-11.4878
▁hel	-11.4881
▁choke	-11.4887
▁predict	-11.4891
bra	-11.4891
▁pep	-11.4894
sley	-11.4895
ati	-11.4901
tb	-11.4902
era	-11.4903
▁rocks	-11.4911
▁rb	-11.4918
▁norwa	-11.492
pines	-11.4922
nurse	-11.493
▁gla	-11.4931
▁sud	-11.4934
dren	-11.4943
▁furbab	-11.4944
ampton	-11.4945
▁spec	-11.4947
▁todd	-11.4957
▁amour	-11.4957
▁pound	-11.4959
▁ou	-11.4964
drove	-11.4965
rian	-11.4966
▁coal	-11.4968
die	-11.4976
▁iwant	-11.4984
pit	-11.4988
▁iced	-11.4988
aaa	-11.499
▁badm	-11.4993
demic	-11.4994
spo	-11.5002
▁badday	-11.5002
▁victori	-11.5003
share	-11.5007
iii	-11.5009
spos	-11.5015
▁familia	-11.502
▁viva	-11.502
▁rubi	-11.5024
▁reuni	-11.5029
▁lin	-11.5031
eren	-11.5033
▁sadde	-11.5036
when	-11.5044
▁luis	-11.5045
▁sudden	-11.5048
nning	-11.5052
▁draymon	-11.5056
rude	-11.5063
▁pose	-11.5081
ailed	-11.5082
belle	-11.5086
▁shred	-11.5086
▁lecture	-11.5089
course	-11.5095
▁authorit	-11.51
▁manhat	-11.51
ync	-11.5104
▁rea	-11.5104
injury	-11.5116
boo	-11.5117
acing	-11.5127
▁seth	-11.5131
aire	-11.5136
▁eden	-11.5136
parce	-11.5148
eyes	-11.5149
▁aqua	-11.5154
▁alic	-11.5155
▁ambitio	-11.516
▁rode	-11.516
whatyou	-11.516
equest	-11.5164
killing	-11.5166
▁camps	-11.5177
▁cle	-11.5181
▁daz	-11.5187
gets	-11.5189
▁mai	-11.5199
ener	-11.52
devils	-11.5205
▁cas	-11.5207
▁humiliat	-11.5215
▁zim	-11.5219
oint	-11.5221
▁mornings	-11.523
securit	-11.5237
xt	-11.5244
towork	-11.5247
mouth	-11.5251
uff	-11.5252
▁merce	-11.5256
▁fla	-11.526
▁yayyy	-11.5261
plans	-11.5261
▁ple	-11.5262
uru	-11.5269
▁indoor	-11.5271
anza	-11.5273
kend	-11.5274
▁cz	-11.5278
anny	-11.5278
▁pine	-11.5284
▁rachel	-11.5286
▁sixt	-11.5294
▁mans	-11.53
▁melani	-11.5307
ngue	-11.5308
aries	-11.5308
▁bullet	-11.5308
▁catlove	-11.5314
▁bella	-11.5317
feeltheb	-11.5318
▁roy	-11.5321
▁shown	-11.5321
▁ow	-11.5324
ear	-11.5325
sure	-11.533
tress	-11.5331
▁doom	-11.5331
▁cit	-11.5335
▁bul	-11.5336
align	-11.5336
cover	-11.5338
▁mondays	-11.5347
▁hor	-11.5351
honi	-11.537
▁nic	-11.5372
▁zi	-11.5388
▁firm	-11.5393
▁massac	-11.5396
ecture	-11.54
▁mos	-11.5406
▁wag	-11.5411
eet	-11.5421
▁zu	-11.5432
▁slip	-11.5434
iling	-11.5438
hur	-11.5442
▁torn	-11.5483
eep	-11.549
gon	-11.5502
ip	-11.5504
gt	-11.5506
umm	-11.5509
row	-11.551
▁edmon	-11.5514
eeeeee	-11.5515
▁tro	-11.5529
▁expo	-11.5539
▁concern	-11.554
lp	-11.5544
▁prior	-11.5546
▁icy	-11.5554
▁spare	-11.5554
▁gut	-11.5559
pil	-11.5561
eeee	-11.5565
ph	-11.5566
budd	-11.5567
▁aye	-11.5568
▁abus	-11.5575
▁lou	-11.5576
▁goe	-11.5583
shootings	-11.5585
ights	-11.5593
▁impoan	-11.5594
make	-11.5602
omach	-11.5604
▁vet	-11.5611
▁pint	-11.5616
rset	-11.5625
rep	-11.5627
▁griev	-11.5629
▁tha	-11.5631
bel	-11.5633
▁gah	-11.5646
▁knit	-11.5646
▁dean	-11.5649
▁nitr	-11.5651
fishing	-11.5652
▁wan	-11.5652
sof	-11.5662
▁helly	-11.5663
▁weekly	-11.5664
juan	-11.5669
hil	-11.5669
came	-11.5677
grace	-11.568
▁belly	-11.5683
thm	-11.5687
rely	-11.5688
▁myster	-11.5697
lib	-11.5702
▁diss	-11.5704
▁shave	-11.5705
▁occasion	-11.5707
▁bibl	-11.5708
daughter	-11.5709
▁sep	-11.5726
hawk	-11.5727
took	-11.5732
▁spit	-11.5743
▁han	-11.5745
cycle	-11.5745
▁paw	-11.5746
▁lazi	-11.5754
uality	-11.5759
▁argue	-11.5765
▁homie	-11.5783
▁sens	-11.5797
▁raid	-11.58
sel	-11.5804
nalty	-11.5806
heath	-11.5819
demo	-11.5823
continue	-11.5826
▁identi	-11.5827
cause	-11.5828
tory	-11.5829
▁ive	-11.5832
kai	-11.5834
▁sil	-11.5838
rade	-11.5844
vail	-11.5845
▁obligat	-11.5846
leader	-11.5851
hire	-11.5859
▁funk	-11.587
▁beauti	-11.587
vacation	-11.5871
willbe	-11.5874
heads	-11.5876
istance	-11.5888
▁resistan	-11.5889
final	-11.5893
▁fac	-11.5897
▁raj	-11.5899
system	-11.59
▁boot	-11.5904
▁muse	-11.5912
ata	-11.5919
▁bees	-11.5926
▁pt	-11.5935
nature	-11.5936
▁heads	-11.5941
▁committ	-11.5944
▁buen	-11.5947
▁zil	-11.596
▁nap	-11.5964
refreshing	-11.5971
▁tablet	-11.5982
▁fre	-11.5985
flat	-11.5988
crib	-11.5992
thesun	-11.5996
▁vanc	-11.6
ates	-11.6007
▁olive	-11.6011
▁delusiona	-11.6014
sick	-11.6015
tube	-11.6016
hampton	-11.6017
▁hats	-11.602
ena	-11.6021
orm	-11.6025
fie	-11.6029
emea	-11.603
▁protecti	-11.6033
▁sonic	-11.6047
▁whore	-11.6048
stream	-11.605
▁sara	-11.6052
▁travis	-11.6057
sib	-11.6059
▁opp	-11.6063
bro	-11.6071
▁rice	-11.6076
▁height	-11.6078
▁jr	-11.6078
▁marx	-11.6083
▁sin	-11.6085
terra	-11.6088
rise	-11.6089
aldo	-11.6089
nick	-11.6099
euro	-11.6099
wealth	-11.6111
irl	-11.6112
▁sock	-11.6113
mmy	-11.6116
▁sincere	-11.6117
lico	-11.6118
▁vivi	-11.6121
ching	-11.6124
▁owe	-11.6132
issa	-11.6133
aco	-11.6138
▁cove	-11.6139
▁liv	-11.6149
sex	-11.615
active	-11.615
rin	-11.6153
luck	-11.6158
clip	-11.6159
official	-11.6161
around	-11.6162
▁dignit	-11.6164
asha	-11.6164
tnam	-11.6168
lov	-11.6169
▁valu	-11.6171
retweet	-11.6177
▁rottweiler	-11.6177
couple	-11.6179
justice	-11.618
present	-11.6188
▁pan	-11.6189
adi	-11.6191
ison	-11.6194
▁oscarp	-11.6196
animal	-11.6198
truth	-11.6202
picture	-11.6202
order	-11.6205
▁throne	-11.6207
gment	-11.6208
lions	-11.6209
▁inst	-11.6211
ht	-11.6214
▁imnot	-11.6215
▁por	-11.6218
grown	-11.6223
student	-11.6224
ace	-11.6229
bong	-11.623
▁gam	-11.6235
sunshine	-11.6236
boyfriend	-11.6236
▁clay	-11.6244
tz	-11.6244
▁hoodie	-11.6247
prompt	-11.625
▁morn	-11.6251
college	-11.6253
media	-11.6253
carpet	-11.6256
hop	-11.6256
wreck	-11.6257
breakfast	-11.6258
retreat	-11.626
necessar	-11.6261
product	-11.6265
ireland	-11.6266
feliz	-11.6268
theatre	-11.6269
canada	-11.6269
photographer	-11.6272
▁bala	-11.6273
level	-11.6273
native	-11.6274
phones	-11.6274
carolin	-11.6276
david	-11.6276
shame	-11.6277
drunk	-11.6278
shaw	-11.6278
croatia	-11.6279
riff	-11.628
wallet	-11.628
fringe	-11.628
floor	-11.6281
majest	-11.6281
chapter	-11.6282
direction	-11.6282
parade	-11.6282
channel	-11.6283
update	-11.6284
elizabeth	-11.6286
chick	-11.6286
bird	-11.6287
delta	-11.6287
▁vac	-11.629
somuch	-11.6292
jump	-11.6293
ars	-11.6293
centre	-11.6297
▁temp	-11.6297
plex	-11.6302
taylor	-11.6305
james	-11.6312
▁packag	-11.6313
▁gro	-11.6314
anniversar	-11.6317
▁sur	-11.6318
stress	-11.6321
pink	-11.6325
▁wade	-11.633
faith	-11.6337
hhhh	-11.6339
▁spe	-11.6339
ull	-11.6342
▁allthe	-11.6347
charge	-11.6349
basel	-11.6349
clear	-11.6351
wonder	-11.6357
ces	-11.6362
imane	-11.6369
▁simples	-11.637
eeeee	-11.6372
ows	-11.6373
warriors	-11.6375
laying	-11.6376
circu	-11.6382
avenger	-11.6382
▁lyric	-11.6394
▁olds	-11.6394
▁compar	-11.6396
▁mamma	-11.6399
facts	-11.6401
stro	-11.6403
mania	-11.6404
▁refugee	-11.641
tryna	-11.641
▁knw	-11.6425
diving	-11.6426
iding	-11.6427
kn	-11.6428
hook	-11.643
psycho	-11.6431
hakt	-11.6434
▁nikk	-11.6439
mommy	-11.6442
▁cole	-11.6443
▁manipulati	-11.6443
▁zionis	-11.6445
▁twtl	-11.6448
weddings	-11.6448
▁enteain	-11.6452
racist	-11.6453
hitch	-11.6454
sexy	-11.6464
tique	-11.6465
wso	-11.6466
blo	-11.6469
statement	-11.6472
lah	-11.6476
rising	-11.6478
bill	-11.648
▁prez	-11.6482
▁wack	-11.6484
zim	-11.6486
stb	-11.6488
▁math	-11.6492
hit	-11.6495
▁saterd	-11.6496
ork	-11.6496
▁ventur	-11.6497
▁chant	-11.6497
beast	-11.6498
nati	-11.6499
▁curse	-11.6503
▁budg	-11.6506
masters	-11.6507
ved	-11.6507
▁asf	-11.6507
weethea	-11.6513
▁westpa	-11.6515
ably	-11.6516
interest	-11.6518
▁wank	-11.6521
▁lamb	-11.6521
▁brock	-11.6523
▁wrap	-11.653
uction	-11.653
error	-11.6534
gopro	-11.6535
ere	-11.6541
▁terribl	-11.6543
▁yass	-11.6547
▁coffe	-11.6552
▁kro	-11.6555
▁congratulat	-11.6557
▁beautifulday	-11.6558
ybrid	-11.6558
▁societ	-11.6561
▁celebrit	-11.6563
▁samples	-11.6564
ybody	-11.6566
evolution	-11.6568
ulgaria	-11.657
▁grrr	-11.6571
oven	-11.6576
match	-11.6581
nts	-11.6581
evil	-11.6583
▁rescue	-11.6587
foryou	-11.6587
bot	-11.6588
▁photograp	-11.659
istori	-11.6592
children	-11.6593
center	-11.6593
amba	-11.6595
study	-11.6595
tionalbestfriend	-11.6597
valent	-11.6598
▁insur	-11.66
▁palestin	-11.66
xious	-11.6601
▁behavior	-11.6601
▁segregat	-11.6601
▁arianagrande	-11.6602
▁authentic	-11.6602
▁bourbon	-11.6602
▁coordinat	-11.6602
▁egypt	-11.6602
▁ghazal	-11.6602
▁huawei	-11.6602
▁labrador	-11.6602
▁leicester	-11.6602
▁netherland	-11.6602
▁nicaragua	-11.6602
▁pofolio	-11.6602
▁snowflake	-11.6602
▁srilanka	-11.6602
▁stubborn	-11.6602
▁suzanne	-11.6602
▁symbol	-11.6602
▁umbrella	-11.6602
▁zionazi	-11.6602
▁blossom	-11.6602
▁circumstance	-11.6602
▁explanation	-11.6602
▁imperial	-11.6602
▁macedonia	-11.6602
▁suggest	-11.6602
▁ahfod	-11.6602
▁autograph	-11.6602
▁eclipse	-11.6602
▁intellect	-11.6602
▁controvers	-11.6602
▁gucci	-11.6602
▁opponent	-11.6602
▁cigarette	-11.6602
▁permanent	-11.6602
▁selenagomez	-11.6602
▁matthew	-11.6602
▁interracial	-11.6602
▁scandal	-11.6602
▁mazda	-11.6602
▁extension	-11.6602
▁charlie	-11.6602
▁acquaint	-11.6602
▁baffle	-11.6602
▁adrien	-11.6602
▁neglig	-11.6602
▁lessthana	-11.6602
▁keisha	-11.6602
▁limelight	-11.6602
▁flavour	-11.6602
▁hayley	-11.6602
▁explosion	-11.6602
▁medicine	-11.6602
▁underestimate	-11.6602
▁skyrim	-11.6602
▁acquire	-11.6602
▁kyrie	-11.6602
▁caffeine	-11.6602
▁collab	-11.6602
▁bigapple	-11.6602
▁impatient	-11.6602
▁autism	-11.6602
▁deadliest	-11.6602
▁goldenstate	-11.6602
▁splend	-11.6602
▁wallpaper	-11.6602
▁facilit	-11.6602
▁holistic	-11.6602
▁pokemonsun	-11.6602
▁psychological	-11.6603
▁freddie	-11.6603
▁concentrat	-11.6603
▁smacc	-11.6603
▁euphori	-11.6603
▁incompeten	-11.6603
▁conflate	-11.6603
▁siege	-11.6603
▁cumple	-11.6603
▁confession	-11.6603
▁technical	-11.6603
▁persian	-11.6603
▁giddy	-11.6603
▁noheast	-11.6603
▁pdx	-11.6603
midt	-11.6603
▁zayn	-11.6603
▁defund	-11.6603
▁license	-11.6603
▁application	-11.6603
▁population	-11.6603
▁lgbtqhate	-11.6603
▁slimmer	-11.6604
▁horizon	-11.6604
▁sentiment	-11.6604
▁possession	-11.6604
▁throat	-11.6604
▁homosex	-11.6604
▁scratch	-11.6604
▁panama	-11.6604
▁eager	-11.6604
▁viual	-11.6604
▁household	-11.6604
▁bethechange	-11.6605
▁renovation	-11.6605
▁marshall	-11.6605
▁malinois	-11.6605
▁countingdown	-11.6605
▁hamburg	-11.6606
▁productiv	-11.6606
▁elder	-11.6606
▁bruce	-11.6606
▁cuppa	-11.6606
▁cherish	-11.6606
▁kenya	-11.6607
▁righteous	-11.6607
▁buddhis	-11.6607
▁hangover	-11.6608
bieber	-11.6608
▁rental	-11.6608
▁littlemix	-11.6609
▁royalty	-11.6609
▁foreverliving	-11.6609
▁hotspot	-11.661
▁edible	-11.661
▁hipster	-11.661
▁hamster	-11.661
▁passenger	-11.6611
▁weiner	-11.6611
▁bapti	-11.6611
▁porch	-11.6612
machine	-11.6612
▁pillow	-11.6612
▁preventable	-11.6612
▁stroke	-11.6613
▁pnw	-11.6613
classmate	-11.6613
▁adobe	-11.6614
▁tourism	-11.6614
▁fitmom	-11.6614
▁stretch	-11.6615
▁yeezy	-11.6615
▁paycheck	-11.6616
▁curly	-11.6616
lulu	-11.6616
▁revision	-11.6616
▁tribal	-11.6616
track	-11.6617
▁contestant	-11.6617
▁julie	-11.6617
▁maroc	-11.6617
▁newhair	-11.6617
▁toomany	-11.6618
pressed	-11.6619
▁sequel	-11.662
▁ronda	-11.6621
commerc	-11.6621
▁baku	-11.6622
▁nikki	-11.6622
▁milano	-11.6623
▁automatic	-11.6623
▁techno	-11.6623
▁barber	-11.6624
▁sketchbook	-11.6624
▁comp	-11.6624
▁cruci	-11.6624
▁dvd	-11.6624
macdonald	-11.6625
▁princip	-11.6626
rizon	-11.6626
▁stolen	-11.6626
▁anorexi	-11.6627
▁bringback	-11.6627
▁umf	-11.6628
oft	-11.6628
▁clever	-11.6629
peare	-11.663
▁havingfun	-11.663
▁patt	-11.663
▁weakness	-11.6631
▁ymm	-11.6631
▁brazilian	-11.6632
sity	-11.6632
▁titan	-11.6633
▁eliminat	-11.6635
▁ballet	-11.6636
▁uplifting	-11.6636
heid	-11.6637
▁intens	-11.6637
▁stinky	-11.6637
▁legally	-11.6639
▁clutch	-11.6639
▁helen	-11.6639
▁echo	-11.6639
▁demi	-11.664
fat	-11.664
▁accomplish	-11.664
▁syrian	-11.6641
▁oldschool	-11.6641
▁pisses	-11.6642
▁pleasedont	-11.6643
▁alleged	-11.6644
pal	-11.6645
▁chillin	-11.6646
▁stopgun	-11.6646
thebest	-11.6646
uffed	-11.6647
oooh	-11.6648
▁huff	-11.6649
▁akro	-11.6651
▁structure	-11.6651
▁mlp	-11.6651
▁yield	-11.6651
▁guru	-11.6651
lyvers	-11.6652
▁sprint	-11.6653
▁boho	-11.6654
▁maxi	-11.6654
ample	-11.6655
▁tar	-11.6656
▁pebble	-11.6656
▁kayak	-11.6657
▁peanut	-11.6659
▁cuddling	-11.6659
chen	-11.6659
▁muffin	-11.6659
▁illusion	-11.666
▁allergy	-11.6662
▁usher	-11.6662
▁revival	-11.6662
▁jcpenn	-11.6663
▁bengal	-11.6663
▁graffiti	-11.6663
▁belfast	-11.6663
forme	-11.6663
▁nfl	-11.6664
▁damon	-11.6664
▁auntie	-11.6664
▁vineet	-11.6664
▁flavor	-11.6666
uence	-11.6666
▁desde	-11.6666
▁busty	-11.6667
▁stole	-11.6668
▁personaltrain	-11.6669
▁gd	-11.667
▁earp	-11.667
▁pork	-11.667
▁yung	-11.6671
▁annie	-11.6671
ered	-11.6671
▁freakin	-11.6673
▁energiz	-11.6675
ustic	-11.6676
▁sarah	-11.6677
▁cannon	-11.6677
▁graci	-11.6678
▁avon	-11.6679
▁paranoi	-11.668
▁girlsnight	-11.6681
▁piracy	-11.6682
▁supplie	-11.6682
celtic	-11.6682
▁silv	-11.6682
▁inclusive	-11.6683
▁auto	-11.6685
▁pastry	-11.6685
▁pouss	-11.6687
▁fli	-11.6688
▁smack	-11.669
▁digit	-11.6691
▁editor	-11.6691
▁ebon	-11.6692
▁homophobe	-11.6692
▁prostitute	-11.6693
▁mua	-11.6693
▁familyfun	-11.6695
ath	-11.6695
▁workplace	-11.6695
▁admin	-11.6696
▁punch	-11.6696
▁babysitt	-11.6697
▁dyn	-11.6698
▁soooo	-11.6698
vinci	-11.6699
▁sole	-11.6699
▁unwa	-11.6699
vice	-11.6701
▁govern	-11.6701
▁clp	-11.6703
▁oxy	-11.6703
▁endless	-11.6704
▁plaster	-11.6705
suck	-11.6706
▁figur	-11.6707
▁pamela	-11.6707
▁amelia	-11.6708
▁medal	-11.6708
nounce	-11.6716
▁invasi	-11.6716
cinit	-11.6716
▁meandmy	-11.6718
▁marco	-11.672
▁indict	-11.6721
ree	-11.6721
▁ahh	-11.6726
▁minne	-11.6729
▁notcool	-11.6729
▁grat	-11.673
▁ties	-11.6731
▁complet	-11.6732
bring	-11.6732
malang	-11.6733
▁spray	-11.6733
loser	-11.6734
▁lyin	-11.6735
▁lux	-11.6736
▁fluffy	-11.6736
▁shopper	-11.674
▁hind	-11.674
▁boogi	-11.6743
▁washing	-11.6745
▁idola	-11.6747
▁extraordinary	-11.6748
▁houseof	-11.6751
▁apocalyp	-11.6755
▁hundred	-11.6757
▁seed	-11.6757
filter	-11.6758
cape	-11.676
ward	-11.6762
▁replay	-11.6762
▁kardashian	-11.6762
▁debut	-11.6764
▁uber	-11.6767
pian	-11.6767
incin	-11.6767
ived	-11.6768
▁infl	-11.6769
blind	-11.677
▁remaster	-11.6771
▁cruelty	-11.6771
▁hopeless	-11.6776
▁girlswith	-11.6777
▁exploit	-11.6779
▁pov	-11.6779
▁yessss	-11.6779
▁stein	-11.6779
▁doggies	-11.6779
▁interven	-11.6779
cow	-11.6781
▁slur	-11.6781
lous	-11.6785
generation	-11.6786
isis	-11.679
linois	-11.6793
▁kud	-11.6794
▁signal	-11.6797
▁parklife	-11.6797
▁celebs	-11.6798
tel	-11.6799
▁thbihday	-11.6799
▁sharethe	-11.6802
wide	-11.6802
staff	-11.6802
▁mutual	-11.6803
▁fanboy	-11.6805
▁saira	-11.6807
▁ron	-11.6807
▁bihdayweek	-11.6808
▁onwards	-11.6811
▁complicit	-11.6812
▁tuck	-11.6813
next	-11.6816
whitesupremacist	-11.6818
▁fridayfun	-11.6818
▁unpack	-11.6819
▁duran	-11.682
▁rent	-11.6821
▁volt	-11.6823
▁squid	-11.6826
ami	-11.6829
▁mario	-11.6829
▁unbi	-11.6831
intentional	-11.6833
▁chu	-11.6834
▁wolf	-11.6834
rush	-11.6839
▁feast	-11.6839
lat	-11.684
▁arrow	-11.6842
mford	-11.6844
▁crep	-11.6844
▁dolphin	-11.6845
▁obes	-11.6847
ffy	-11.6848
specialist	-11.6848
print	-11.6848
▁pile	-11.6851
▁toilet	-11.6852
▁discipline	-11.6853
tro	-11.6853
▁golin	-11.6854
▁bribe	-11.6856
▁fleet	-11.6857
tr	-11.6861
currenc	-11.6863
▁listento	-11.6866
iva	-11.6867
▁sore	-11.6869
▁sunflower	-11.6871
▁ellen	-11.6872
door	-11.6872
▁tasting	-11.6874
▁afro	-11.6875
▁detect	-11.6875
aholic	-11.6885
▁thumb	-11.6885
▁et	-11.6887
nto	-11.6889
uty	-11.689
▁twinkle	-11.6895
▁gunner	-11.6896
▁lens	-11.6896
▁debt	-11.6897
nam	-11.6898
▁pur	-11.6902
▁stain	-11.6905
fre	-11.6906
▁jak	-11.6906
▁doc	-11.6906
▁geez	-11.6907
▁assess	-11.6907
▁quad	-11.6908
▁liam	-11.6909
▁darker	-11.6911
asia	-11.6914
▁stl	-11.6923
cars	-11.6926
aria	-11.6927
giving	-11.6928
▁grads	-11.6929
▁core	-11.693
▁flop	-11.6938
▁zee	-11.6939
▁fiend	-11.6942
▁needto	-11.6942
▁vod	-11.6943
▁ital	-11.6943
▁collaborat	-11.6946
esh	-11.6948
▁lovethem	-11.6949
▁queu	-11.6952
ians	-11.6952
▁louise	-11.6953
taclo	-11.6958
▁exhibiti	-11.6961
▁deaf	-11.6965
▁wheredo	-11.6965
eaten	-11.6965
▁yah	-11.6967
chf	-11.6968
atib	-11.6969
▁bt	-11.697
▁blessedand	-11.6974
iki	-11.6974
bestfriend	-11.6975
nroll	-11.6975
kimmy	-11.6977
▁hunter	-11.6977
▁moody	-11.6978
▁doin	-11.6979
kets	-11.698
▁prompt	-11.6981
▁nbj	-11.6982
▁eff	-11.6982
▁carpet	-11.6984
▁marina	-11.6985
▁endthe	-11.6987
bully	-11.6989
▁kath	-11.6989
▁mahi	-11.6989
▁urban	-11.699
▁hoodies	-11.699
acres	-11.6991
isha	-11.6994
edition	-11.6998
▁hutch	-11.7001
ays	-11.7001
▁overall	-11.7001
ids	-11.7003
name	-11.7005
abo	-11.7006
▁hann	-11.7012
hhhhh	-11.7015
▁dye	-11.7016
▁instill	-11.7016
berry	-11.7017
trum	-11.7023
tha	-11.7025
▁rash	-11.7027
▁trendy	-11.7027
▁allen	-11.7028
▁pickle	-11.7032
matsu	-11.7033
orough	-11.7036
ops	-11.7038
jerk	-11.7039
ram	-11.704
▁compete	-11.7041
ckets	-11.7044
▁invade	-11.7052
▁yy	-11.7052
▁morro	-11.7054
hills	-11.7055
▁loveyour	-11.7056
▁transf	-11.7057
kat	-11.7059
▁diving	-11.7061
▁yike	-11.7064
▁hyun	-11.7064
▁jail	-11.7067
▁yard	-11.7072
mint	-11.7074
▁hun	-11.7074
▁destroying	-11.7075
▁pete	-11.7076
▁nak	-11.708
▁provider	-11.7084
▁flor	-11.7085
▁serv	-11.7086
blues	-11.7086
▁jw	-11.7088
image	-11.7089
▁traveller	-11.7089
oran	-11.7091
▁bas	-11.7092
sti	-11.7094
▁kum	-11.7096
▁kong	-11.7096
▁hunt	-11.71
sense	-11.7103
▁fiction	-11.711
▁pat	-11.7113
▁pakistani	-11.7115
▁biz	-11.7118
yourown	-11.7122
▁erase	-11.7122
aly	-11.7127
ndrome	-11.7134
▁lyf	-11.7136
etup	-11.7137
▁ross	-11.7138
shadow	-11.7138
yf	-11.714
▁fridaynight	-11.7146
▁fblogger	-11.7151
▁butter	-11.7151
lar	-11.7153
panic	-11.7154
▁gown	-11.7154
▁vli	-11.7155
poo	-11.7162
▁goodtime	-11.7167
ennis	-11.7169
▁sweets	-11.7175
bre	-11.7179
▁adve	-11.718
eth	-11.7183
▁instagirl	-11.7184
▁doctors	-11.7186
cc	-11.719
▁boro	-11.7198
▁bald	-11.7198
ora	-11.7201
rika	-11.7205
▁locks	-11.7205
▁soap	-11.7205
▁myboy	-11.7208
▁vol	-11.7216
▁helpme	-11.7218
▁pooh	-11.7225
▁noon	-11.7227
▁rus	-11.7233
sister	-11.7233
cott	-11.7233
gnific	-11.7239
▁scor	-11.7251
dest	-11.7251
▁pole	-11.7253
▁trains	-11.7254
sto	-11.7255
icia	-11.7258
▁thebig	-11.7258
▁pond	-11.7263
▁wd	-11.7264
fri	-11.7272
▁hella	-11.7275
▁daysof	-11.7276
ternal	-11.7284
▁gal	-11.7286
vering	-11.7292
derland	-11.7294
igue	-11.7296
lugg	-11.7308
▁payin	-11.7311
▁brewer	-11.7314
▁gard	-11.7317
▁emb	-11.7321
▁swan	-11.7322
▁ukr	-11.7323
scription	-11.7324
▁wr	-11.7324
hon	-11.7325
eira	-11.7325
ech	-11.7328
meter	-11.7328
▁massi	-11.7332
▁lmaoo	-11.7337
▁scan	-11.7341
▁teamha	-11.7344
▁css	-11.7352
▁highs	-11.7354
prolly	-11.7354
▁attraction	-11.7357
▁console	-11.7358
aylor	-11.7358
delphi	-11.7366
▁termin	-11.7372
chrome	-11.7374
warm	-11.7383
wouldnt	-11.7386
▁swe	-11.7391
kit	-11.7392
ahur	-11.7392
mented	-11.7393
dding	-11.7397
nap	-11.7397
oopwhoop	-11.7398
cau	-11.74
▁bei	-11.7405
▁sach	-11.7406
▁outline	-11.7407
▁blu	-11.7412
nest	-11.7419
fill	-11.7422
ico	-11.7428
inthera	-11.7434
▁mick	-11.7435
▁spank	-11.7441
▁secure	-11.7441
gard	-11.7441
ane	-11.7453
cho	-11.7453
theworld	-11.7457
▁vul	-11.7458
▁satisfy	-11.746
berra	-11.7465
rote	-11.7475
ents	-11.748
bee	-11.7481
▁hamp	-11.7481
▁mania	-11.7489
▁named	-11.7489
▁goa	-11.7492
▁belive	-11.75
lfc	-11.75
cul	-11.7504
gage	-11.751
▁bolt	-11.751
▁sal	-11.7514
▁grin	-11.7515
▁lonel	-11.752
▁careful	-11.7521
tain	-11.7526
tf	-11.7527
deed	-11.7527
lewis	-11.7528
struction	-11.7528
▁shelve	-11.7529
faces	-11.7531
bust	-11.7531
theocean	-11.7541
badass	-11.7541
▁imp	-11.7542
▁pri	-11.7543
▁ov	-11.7546
eyed	-11.7548
henna	-11.7549
jungle	-11.755
▁tab	-11.755
▁welf	-11.7556
ative	-11.7566
▁grader	-11.7571
▁healthylife	-11.7572
▁bom	-11.7576
▁baller	-11.7576
▁revers	-11.7582
ught	-11.7584
minate	-11.7585
▁hb	-11.7589
▁tense	-11.7589
burst	-11.7589
mas	-11.7592
holiday	-11.7592
▁shed	-11.7595
poison	-11.7598
dont	-11.7598
▁statenisland	-11.76
alize	-11.76
▁mmm	-11.7601
▁adore	-11.7602
cos	-11.7608
▁cds	-11.761
▁spre	-11.7614
chan	-11.7615
band	-11.7625
▁jade	-11.7627
abad	-11.7629
else	-11.763
▁shad	-11.763
▁devote	-11.7632
ssive	-11.7632
▁newly	-11.7635
▁flyer	-11.7643
▁rox	-11.7646
▁gol	-11.7648
agent	-11.7649
duck	-11.7649
▁sl	-11.765
social	-11.7654
▁spad	-11.7656
▁infant	-11.7662
▁ent	-11.7667
▁paddle	-11.7667
ooking	-11.7673
yspot	-11.7673
ointe	-11.7681
▁truthful	-11.7681
▁lolol	-11.7683
▁stud	-11.7686
▁trad	-11.7687
▁catal	-11.7694
young	-11.7697
▁eric	-11.7697
und	-11.7699
▁spf	-11.7702
▁luk	-11.7705
mum	-11.7705
gg	-11.7709
pg	-11.7709
▁compani	-11.771
▁phew	-11.7713
▁reass	-11.7715
▁rama	-11.7718
omw	-11.7736
▁donut	-11.7738
mac	-11.7739
ato	-11.7739
▁liner	-11.774
▁gals	-11.7744
mywine	-11.7746
berg	-11.7751
uba	-11.7753
▁oreg	-11.7757
▁lave	-11.7769
▁justif	-11.7774
▁zum	-11.7774
jesus	-11.7777
▁venture	-11.7778
▁musicis	-11.779
wild	-11.7794
▁cav	-11.7795
▁pers	-11.7805
eh	-11.7814
ammy	-11.7817
lit	-11.7824
nom	-11.7824
▁famil	-11.7825
▁motion	-11.7832
each	-11.7834
hay	-11.7835
colour	-11.7836
gged	-11.7838
tor	-11.7842
▁buck	-11.7845
ired	-11.7848
eiko	-11.7855
▁admire	-11.7857
mother	-11.7859
▁bohem	-11.7863
▁padd	-11.7864
▁kristi	-11.787
why	-11.7885
▁leap	-11.7889
boro	-11.789
say	-11.7891
▁spani	-11.7898
lam	-11.7899
▁bjm	-11.7903
▁gat	-11.7908
cris	-11.7909
▁andrea	-11.7913
feed	-11.792
ada	-11.792
▁bea	-11.7926
yah	-11.7929
gins	-11.7932
dj	-11.7933
uck	-11.7934
jah	-11.7935
sk	-11.7936
xit	-11.7941
▁origin	-11.7942
mm	-11.7946
bec	-11.7947
wor	-11.7947
np	-11.7959
▁terr	-11.7962
▁tolera	-11.7964
▁cod	-11.7968
enem	-11.7968
▁mason	-11.7973
▁toure	-11.7976
verge	-11.798
urge	-11.7985
▁captur	-11.7996
▁spic	-11.7999
▁klo	-11.8002
▁vino	-11.801
arm	-11.8011
bri	-11.8011
ahs	-11.802
rytr	-11.8022
▁herb	-11.8023
▁dh	-11.804
ngie	-11.8044
zara	-11.8047
hr	-11.8054
disco	-11.8056
ark	-11.8057
cats	-11.8062
says	-11.8069
ummers	-11.8072
cube	-11.8073
cense	-11.8073
convo	-11.8086
▁ins	-11.809
ficial	-11.8094
allah	-11.8097
▁isle	-11.8098
atoo	-11.8104
ological	-11.8105
hide	-11.8107
▁saving	-11.8109
▁litter	-11.8111
izz	-11.812
genou	-11.8122
sy	-11.813
▁adams	-11.813
▁imma	-11.8136
▁capt	-11.8137
lity	-11.8138
▁lived	-11.8142
edm	-11.8149
orn	-11.8154
▁rating	-11.8157
▁streeta	-11.8163
nk	-11.8164
▁islamophobe	-11.8166
▁barne	-11.8173
azine	-11.8175
tten	-11.8177
owing	-11.8179
▁lg	-11.8185
▁ek	-11.8187
▁arabi	-11.819
klan	-11.8191
▁medi	-11.8201
ista	-11.8201
▁cel	-11.8207
need	-11.8208
zoo	-11.8209
▁carrie	-11.8211
▁stalk	-11.8216
aric	-11.8219
▁intro	-11.8221
claimed	-11.8223
outing	-11.8224
▁sony	-11.8226
▁brooks	-11.8226
▁viewer	-11.8228
▁carlo	-11.823
▁shar	-11.8232
▁twt	-11.8233
▁alley	-11.8248
eno	-11.825
▁tun	-11.8251
▁wats	-11.8251
▁lala	-11.8251
▁phila	-11.8254
▁brains	-11.8257
ike	-11.8284
eel	-11.8291
stars	-11.8293
evi	-11.8298
fora	-11.8312
tform	-11.832
ej	-11.832
habit	-11.8324
▁verse	-11.8333
aki	-11.8343
hope	-11.8344
▁gods	-11.8348
▁zan	-11.835
▁barri	-11.835
udge	-11.8358
▁happyholiday	-11.8363
lore	-11.8368
buf	-11.8369
trix	-11.8372
▁myle	-11.8374
▁wheres	-11.8397
tah	-11.84
▁harmoni	-11.8412
rope	-11.8413
bali	-11.8422
zin	-11.8424
▁gran	-11.8426
isgood	-11.8437
ios	-11.8445
covering	-11.8447
dela	-11.8448
pretori	-11.8449
▁justwanna	-11.8449
▁writers	-11.8451
ees	-11.8459
itis	-11.8463
▁vase	-11.8477
▁amo	-11.8478
still	-11.8481
▁rin	-11.8484
▁sequ	-11.8489
gender	-11.849
thon	-11.8501
mmer	-11.8505
col	-11.8507
▁agenc	-11.8508
▁dishono	-11.8519
mma	-11.8522
▁ze	-11.8523
▁kee	-11.8528
asti	-11.853
color	-11.8536
bol	-11.8544
ool	-11.8551
insta	-11.8553
albea	-11.8555
gar	-11.8558
ele	-11.8562
uki	-11.8566
▁convi	-11.8567
happen	-11.8568
pers	-11.8569
▁dishon	-11.8571
cw	-11.8571
▁twee	-11.8573
zine	-11.8573
ngforever	-11.8574
▁ble	-11.8575
lings	-11.8582
gal	-11.8584
lax	-11.8584
ecu	-11.8587
owers	-11.8591
▁welove	-11.8591
▁newbooks	-11.8593
ido	-11.8606
www	-11.8608
▁pollut	-11.8617
▁immigra	-11.8617
wrapped	-11.8621
tequi	-11.8622
▁lovewin	-11.8631
▁sik	-11.8647
▁remarkabl	-11.8647
aji	-11.8649
▁bru	-11.8654
nds	-11.8658
test	-11.8659
rum	-11.866
▁stepp	-11.8662
▁nh	-11.8665
▁jac	-11.8668
▁rank	-11.8671
▁notic	-11.8671
yyyy	-11.8679
manik	-11.8695
▁nove	-11.8696
▁hindus	-11.8696
mmit	-11.8696
kule	-11.8705
etes	-11.8713
▁rail	-11.8722
▁seller	-11.8723
alia	-11.8723
▁maha	-11.8724
▁holla	-11.8725
tothe	-11.873
iri	-11.8732
wu	-11.8735
▁unk	-11.8745
grape	-11.8752
▁bondi	-11.8754
asino	-11.8757
▁braves	-11.8759
eless	-11.8761
net	-11.8762
salm	-11.8765
outs	-11.8765
rrow	-11.8767
▁communis	-11.8769
▁jihad	-11.8769
▁livelovel	-11.8771
code	-11.8771
▁divers	-11.8784
ym	-11.8784
▁dedicate	-11.8787
▁followus	-11.8787
ltw	-11.8789
ote	-11.8789
oked	-11.8805
ohn	-11.8807
ase	-11.8812
▁uku	-11.8814
eller	-11.8817
▁luca	-11.8818
rf	-11.8819
lthy	-11.8822
▁reel	-11.883
egg	-11.8835
nota	-11.8837
lled	-11.884
bern	-11.8841
urious	-11.8851
rious	-11.8853
aw	-11.8854
▁basel	-11.8876
ws	-11.889
ures	-11.8892
ock	-11.8896
▁exciteme	-11.89
▁kaz	-11.89
iq	-11.8901
raja	-11.8901
nish	-11.8903
phobia	-11.8912
▁hipp	-11.8913
mura	-11.8913
edev	-11.8919
pppp	-11.8924
dford	-11.8931
rosale	-11.8934
ida	-11.8935
cker	-11.8935
▁vf	-11.8942
▁athlet	-11.8943
fast	-11.8946
urself	-11.8949
talia	-11.8956
▁wrapp	-11.8956
▁supp	-11.8958
arious	-11.8967
bey	-11.897
zed	-11.8977
▁glo	-11.898
lac	-11.8991
▁summeris	-11.8992
angel	-11.8992
▁pp	-11.8998
theway	-11.9005
ductive	-11.9013
endo	-11.9018
mia	-11.9029
▁hypocri	-11.9035
working	-11.9039
▁ton	-11.9049
▁beginn	-11.9049
rov	-11.9056
▁tub	-11.9071
merica	-11.9074
▁sheet	-11.9079
etary	-11.9084
tree	-11.9086
logical	-11.9094
▁nur	-11.9104
hru	-11.9107
ellen	-11.9114
▁bab	-11.9117
libra	-11.9118
▁unre	-11.9118
bd	-11.9126
ization	-11.9128
goodell	-11.913
illa	-11.9132
▁rafa	-11.9142
▁electro	-11.9144
▁conces	-11.9145
inlove	-11.9145
cq	-11.9155
▁produc	-11.9168
▁womens	-11.9169
national	-11.917
▁stayin	-11.9173
lag	-11.9174
rita	-11.9183
rational	-11.9186
▁msc	-11.9194
dai	-11.9196
▁holi	-11.9196
▁todays	-11.9207
gonna	-11.9209
▁dv	-11.9222
revolt	-11.9223
▁pik	-11.9223
ece	-11.9227
film	-11.9234
tte	-11.9236
carl	-11.9237
ester	-11.9237
aytun	-11.9238
safe	-11.9239
▁motiv	-11.9247
nata	-11.9249
essa	-11.9249
▁notmypre	-11.925
ania	-11.9256
▁sem	-11.9264
flowers	-11.9266
attle	-11.9266
▁connecti	-11.9273
tim	-11.9274
▁chap	-11.9277
amigo	-11.9277
void	-11.9283
acity	-11.9284
▁sean	-11.9287
another	-11.9287
jack	-11.9288
quer	-11.9289
imperfect	-11.9308
tur	-11.9311
version	-11.9312
honour	-11.9319
▁thurs	-11.9321
tattoo	-11.9321
hini	-11.9324
half	-11.933
▁chim	-11.9334
yface	-11.9335
olish	-11.9339
kaa	-11.9339
enjoy	-11.9345
kon	-11.9346
▁excitem	-11.935
ging	-11.936
direct	-11.9361
▁jab	-11.9363
nothing	-11.9365
smith	-11.9367
champion	-11.9371
abilit	-11.9373
▁discre	-11.9375
many	-11.9377
uae	-11.9382
▁coc	-11.9383
ator	-11.9387
lan	-11.9388
▁makers	-11.9389
▁tran	-11.939
position	-11.9391
df	-11.9392
yu	-11.9392
adin	-11.9397
pray	-11.9398
yuk	-11.9404
eather	-11.942
someone	-11.9423
ican	-11.9424
▁sic	-11.9431
sbury	-11.9434
▁youuu	-11.9436
yourhea	-11.9438
nks	-11.9438
▁sponsors	-11.9443
groom	-11.9448
▁mademe	-11.945
yes	-11.9457
owa	-11.9458
inspiration	-11.9459
disney	-11.9461
eshi	-11.9461
▁wakes	-11.9463
ticket	-11.9466
country	-11.9467
buddha	-11.9467
▁invit	-11.9468
▁dy	-11.9473
▁packe	-11.9475
crazy	-11.9476
having	-11.9476
▁historic	-11.9479
▁sparkl	-11.948
natural	-11.9488
▁sana	-11.9489
traged	-11.9489
qu	-11.9489
graphy	-11.9494
celebrate	-11.9494
everyday	-11.9496
drive	-11.9499
▁hallo	-11.9505
waffle	-11.9506
peoples	-11.9515
loud	-11.9518
alem	-11.952
icious	-11.9521
awa	-11.9523
trick	-11.9523
flag	-11.9525
yman	-11.9526
football	-11.9528
ryl	-11.9531
nown	-11.9533
birds	-11.9533
dical	-11.9537
mula	-11.9537
▁celebra	-11.9539
wecan	-11.9539
baker	-11.954
brill	-11.9545
warrior	-11.9545
community	-11.9547
griev	-11.9548
infinity	-11.9549
gym	-11.955
content	-11.955
plate	-11.9551
brand	-11.9551
murphy	-11.9554
ngs	-11.9556
▁alleg	-11.9561
talent	-11.9562
stupid	-11.9564
democra	-11.9564
▁richard	-11.9565
passion	-11.9565
blonde	-11.9566
deserve	-11.9569
▁missthe	-11.9569
castle	-11.9574
japan	-11.9574
▁officia	-11.9575
graduation	-11.9576
alco	-11.9578
germany	-11.9578
vas	-11.9579
married	-11.9579
pussy	-11.9581
cousin	-11.9583
joseph	-11.9583
conce	-11.9583
▁imm	-11.9584
hello	-11.9586
boost	-11.9586
thumb	-11.9587
focus	-11.9587
join	-11.9587
growth	-11.9589
nepal	-11.9591
marie	-11.9594
value	-11.9595
prayers	-11.9595
vintage	-11.9595
condition	-11.9597
advice	-11.9597
kitchen	-11.9597
cheese	-11.9598
uum	-11.9598
comedy	-11.96
br	-11.9601
harmony	-11.9602
damn	-11.9603
dinosaur	-11.9604
johnson	-11.9605
workshop	-11.9605
youtuber	-11.9605
dolphin	-11.9606
prize	-11.9607
doodle	-11.9607
involve	-11.9607
bastard	-11.9608
pencil	-11.961
assault	-11.961
draft	-11.9611
enthusias	-11.9615
ultra	-11.9615
anche	-11.9616
status	-11.9617
mirror	-11.9617
oppounity	-11.9617
newyear	-11.9619
yorkshire	-11.9619
regret	-11.9619
▁squee	-11.962
aft	-11.9621
bitches	-11.9622
impact	-11.9623
▁oi	-11.9623
stopp	-11.9623
ber	-11.9623
wolf	-11.9624
korea	-11.9625
famous	-11.9626
▁unforg	-11.9627
milk	-11.9627
▁entr	-11.9627
advocate	-11.9629
glam	-11.9629
▁oppos	-11.9629
plaza	-11.9629
aving	-11.9629
greatest	-11.963
building	-11.9633
▁timeto	-11.9633
android	-11.9633
beyond	-11.9635
novel	-11.9638
blood	-11.9639
▁convers	-11.9639
addie	-11.9639
cruise	-11.9639
rapist	-11.9641
recipe	-11.9641
▁brav	-11.9642
hawaii	-11.9643
dragon	-11.9643
adams	-11.9644
lasvegas	-11.9646
puff	-11.9646
▁musician	-11.9646
▁surre	-11.9646
responsib	-11.9647
cinema	-11.9647
council	-11.9647
▁creation	-11.9648
golf	-11.965
ori	-11.9652
brain	-11.9652
lessons	-11.9653
▁welcom	-11.9657
▁twinkl	-11.9658
walker	-11.9661
slide	-11.9666
lion	-11.9668
lary	-11.967
duke	-11.9673
blanca	-11.9675
paul	-11.9676
nch	-11.9678
▁compli	-11.9678
▁astr	-11.9681
▁anon	-11.9682
▁inform	-11.9683
▁nast	-11.9693
skinny	-11.9693
pack	-11.9695
▁schu	-11.9695
abby	-11.9697
speed	-11.9698
vader	-11.9698
▁miracle	-11.9698
grand	-11.9701
nal	-11.9702
erous	-11.9705
pass	-11.9708
▁shah	-11.9711
▁lm	-11.9712
later	-11.9712
lauren	-11.9712
▁kor	-11.9713
aded	-11.9713
▁offend	-11.9717
▁merch	-11.9718
▁curio	-11.9718
leaf	-11.9721
abe	-11.9721
▁bars	-11.9722
robe	-11.9723
▁roh	-11.9725
cloth	-11.9725
supremacist	-11.9727
▁stra	-11.9728
▁memorie	-11.9729
escape	-11.973
▁veteran	-11.9734
ggers	-11.9736
unning	-11.974
aiku	-11.974
liberate	-11.9743
▁bd	-11.9744
ldas	-11.9746
▁brace	-11.9756
philip	-11.9758
far	-11.9759
crush	-11.9763
fault	-11.9766
sda	-11.9768
▁onthe	-11.9776
leg	-11.9776
insight	-11.9782
▁nemo	-11.9783
lps	-11.9789
journalis	-11.9791
▁simb	-11.9791
pub	-11.9796
aro	-11.9804
▁favorit	-11.9808
uth	-11.9808
gals	-11.981
▁pune	-11.9811
▁farmer	-11.9812
ador	-11.9816
ement	-11.9816
▁au	-11.9816
charity	-11.9817
ooze	-11.9819
lane	-11.9822
andy	-11.9823
▁reward	-11.9824
tin	-11.9825
nn	-11.9826
▁eats	-11.9827
▁practic	-11.9829
higan	-11.983
▁etern	-11.9832
▁oppress	-11.9832
▁nev	-11.9839
gig	-11.9841
anyway	-11.9842
▁bern	-11.9842
bai	-11.9845
▁engine	-11.9845
thecock	-11.9847
belly	-11.9847
▁yong	-11.9849
prep	-11.9854
gop	-11.9854
ologist	-11.9865
▁hay	-11.9866
▁stripe	-11.9866
mond	-11.9866
▁vandal	-11.9867
chill	-11.9867
nails	-11.9868
ith	-11.9872
leman	-11.9872
ken	-11.9873
▁communicati	-11.9873
bond	-11.9875
inal	-11.9875
▁horribl	-11.9876
huggi	-11.9877
hazi	-11.9882
▁gent	-11.9882
▁zip	-11.9883
▁rajo	-11.9886
▁intention	-11.9887
rist	-11.9889
lair	-11.9892
▁minorit	-11.9893
nemo	-11.9893
▁innocen	-11.9896
▁fashio	-11.9896
▁latte	-11.9896
terior	-11.99
iyan	-11.9901
▁vscoph	-11.9901
▁typi	-11.9903
honey	-11.9905
▁whit	-11.9908
▁streetphoto	-11.9909
yester	-11.9909
▁simp	-11.9909
▁kel	-11.9911
cia	-11.9911
orial	-11.9911
▁consist	-11.9911
ining	-11.9912
opus	-11.9913
rdam	-11.992
▁dough	-11.992
▁yeahhh	-11.9924
▁moan	-11.9927
oursel	-11.9927
▁guard	-11.9927
▁condole	-11.9933
▁testimon	-11.9934
▁cockerspaniel	-11.9935
maverick	-11.9935
▁condescen	-11.9935
▁spontaneous	-11.9935
zipaquir	-11.9935
▁aerobic	-11.9935
▁behaviour	-11.9935
▁bodyscrub	-11.9935
▁brigade	-11.9935
▁curriculum	-11.9935
▁excerpt	-11.9935
▁halifax	-11.9935
▁inconvenien	-11.9935
▁ingredient	-11.9935
▁isoladelba	-11.9935
▁mahogany	-11.9935
▁margarita	-11.9935
▁mcflurr	-11.9935
▁ripjuli	-11.9935
▁schnauzer	-11.9935
▁shanghai	-11.9935
▁stuttga	-11.9935
▁surrogate	-11.9935
▁swastika	-11.9935
▁hibiscus	-11.9935
▁natgeo	-11.9935
▁raspberry	-11.9935
▁shabbat	-11.9935
▁treacherous	-11.9935
▁embroider	-11.9935
▁gloucester	-11.9935
▁illmissyou	-11.9935
▁margaret	-11.9935
▁bennett	-11.9935
▁convenient	-11.9935
▁doberman	-11.9935
▁narcissist	-11.9935
▁rodrique	-11.9935
▁approx	-11.9935
▁assassin	-11.9935
▁wynonna	-11.9935
▁antagoni	-11.9935
▁steampunk	-11.9935
▁mermaid	-11.9935
▁porsche	-11.9935
▁scientific	-11.9935
▁wyonna	-11.9935
▁boulder	-11.9935
▁registration	-11.9935
▁rixos	-11.9935
▁unceain	-11.9935
grandprix	-11.9935
▁suffice	-11.9935
geordie	-11.9935
franchise	-11.9935
▁dentist	-11.9935
▁explosive	-11.9935
▁guinea	-11.9935
▁arrogan	-11.9935
▁barefoot	-11.9935
▁economicapah	-11.9935
▁billionaire	-11.9935
▁seeyouinthe	-11.9935
▁barnsley	-11.9935
▁snuggle	-11.9935
▁sultan	-11.9935
▁qualification	-11.9935
▁multicultural	-11.9935
▁brittany	-11.9935
▁joshua	-11.9935
▁surrender	-11.9935
▁deploy	-11.9935
▁absurd	-11.9935
▁lbgt	-11.9935
▁psychopath	-11.9935
▁pewaukee	-11.9935
▁specific	-11.9935
▁traumatic	-11.9935
▁justinbieber	-11.9935
▁embodi	-11.9935
eiffel	-11.9935
▁catholic	-11.9935
cavalier	-11.9935
▁crayola	-11.9935
▁felix	-11.9935
▁youmakeme	-11.9935
▁repulsi	-11.9935
velvet	-11.9935
▁grimace	-11.9935
▁competitive	-11.9935
▁astound	-11.9935
▁douche	-11.9935
▁birdsstella	-11.9935
▁testimonial	-11.9935
▁suarez	-11.9936
▁unveil	-11.9936
▁assembl	-11.9936
▁vindic	-11.9936
▁submission	-11.9936
uyendo	-11.9936
▁newlywed	-11.9936
▁civilwar	-11.9936
▁nevada	-11.9936
infiltr	-11.9936
cawl	-11.9936
▁dylan	-11.9936
▁chappel	-11.9936
hughes	-11.9936
▁islamaphobi	-11.9936
▁gcse	-11.9936
▁donaldduck	-11.9936
▁pumpkin	-11.9936
▁skateboard	-11.9936
▁crusade	-11.9936
▁volley	-11.9936
▁emerald	-11.9936
▁mailbox	-11.9936
▁metallic	-11.9936
ssenger	-11.9936
▁walrus	-11.9936
▁parsons	-11.9936
peppermint	-11.9936
▁berniebro	-11.9936
quisite	-11.9936
▁turkish	-11.9936
▁bangerz	-11.9936
▁salesforce	-11.9936
▁walnut	-11.9936
▁doctorwho	-11.9937
▁netanyahu	-11.9937
▁extoion	-11.9937
▁doublestandard	-11.9937
▁superior	-11.9937
▁velour	-11.9937
▁qoute	-11.9937
▁manifest	-11.9937
▁chirp	-11.9937
▁thunderstorm	-11.9937
imate	-11.9937
▁unload	-11.9937
▁practically	-11.9938
▁macaron	-11.9938
▁animalabuse	-11.9938
▁elderflower	-11.9938
▁ripojb	-11.9938
▁disadvantage	-11.9938
▁cotton	-11.9938
▁rugged	-11.9938
▁rooftop	-11.9938
▁argv	-11.9938
▁denver	-11.9938
▁campfire	-11.9938
▁rosie	-11.9939
▁liqu	-11.9939
tag	-11.9939
▁redken	-11.9939
▁bekindto	-11.994
voyage	-11.994
▁foxnews	-11.994
▁thenanny	-11.994
▁rolemodel	-11.994
cyrus	-11.994
▁lesbian	-11.9941
rabbit	-11.9941
▁itsmybihday	-11.9941
duchess	-11.9941
▁vineyard	-11.9941
▁civilian	-11.9941
▁almond	-11.9941
▁austrian	-11.9941
▁fifth	-11.9941
▁mumford	-11.9942
▁cultural	-11.9942
▁nickname	-11.9942
kansas	-11.9942
▁kentuck	-11.9942
graveyard	-11.9943
voltron	-11.9943
▁robbie	-11.9943
▁coworker	-11.9943
▁unborn	-11.9943
▁corrie	-11.9943
▁indicate	-11.9943
▁seminar	-11.9944
▁vancity	-11.9944
chiro	-11.9944
▁whitewash	-11.9945
▁graham	-11.9945
▁albumden	-11.9945
▁riley	-11.9945
▁boohoo	-11.9946
▁marrake	-11.9946
▁distraction	-11.9946
epp	-11.9946
▁basili	-11.9946
▁crawl	-11.9946
▁paedo	-11.9946
▁caffe	-11.9946
▁racewar	-11.9946
▁dprint	-11.9947
▁trooping	-11.9947
▁customized	-11.9947
▁sympathize	-11.9947
▁retailtherapy	-11.9947
▁carmel	-11.9947
▁bodyweight	-11.9948
▁aaron	-11.9948
▁westend	-11.9948
▁costume	-11.9948
▁tantrum	-11.9948
▁preston	-11.9948
▁chandra	-11.9948
▁rainrain	-11.9949
▁kwon	-11.9949
▁dennis	-11.9949
▁mysog	-11.9949
▁fif	-11.9949
olivia	-11.9949
▁bmw	-11.9949
▁ihaveno	-11.9949
▁perks	-11.995
▁immun	-11.995
▁hardrock	-11.995
▁fiestar	-11.995
▁protein	-11.995
isgeorge	-11.9951
▁nomura	-11.9952
bellam	-11.9952
▁muza	-11.9952
slipper	-11.9952
▁bronze	-11.9953
▁yarn	-11.9953
ngmai	-11.9954
▁akali	-11.9954
▁nickel	-11.9954
▁trouser	-11.9954
▁jelly	-11.9955
▁activate	-11.9955
gasm	-11.9956
sc	-11.9956
▁cuain	-11.9956
▁saudi	-11.9956
▁beagle	-11.9957
▁coloni	-11.9957
▁nimr	-11.9957
▁unchaed	-11.9957
▁harv	-11.9958
▁alvin	-11.9959
jawa	-11.9959
▁womensright	-11.996
▁shohair	-11.996
▁slid	-11.9961
overseas	-11.9961
furi	-11.9961
▁milan	-11.9961
▁ecto	-11.9962
▁memyselfandi	-11.9963
▁accomplishment	-11.9963
▁wheather	-11.9963
▁fathersdaygift	-11.9965
▁enforc	-11.9965
aditya	-11.9965
soundtrack	-11.9966
▁memorialday	-11.9966
daylight	-11.9966
▁cpc	-11.9967
▁kool	-11.9968
▁eject	-11.9969
▁wrist	-11.9969
▁reg	-11.9969
dinner	-11.997
▁boxer	-11.997
▁emily	-11.997
▁blacksea	-11.9971
▁grimm	-11.9971
▁soclose	-11.9971
ased	-11.9971
▁rebound	-11.9972
▁educator	-11.9972
▁musko	-11.9972
▁strict	-11.9972
▁inquir	-11.9973
awaii	-11.9973
▁tragically	-11.9974
▁flax	-11.9974
▁exhibitor	-11.9975
▁fallac	-11.9976
▁jovi	-11.9977
▁spreadlove	-11.9977
▁desp	-11.9978
▁tsem	-11.9978
▁funne	-11.9978
▁buka	-11.9979
▁fatty	-11.9979
▁weeklong	-11.998
▁engv	-11.9981
anhai	-11.9981
▁pilot	-11.9981
▁bumbleb	-11.9983
bluejays	-11.9983
▁aspie	-11.9985
▁hammer	-11.9985
▁fuckoff	-11.9985
▁dubnation	-11.9985
▁thankgod	-11.9985
▁wannabe	-11.9985
▁niall	-11.9986
▁volu	-11.9987
▁silve	-11.9987
▁kappa	-11.9987
production	-11.9987
hou	-11.9988
freelance	-11.9988
▁magn	-11.9989
▁digest	-11.999
▁incite	-11.9991
▁ryder	-11.9992
▁greg	-11.9992
▁scholar	-11.9994
▁couch	-11.9994
▁bruno	-11.9995
▁hurst	-11.9996
▁marsh	-11.9996
▁cavy	-11.9996
▁arabian	-11.9996
▁republic	-11.9997
owwwwww	-11.9998
▁ceificate	-12
▁anthony	-12
▁organiz	-12
longhorn	-12.0001
▁aiel	-12.0001
▁kore	-12.0003
▁regent	-12.0003
translation	-12.0004
cca	-12.0005
▁newark	-12.0006
▁coverup	-12.0006
▁mozilla	-12.0008
▁juni	-12.0009
▁flex	-12.001
garch	-12.001
▁asylum	-12.001
▁gg	-12.0011
▁censors	-12.0011
▁fitur	-12.0011
▁freestyle	-12.0011
▁iloveme	-12.0012
▁splash	-12.0013
▁shikar	-12.0013
▁wicked	-12.0013
▁dumm	-12.0014
▁commod	-12.0016
dysgirl	-12.0017
▁torment	-12.0017
▁elevat	-12.0017
▁pimp	-12.0018
▁concord	-12.0018
▁socialist	-12.0021
▁peruvian	-12.0021
▁resilienc	-12.0021
▁complic	-12.0022
▁samantha	-12.0022
▁parrot	-12.0022
▁pharmacy	-12.0022
blaze	-12.0022
▁britney	-12.0023
▁lizzie	-12.0023
▁streak	-12.0023
▁longlive	-12.0023
▁photogr	-12.0023
▁resolution	-12.0023
▁spoonie	-12.0023
▁highland	-12.0024
▁withdrawal	-12.0024
▁milestone	-12.0025
▁grabb	-12.0025
▁chlo	-12.0026
▁pepsi	-12.0027
▁overload	-12.0027
▁columb	-12.0027
▁acro	-12.0028
yourenot	-12.0028
▁unlock	-12.0029
▁peaky	-12.0029
▁servant	-12.003
▁behold	-12.0031
▁moose	-12.0031
speaks	-12.0032
▁cantsleep	-12.0032
shions	-12.0032
oborat	-12.0032
▁finalist	-12.0032
▁savage	-12.0032
▁maj	-12.0032
▁tie	-12.0032
▁mayhem	-12.0033
▁angelic	-12.0033
▁communist	-12.0034
tinct	-12.0034
atlantic	-12.0034
sen	-12.0034
▁stump	-12.0034
fromthe	-12.0034
▁kiki	-12.0037
▁thinkingof	-12.0037
▁slo	-12.0037
forgett	-12.0039
▁limp	-12.0042
jackass	-12.0043
▁frown	-12.0043
▁surab	-12.0045
▁della	-12.0046
▁jared	-12.0048
▁sanct	-12.005
eau	-12.0053
▁wombat	-12.0054
▁prosecut	-12.0054
▁roommate	-12.0055
▁dragonf	-12.0055
▁chelte	-12.0058
▁freckle	-12.0059
▁legitimate	-12.0062
▁bah	-12.0062
▁petit	-12.0063
▁profess	-12.0063
▁carson	-12.0065
ben	-12.0066
▁collective	-12.0066
▁newcar	-12.0067
▁notlong	-12.0067
▁commence	-12.0068
▁advise	-12.007
▁thala	-12.0071
▁lilin	-12.0071
gat	-12.0073
▁viper	-12.0073
▁tipp	-12.0073
ully	-12.0074
udic	-12.0075
▁bli	-12.0075
▁accompan	-12.0076
▁brook	-12.0076
▁discussion	-12.0078
▁semen	-12.0078
▁freebie	-12.0079
▁titani	-12.008
tham	-12.008
shoes	-12.0081
▁intr	-12.0082
▁finance	-12.0085
▁combin	-12.0086
friedric	-12.0086
▁spike	-12.009
▁frigg	-12.0092
swamp	-12.0092
▁communicat	-12.0093
▁thou	-12.0093
▁rela	-12.0095
descendant	-12.0099
▁playoff	-12.0099
chroma	-12.0103
▁nff	-12.0105
▁beyonc	-12.0105
nancy	-12.0105
▁chillout	-12.0107
▁promis	-12.0108
▁jax	-12.011
▁flyin	-12.0113
▁loveof	-12.0113
every	-12.0114
▁ricky	-12.0114
ojb	-12.0115
▁patent	-12.0115
▁qc	-12.0117
▁gonnabe	-12.0118
▁gaf	-12.0119
▁spoken	-12.0121
years	-12.0121
▁doug	-12.0122
likeyou	-12.0125
mile	-12.0129
▁slant	-12.0131
imples	-12.0132
harrod	-12.0132
▁clu	-12.0133
▁dazzlin	-12.0134
▁hoco	-12.0134
▁arrested	-12.0135
▁fitting	-12.014
▁agent	-12.0141
▁benefit	-12.0141
renee	-12.0143
▁goldman	-12.0143
▁villa	-12.0143
▁enteainer	-12.0144
▁reboot	-12.0145
▁yul	-12.0145
▁raz	-12.0146
swiss	-12.0148
thebox	-12.0148
▁animat	-12.0149
▁lama	-12.0151
▁smallbiz	-12.0151
▁morgan	-12.0152
▁samu	-12.0152
▁rockthe	-12.0153
salon	-12.0155
▁handout	-12.0156
▁redemption	-12.0158
▁zombie	-12.0161
▁boardgame	-12.0163
chronicles	-12.0163
▁fragil	-12.0164
▁conn	-12.0164
▁nuure	-12.0166
▁bagel	-12.0168
▁advisor	-12.0171
▁banner	-12.0173
▁dire	-12.0173
▁valen	-12.0175
▁insecurit	-12.0176
▁bs	-12.0181
▁vas	-12.0182
▁lambs	-12.0183
▁swinging	-12.0183
▁jiyo	-12.0183
▁wrestler	-12.0184
rivia	-12.0185
▁greeneye	-12.0185
oya	-12.0188
iden	-12.0189
▁corps	-12.0193
▁kol	-12.0194
amic	-12.0197
yeah	-12.0198
beard	-12.0203
▁trap	-12.0203
▁ooh	-12.0204
▁bdays	-12.0206
tiri	-12.0206
▁bux	-12.0206
cular	-12.0211
▁rhod	-12.0211
▁braces	-12.0218
▁girou	-12.0219
aac	-12.022
▁recite	-12.022
mal	-12.0221
▁bleach	-12.0223
▁nack	-12.0223
▁gaz	-12.0225
▁yetta	-12.0225
aaaaa	-12.0226
edu	-12.0226
eaux	-12.0227
▁brush	-12.0228
▁nigerian	-12.0232
▁plush	-12.0235
▁muh	-12.0236
▁carol	-12.0237
▁chuck	-12.0237
▁wah	-12.0237
▁mtf	-12.0238
▁integra	-12.024
▁violet	-12.024
kh	-12.0242
singer	-12.0243
▁ako	-12.0245
▁quest	-12.0248
▁ventil	-12.0249
▁utc	-12.0252
▁craftbee	-12.0254
▁dodge	-12.0255
▁nooo	-12.0257
legs	-12.0257
eachother	-12.0261
jays	-12.0261
▁bil	-12.0262
▁lovesong	-12.0264
▁alexandri	-12.0264
ux	-12.0264
▁mormonis	-12.0266
master	-12.0267
▁gir	-12.0268
▁roc	-12.0269
▁despi	-12.0272
▁dwell	-12.0272
▁ngit	-12.0272
equi	-12.0273
▁coat	-12.0276
▁agents	-12.0278
ubby	-12.0278
▁zoe	-12.0278
nerd	-12.028
ejong	-12.0286
▁agreement	-12.0287
▁postcard	-12.0287
▁htc	-12.0288
▁lifeof	-12.0289
▁handwritt	-12.029
▁tranquil	-12.0291
kah	-12.0291
▁lolita	-12.0293
▁punk	-12.0293
maria	-12.0296
happylife	-12.0296
▁joseph	-12.03
nger	-12.03
pita	-12.0302
otox	-12.0303
nbury	-12.0303
▁abstracta	-12.0303
▁bats	-12.0304
▁hyp	-12.0305
▁spoon	-12.0306
▁cooler	-12.0308
▁albe	-12.0309
▁wanker	-12.031
▁powerof	-12.0311
sunset	-12.0312
▁equate	-12.0317
▁roam	-12.0317
aid	-12.0323
▁render	-12.0326
▁instadog	-12.0326
med	-12.0328
isreal	-12.0328
noone	-12.0329
▁harle	-12.0331
rren	-12.0331
rief	-12.0332
▁healess	-12.0333
▁singin	-12.0333
▁richards	-12.0335
▁tramp	-12.0337
▁jose	-12.0338
▁meetup	-12.0339
▁aiding	-12.0342
dhead	-12.0344
buy	-12.0347
cheat	-12.0348
aks	-12.0353
▁diys	-12.0354
▁harb	-12.0356
▁lego	-12.0357
▁fff	-12.0362
plan	-12.0363
xact	-12.0363
▁springst	-12.0363
▁nhat	-12.0364
▁securi	-12.0365
▁melo	-12.0367
fighter	-12.0368
esthetic	-12.0369
▁fisher	-12.037
▁classifie	-12.0371
▁impressi	-12.0372
▁toward	-12.0375
▁preacher	-12.0379
▁abg	-12.038
▁onair	-12.0381
▁jones	-12.0387
pose	-12.0388
eddie	-12.0389
erries	-12.0394
enburg	-12.0395
▁tolerate	-12.0396
▁gordo	-12.0397
▁funnies	-12.0398
springs	-12.0402
boom	-12.0405
atenight	-12.0407
▁inept	-12.0409
▁degrad	-12.041
mafias	-12.0413
▁hound	-12.0417
▁crafty	-12.0417
ua	-12.0419
bhar	-12.0419
▁firstdayofs	-12.0421
▁thread	-12.0421
info	-12.0421
tle	-12.0422
▁cba	-12.0423
were	-12.0425
▁stitch	-12.0429
▁feb	-12.043
▁ppop	-12.043
▁vicious	-12.043
blast	-12.0431
ibilit	-12.0437
dden	-12.044
▁carla	-12.0442
▁yun	-12.0442
▁sf	-12.0444
▁rouse	-12.0444
▁elf	-12.0444
▁scal	-12.0445
▁blondi	-12.0445
eats	-12.0447
regatt	-12.0448
▁inch	-12.0449
gang	-12.0454
▁senat	-12.0457
▁boobie	-12.0458
▁anytime	-12.0459
▁wig	-12.0459
▁penne	-12.0461
▁kra	-12.0461
▁recit	-12.0462
ojo	-12.0463
▁ohh	-12.0465
eng	-12.0466
eed	-12.0469
▁ups	-12.0474
▁ang	-12.0476
arrett	-12.0478
▁photoshop	-12.0479
▁salam	-12.048
▁bush	-12.0484
ierce	-12.0485
▁calor	-12.0489
likes	-12.0492
▁nud	-12.0494
▁retreat	-12.0496
▁cannes	-12.0497
▁vitamin	-12.0499
▁vocab	-12.0503
moji	-12.0505
▁minimal	-12.0509
prophe	-12.051
▁phobia	-12.051
iiiiiii	-12.0512
▁gramm	-12.0513
▁coll	-12.0514
▁miu	-12.0515
▁siri	-12.0517
▁thisis	-12.0517
▁pacha	-12.0519
▁insha	-12.052
jr	-12.0523
▁caer	-12.0523
ubbi	-12.0527
grip	-12.0528
▁bris	-12.0532
▁islamo	-12.0533
▁notso	-12.0534
▁mig	-12.0536
desi	-12.0538
▁char	-12.0539
▁somuch	-12.0539
thic	-12.0543
▁hampton	-12.0544
tail	-12.0548
domingo	-12.0548
ails	-12.0549
▁diamonds	-12.0549
had	-12.055
▁jumper	-12.0554
▁werk	-12.0555
lots	-12.0556
▁rainny	-12.0561
▁goodfeeling	-12.0561
▁maini	-12.0565
▁manipu	-12.0569
▁neon	-12.0572
rap	-12.0573
▁hina	-12.0573
▁tae	-12.0575
▁smi	-12.0575
▁robot	-12.0577
▁barbe	-12.0579
▁necessar	-12.0579
▁chew	-12.058
yacht	-12.0582
sturge	-12.0582
hing	-12.0586
▁captiv	-12.0587
skar	-12.059
▁daw	-12.0591
colorad	-12.0594
▁maryl	-12.0595
musi	-12.0599
▁defender	-12.0599
▁missu	-12.0602
eryl	-12.0603
arif	-12.0604
data	-12.0605
acts	-12.0609
▁radi	-12.0614
tasty	-12.0617
▁presen	-12.0617
▁agr	-12.062
▁posh	-12.0621
▁cud	-12.0622
▁neg	-12.0623
hero	-12.0625
▁jess	-12.0626
tub	-12.0627
▁blackberr	-12.0628
▁inn	-12.0629
miles	-12.0632
▁beef	-12.0633
▁assure	-12.0633
suk	-12.0634
aba	-12.0635
▁yama	-12.0636
duper	-12.0638
flame	-12.0639
▁towel	-12.064
▁prim	-12.0642
▁slapp	-12.0644
▁mau	-12.0645
abash	-12.0655
▁gover	-12.0656
▁childrens	-12.0658
olon	-12.0662
perfection	-12.0666
▁purr	-12.0671
▁stocking	-12.0677
▁dull	-12.068
monkey	-12.0681
▁pros	-12.0683
ifu	-12.069
baya	-12.0692
ris	-12.0692
yday	-12.0693
▁histori	-12.0694
jes	-12.0699
graceful	-12.0704
▁activit	-12.0706
las	-12.0711
▁gms	-12.0722
▁rcn	-12.0724
▁jeffer	-12.0724
xc	-12.0726
▁kings	-12.073
▁wax	-12.0731
▁backsea	-12.0732
fig	-12.0736
carnation	-12.0737
▁demean	-12.074
lie	-12.0741
▁focuson	-12.0744
▁gon	-12.0749
▁caffi	-12.0753
▁bold	-12.0755
▁marxis	-12.0755
▁annas	-12.0756
▁russians	-12.0757
she	-12.0759
egas	-12.0759
ckles	-12.076
rewind	-12.0765
▁islamicterror	-12.0768
rating	-12.0769
▁beaver	-12.0775
▁porno	-12.0775
anya	-12.0776
cramp	-12.0783
▁curve	-12.0786
▁badtime	-12.079
uzzi	-12.0795
weak	-12.08
ndvs	-12.0812
▁theresa	-12.0813
▁hash	-12.0813
ountain	-12.0816
atanga	-12.0817
ales	-12.0817
lling	-12.0824
▁bran	-12.0825
hem	-12.0829
inder	-12.0834
▁onion	-12.084
howe	-12.084
inds	-12.084
▁crie	-12.0844
dhabi	-12.0844
▁myth	-12.0845
▁map	-12.0851
▁lenn	-12.0857
▁chefs	-12.086
▁kobe	-12.086
▁oppose	-12.0864
▁foul	-12.0866
ean	-12.0866
ngwal	-12.0873
▁maia	-12.0877
▁fronti	-12.0884
▁yuh	-12.0885
▁boi	-12.0885
mination	-12.0886
▁moroc	-12.0893
tla	-12.0894
spoke	-12.0897
oka	-12.0898
dads	-12.0901
▁aff	-12.0903
▁striv	-12.0906
▁hidd	-12.0911
▁tfl	-12.0911
▁drm	-12.0912
acked	-12.0913
berca	-12.0914
▁troy	-12.0924
▁cosmetics	-12.0926
gary	-12.0928
▁awe	-12.0931
▁gui	-12.0934
▁gri	-12.0934
▁politiciz	-12.0935
els	-12.0936
ief	-12.094
hs	-12.0946
ooooh	-12.0947
ering	-12.0953
bble	-12.0954
▁gian	-12.0954
lele	-12.0954
▁opi	-12.0957
akid	-12.0957
mf	-12.0959
tears	-12.096
ibble	-12.096
▁jah	-12.0961
▁scr	-12.0965
▁ape	-12.0968
dhair	-12.097
raves	-12.0971
ooooooooooo	-12.0975
ament	-12.0977
seven	-12.0995
▁marry	-12.1001
schade	-12.1002
omp	-12.1003
queu	-12.1007
realtor	-12.1007
▁strat	-12.1008
▁suite	-12.1009
▁boil	-12.1013
foot	-12.1018
▁likesfor	-12.1023
anda	-12.1025
▁soooooo	-12.1036
▁luci	-12.1037
▁suppress	-12.1041
▁grain	-12.1041
▁payment	-12.1044
▁famili	-12.105
▁seeyou	-12.1052
ash	-12.1054
zpat	-12.1055
▁judg	-12.1057
▁sama	-12.106
▁longtime	-12.1063
onda	-12.1065
ieves	-12.1066
asty	-12.1068
▁conquer	-12.1077
summ	-12.1077
hn	-12.1079
tes	-12.108
▁objecti	-12.1081
igers	-12.1082
player	-12.1082
simila	-12.1085
▁highst	-12.1086
sboro	-12.1089
▁dah	-12.1094
▁liberat	-12.1099
gger	-12.11
▁aired	-12.1105
pens	-12.1107
▁garri	-12.1107
▁sch	-12.1109
inc	-12.1112
▁ballin	-12.1113
minds	-12.1119
hands	-12.1122
ogy	-12.1123
▁som	-12.1131
▁asses	-12.1133
▁minim	-12.1135
mmmmm	-12.1137
pho	-12.1138
ugh	-12.1147
▁boca	-12.1149
abali	-12.1154
ofsurprises	-12.1157
▁sobs	-12.1158
▁squ	-12.1159
▁librar	-12.116
▁mcla	-12.1165
▁smear	-12.1172
▁ambr	-12.1172
loth	-12.1178
ages	-12.1179
stock	-12.118
▁shutt	-12.1181
▁hugo	-12.1187
▁sheis	-12.1198
urgh	-12.1202
▁seman	-12.1202
▁backfire	-12.1206
▁radicalis	-12.1211
thy	-12.1216
▁weed	-12.1219
llo	-12.1224
▁jag	-12.1227
▁pict	-12.1232
▁rena	-12.1233
▁bale	-12.1233
khan	-12.1234
notokay	-12.1239
▁ser	-12.1241
emeal	-12.1243
▁jona	-12.1244
shackle	-12.1244
onme	-12.1246
▁blackgirl	-12.1246
yama	-12.1248
credit	-12.1254
▁whereare	-12.1257
ube	-12.1257
▁argh	-12.1262
▁godis	-12.1263
▁aym	-12.1263
▁gara	-12.1267
▁mj	-12.127
ovo	-12.1281
▁iknow	-12.1282
▁hairstyl	-12.1282
xo	-12.1292
alism	-12.1292
▁youknow	-12.1293
▁highe	-12.1294
ums	-12.1294
▁hover	-12.1294
▁batter	-12.1295
cry	-12.1295
▁westerner	-12.1296
tuk	-12.1297
▁sizzl	-12.1299
wars	-12.1303
nai	-12.1308
▁pugs	-12.1312
▁nola	-12.1314
▁destroye	-12.1317
▁dhan	-12.1318
olia	-12.1322
▁woe	-12.1324
spotted	-12.1326
▁rod	-12.1328
swag	-12.1329
▁ibook	-12.1331
▁cunt	-12.1334
emented	-12.1335
▁rapp	-12.1335
kers	-12.134
▁steel	-12.1341
▁cair	-12.1346
nous	-12.1351
matt	-12.1365
kyline	-12.1368
tweeting	-12.137
▁athen	-12.137
same	-12.1373
▁diner	-12.1374
ombre	-12.1374
▁jen	-12.1381
▁cp	-12.1384
chant	-12.1387
estate	-12.1389
▁jord	-12.1391
rops	-12.1392
eye	-12.1392
▁vp	-12.1397
par	-12.1397
unni	-12.14
▁trainer	-12.1405
suf	-12.142
▁gala	-12.143
▁amwriti	-12.1432
pottery	-12.1435
ofca	-12.1437
▁researcher	-12.1439
▁deb	-12.1443
▁terrace	-12.1447
iss	-12.1448
▁mamas	-12.1448
▁fatherday	-12.1449
ses	-12.145
qui	-12.1453
ielo	-12.1454
piter	-12.1458
maze	-12.1459
revs	-12.1459
ahawk	-12.1463
eight	-12.1468
reme	-12.1469
▁lac	-12.1469
thegame	-12.1482
won	-12.1482
▁vai	-12.1484
▁needah	-12.1489
tohave	-12.1492
▁yaaaaay	-12.1492
▁repos	-12.1498
▁arc	-12.1498
▁cnt	-12.1501
▁modes	-12.1506
▁cutekid	-12.1506
otto	-12.1507
stas	-12.1507
▁finalise	-12.1509
▁rou	-12.1516
▁flee	-12.1518
▁modul	-12.1524
▁insp	-12.1525
atic	-12.1526
wer	-12.153
▁assum	-12.1538
▁timefor	-12.1541
▁roos	-12.1545
maine	-12.155
▁mba	-12.1551
▁nois	-12.1558
grow	-12.156
ode	-12.1576
▁cub	-12.1576
▁newadventure	-12.1577
hic	-12.1577
yth	-12.1581
pra	-12.159
esusa	-12.1592
ips	-12.1593
▁disgrac	-12.1595
zz	-12.1601
▁hoy	-12.1604
giveup	-12.161
shawar	-12.1612
▁coloring	-12.1613
akes	-12.1618
▁cheste	-12.1618
wn	-12.162
▁obs	-12.1621
▁barre	-12.1629
▁wyn	-12.163
▁hc	-12.1632
shape	-12.1634
▁severe	-12.1639
▁function	-12.1641
▁atten	-12.1642
▁tara	-12.1649
▁alw	-12.165
▁enhance	-12.1653
taken	-12.1654
pup	-12.1658
other	-12.1659
▁storms	-12.1661
thread	-12.1664
lines	-12.1664
▁tackle	-12.1667
rip	-12.167
mod	-12.1671
▁watering	-12.1672
▁kp	-12.1675
inmy	-12.1677
ula	-12.1689
▁koi	-12.1692
dow	-12.1692
amra	-12.1694
ads	-12.1695
earing	-12.1698
▁repu	-12.1702
term	-12.1702
astnight	-12.1706
bes	-12.1708
▁germans	-12.1708
▁mara	-12.1708
▁keeper	-12.1711
alcon	-12.1716
▁maka	-12.1723
▁worklife	-12.1723
stones	-12.1724
cing	-12.1725
▁bomber	-12.1736
▁warr	-12.1738
▁furri	-12.1739
▁dud	-12.1739
fund	-12.174
sound	-12.1747
▁bos	-12.1748
stical	-12.1748
mill	-12.1748
cl	-12.1749
pod	-12.1751
▁rct	-12.1757
mid	-12.1758
oth	-12.1759
cstati	-12.1761
lize	-12.1766
▁whoo	-12.1766
associates	-12.1772
reso	-12.1774
morrow	-12.178
bp	-12.1782
▁liz	-12.1795
▁cultures	-12.1798
▁fift	-12.1799
tangled	-12.18
▁firstday	-12.1804
iza	-12.1805
▁newj	-12.1806
fpac	-12.1811
kills	-12.1813
holidays	-12.1827
▁cent	-12.1828
▁ihate	-12.1832
yang	-12.1843
▁lev	-12.1849
▁intend	-12.185
▁mov	-12.1856
▁norw	-12.1859
▁laz	-12.1865
alcol	-12.1868
bane	-12.187
▁deflect	-12.187
▁nico	-12.1878
chool	-12.189
ench	-12.189
▁spots	-12.1891
▁educat	-12.1892
▁yog	-12.1893
dset	-12.1899
▁scru	-12.1904
ards	-12.1906
▁bod	-12.191
▁controll	-12.1912
▁aaaaa	-12.1914
heeeee	-12.1915
ola	-12.1919
banga	-12.1923
emon	-12.1926
aaaaaaa	-12.1934
ntern	-12.1935
▁mold	-12.1938
▁pike	-12.194
▁mugs	-12.1942
rr	-12.1942
▁val	-12.1955
olo	-12.1964
ands	-12.1975
▁fucks	-12.1977
ound	-12.1979
aged	-12.198
hen	-12.1982
▁dialog	-12.1983
▁unleashe	-12.1983
bout	-12.1984
pment	-12.1985
lik	-12.1985
nix	-12.1985
crew	-12.1987
yaki	-12.1989
▁oiler	-12.2001
▁beardga	-12.2004
anton	-12.2008
▁cue	-12.2013
▁poke	-12.2014
▁faye	-12.2014
▁bach	-12.2018
▁crosse	-12.2023
aked	-12.2028
▁maza	-12.2029
igg	-12.2031
▁kil	-12.2034
▁oct	-12.2041
yawards	-12.205
ised	-12.206
stall	-12.2063
renewed	-12.2069
▁coron	-12.2073
▁amig	-12.2076
achu	-12.2079
▁um	-12.2082
hes	-12.2084
▁newbook	-12.2093
argo	-12.2093
▁mygirl	-12.2102
▁rai	-12.2106
prob	-12.2107
dcc	-12.2111
ational	-12.2129
booth	-12.2133
▁cray	-12.215
▁fizz	-12.215
▁slee	-12.2151
▁gener	-12.2152
ann	-12.2153
celie	-12.2154
peaks	-12.2155
fine	-12.2157
▁felon	-12.2161
▁kad	-12.2163
olive	-12.2165
ots	-12.2165
ymore	-12.2165
▁storyt	-12.2166
▁org	-12.2171
aj	-12.2173
stick	-12.2174
▁cec	-12.2174
tower	-12.2177
guay	-12.2182
▁homeop	-12.2188
nora	-12.2188
▁vm	-12.2196
lb	-12.2197
strump	-12.2199
▁pour	-12.2201
len	-12.2202
▁rh	-12.2208
rry	-12.222
▁pad	-12.2224
▁kc	-12.2228
▁sneaker	-12.2235
▁woods	-12.2237
▁doyou	-12.2245
dp	-12.2249
iest	-12.2249
hal	-12.225
ova	-12.225
novation	-12.2252
beck	-12.2257
▁victor	-12.226
▁fare	-12.2261
▁compose	-12.2262
vid	-12.2267
cbook	-12.2267
cla	-12.2269
newyork	-12.2269
▁saga	-12.2269
fix	-12.227
▁sheff	-12.2279
atin	-12.2285
ftar	-12.2289
▁recycle	-12.229
▁judi	-12.2295
▁bein	-12.2296
ffective	-12.2305
▁kue	-12.2309
chie	-12.2309
▁scare	-12.231
eal	-12.2311
ameha	-12.2312
sisters	-12.2315
thin	-12.2317
ufc	-12.2318
cleans	-12.2321
▁wooooo	-12.2338
entera	-12.2339
▁xian	-12.234
allow	-12.2341
oooo	-12.2342
▁bugg	-12.2342
▁tact	-12.235
▁crashe	-12.2351
location	-12.2359
▁recycl	-12.2361
bama	-12.2362
▁ox	-12.2363
hir	-12.2364
nted	-12.2369
bsb	-12.2371
wines	-12.2373
▁apparel	-12.238
▁maker	-12.2394
ulk	-12.2396
▁weave	-12.2399
▁butto	-12.2403
▁dug	-12.2406
ika	-12.2406
bla	-12.2406
▁sharpe	-12.2409
▁emi	-12.2414
▁pag	-12.2418
ape	-12.2421
meet	-12.2424
▁notmypr	-12.2425
▁updat	-12.243
fr	-12.2433
morelli	-12.2444
▁brad	-12.2448
balls	-12.2458
▁beautifull	-12.2459
▁provo	-12.2463
▁cong	-12.2467
llite	-12.2467
thankful	-12.2468
aten	-12.247
ei	-12.2471
▁peon	-12.2476
▁iv	-12.2476
▁evan	-12.2477
▁announc	-12.2477
▁viv	-12.2481
hl	-12.2483
▁mocke	-12.2484
asu	-12.2488
▁paly	-12.2489
▁cashi	-12.2491
avern	-12.2491
ovato	-12.2504
▁hech	-12.2509
allen	-12.2512
▁memo	-12.2516
▁spi	-12.2519
som	-12.2524
▁moyn	-12.2525
▁readyto	-12.253
▁disgustin	-12.254
▁sef	-12.2545
▁jays	-12.2549
oza	-12.2559
▁brun	-12.2566
alian	-12.2567
base	-12.2567
tron	-12.2569
eur	-12.2569
deg	-12.2569
▁maa	-12.2571
▁afte	-12.2572
▁quot	-12.2574
blades	-12.2576
▁cig	-12.258
▁bn	-12.2582
▁lectur	-12.2585
utd	-12.2588
nb	-12.2588
kar	-12.2589
clo	-12.2589
▁rul	-12.259
▁allstar	-12.2591
glio	-12.2593
aggressi	-12.2594
▁choi	-12.2596
sung	-12.2602
▁salva	-12.2605
airi	-12.2608
cost	-12.2609
dle	-12.2618
▁indoors	-12.2618
may	-12.262
bilit	-12.262
sb	-12.2621
ened	-12.2628
▁cookin	-12.263
take	-12.263
▁cy	-12.263
edhead	-12.2633
ntas	-12.2633
▁stabb	-12.2633
witch	-12.2635
▁chilli	-12.2638
▁xc	-12.2645
▁isaa	-12.2647
▁soup	-12.2654
▁opens	-12.2655
▁swat	-12.2662
▁ece	-12.2663
▁myson	-12.2673
tton	-12.2675
plac	-12.2682
istress	-12.2683
rolling	-12.2684
based	-12.2684
alley	-12.2689
wis	-12.2694
▁pai	-12.2698
▁loc	-12.2705
▁traf	-12.2709
branding	-12.2713
▁clai	-12.2723
semite	-12.2738
rrero	-12.274
write	-12.2745
neducat	-12.2745
▁lands	-12.2748
▁depo	-12.275
▁cma	-12.2759
▁tac	-12.2775
▁tackl	-12.278
ured	-12.2784
umped	-12.2786
form	-12.2788
▁takeme	-12.2789
aming	-12.2802
race	-12.2804
▁indy	-12.2805
nik	-12.2805
angled	-12.2811
▁newsta	-12.2815
▁lau	-12.2816
▁johnle	-12.2816
esident	-12.2817
azzle	-12.2821
▁avi	-12.2821
uch	-12.2825
said	-12.2832
mis	-12.2834
ouse	-12.2838
harbo	-12.2842
▁appli	-12.285
been	-12.2859
▁pixi	-12.2866
bait	-12.2871
raj	-12.2883
horn	-12.2884
▁mf	-12.2886
uit	-12.2886
▁nationali	-12.2886
▁cons	-12.2893
nical	-12.2896
oom	-12.2899
▁sar	-12.29
onica	-12.2901
▁hog	-12.2902
holes	-12.2909
▁tonya	-12.2911
▁seducti	-12.292
arou	-12.2924
believes	-12.2926
odi	-12.2926
randnew	-12.293
▁foster	-12.293
▁executi	-12.2934
oppa	-12.2936
ante	-12.2938
▁canc	-12.2939
itment	-12.2944
ezre	-12.2946
▁lud	-12.2952
kra	-12.2955
▁ris	-12.2956
▁essen	-12.2964
▁statenislandn	-12.2975
oid	-12.2982
assie	-12.299
▁purchas	-12.2991
fever	-12.2994
tal	-12.2996
▁prejudic	-12.3005
waz	-12.3011
▁tend	-12.3011
ercy	-12.3013
yank	-12.3014
fullof	-12.3017
enna	-12.3019
▁anticipat	-12.3021
ats	-12.3021
▁iwish	-12.3023
eb	-12.3027
odu	-12.3029
ardin	-12.3036
bath	-12.3037
▁pause	-12.304
▁whale	-12.3061
▁kang	-12.3064
▁alb	-12.3067
▁prioriti	-12.3075
eric	-12.3082
mama	-12.3084
ynn	-12.309
arch	-12.3098
hers	-12.3098
▁wishi	-12.3099
grim	-12.3101
▁fig	-12.3105
ogo	-12.3111
alife	-12.3112
▁amor	-12.312
▁chin	-12.3141
▁physical	-12.3142
aiting	-12.3142
future	-12.3142
ght	-12.3145
▁ricka	-12.3148
▁instant	-12.3153
▁emot	-12.3154
lea	-12.3159
▁nam	-12.3163
elena	-12.3168
plane	-12.3177
dul	-12.3184
estro	-12.3192
ttle	-12.3194
▁seduc	-12.3194
finishe	-12.3197
▁yug	-12.3207
riya	-12.3214
mpton	-12.3223
das	-12.3224
edger	-12.3225
▁pea	-12.3225
▁batch	-12.3229
ilar	-12.3231
▁dru	-12.3231
▁muf	-12.3232
anymor	-12.3237
▁crab	-12.3237
inism	-12.3237
san	-12.3238
rop	-12.3239
van	-12.3242
fired	-12.3242
▁jf	-12.3249
▁manda	-12.325
▁wilde	-12.3261
▁canon	-12.3263
▁med	-12.3268
tiful	-12.3273
▁stu	-12.3276
▁squa	-12.3279
▁upc	-12.328
▁gok	-12.3281
aren	-12.3282
▁terra	-12.3283
▁bunt	-12.3287
ello	-12.3287
mall	-12.3288
▁equ	-12.329
▁wipe	-12.329
vent	-12.3291
▁yaaaaaaaa	-12.3295
▁clari	-12.3298
anz	-12.33
▁indu	-12.3302
▁est	-12.3305
▁fet	-12.3308
▁plac	-12.3309
lich	-12.3317
▁francis	-12.3319
adel	-12.332
loka	-12.3321
rect	-12.3328
▁tum	-12.3331
leaves	-12.3332
▁compo	-12.3333
▁geo	-12.3337
sams	-12.3338
▁harp	-12.3338
▁getit	-12.334
▁workin	-12.3341
web	-12.3343
▁foo	-12.3345
▁mcp	-12.3346
▁oli	-12.3348
angle	-12.3365
▁reli	-12.3367
pat	-12.3373
▁areyou	-12.3378
▁os	-12.3409
oll	-12.342
oggy	-12.3423
rath	-12.3424
▁explorer	-12.3432
atthe	-12.3435
rom	-12.3435
ox	-12.3437
▁cave	-12.3438
mybihday	-12.3441
▁mani	-12.3442
▁capa	-12.3447
▁guil	-12.3451
ick	-12.3453
motor	-12.3453
fb	-12.346
▁mmmmm	-12.3462
▁whin	-12.347
nani	-12.3472
phone	-12.3473
▁ranch	-12.3475
▁bog	-12.3485
yall	-12.3487
▁surviv	-12.3487
▁mint	-12.3502
anas	-12.3505
▁paddl	-12.3506
eigh	-12.3512
charm	-12.3514
nnon	-12.3521
▁hale	-12.3522
msq	-12.3523
lls	-12.353
▁simpl	-12.3533
▁diz	-12.3539
▁highf	-12.3544
▁psychi	-12.3544
quest	-12.3545
whe	-12.3548
xxx	-12.3549
▁chen	-12.355
asting	-12.356
▁bobb	-12.356
agram	-12.3565
▁exoti	-12.3587
▁stall	-12.3593
▁thr	-12.3594
anzi	-12.3596
nalize	-12.3598
ddy	-12.3601
gaz	-12.3605
▁bunda	-12.3607
nnnn	-12.361
affirmation	-12.3621
francis	-12.3621
rent	-12.3624
eased	-12.3627
doing	-12.3627
believe	-12.3633
kk	-12.3641
eria	-12.3644
▁grip	-12.3648
ogether	-12.3648
ctions	-12.365
▁aquar	-12.365
ahhhh	-12.366
puts	-12.3663
aland	-12.3664
▁hotti	-12.3667
yi	-12.3672
nanda	-12.3673
▁imitat	-12.3676
stell	-12.3689
aches	-12.3689
unday	-12.3693
todd	-12.3697
bling	-12.371
ofthed	-12.3719
▁spar	-12.372
cel	-12.3724
nte	-12.3729
▁worker	-12.373
▁koe	-12.3733
▁scent	-12.3734
ttering	-12.3744
wh	-12.3749
rling	-12.3753
gro	-12.3755
▁coache	-12.376
chuk	-12.3761
aqua	-12.3766
▁silk	-12.3767
pri	-12.3768
▁tsu	-12.3778
iyak	-12.3782
freude	-12.3784
clan	-12.3785
atarde	-12.3789
▁monic	-12.3792
▁credi	-12.3797
steele	-12.38
▁jumps	-12.3802
▁slug	-12.3802
▁hobb	-12.3802
▁aged	-12.3802
five	-12.3805
drid	-12.3813
▁ava	-12.3813
▁operat	-12.3814
▁justsayin	-12.3817
their	-12.3818
hei	-12.3818
heck	-12.3821
▁dealer	-12.3839
they	-12.3843
anke	-12.3852
nightclub	-12.3853
▁vers	-12.3854
ott	-12.3854
upwith	-12.3854
cred	-12.3858
because	-12.3859
iro	-12.3859
▁bonho	-12.386
▁trippin	-12.3861
atches	-12.3863
kiddo	-12.3863
▁dar	-12.3863
arin	-12.3866
ecca	-12.3866
shaped	-12.3871
▁enable	-12.3875
▁fahers	-12.3877
egee	-12.3882
▁res	-12.3895
rable	-12.3897
sma	-12.3899
yt	-12.3903
▁pays	-12.3903
judy	-12.3907
▁mcc	-12.391
sident	-12.3912
▁hw	-12.3914
sup	-12.3914
shine	-12.3915
pongi	-12.392
ggy	-12.3927
▁empti	-12.3934
▁elne	-12.3942
▁bigba	-12.3943
xes	-12.3945
▁fabric	-12.3948
▁teamca	-12.3951
alban	-12.3962
lipk	-12.397
▁parl	-12.3972
▁barka	-12.3974
▁jud	-12.3976
heroes	-12.3978
▁sits	-12.3983
▁sque	-12.3992
mary	-12.3999
chess	-12.4004
cus	-12.4006
ading	-12.4007
▁dl	-12.4009
tosee	-12.4013
▁hen	-12.4013
▁blond	-12.4016
▁fas	-12.4018
into	-12.4019
embo	-12.4023
andra	-12.4036
bud	-12.4042
llow	-12.4045
dd	-12.4048
perfect	-12.4048
▁situ	-12.4049
met	-12.4053
▁deli	-12.4053
▁pedi	-12.4054
tivated	-12.4055
cher	-12.4058
pur	-12.4061
▁redde	-12.4063
▁grap	-12.4065
eeeeeee	-12.4066
rving	-12.4072
vitamins	-12.4076
villa	-12.4079
nreal	-12.4086
eon	-12.4105
▁gil	-12.4107
▁listing	-12.4113
▁blo	-12.4114
▁constitu	-12.4119
▁adv	-12.4122
▁antisemit	-12.4129
▁robbin	-12.413
▁compa	-12.413
signed	-12.4134
▁slime	-12.4134
comes	-12.4135
forlike	-12.4138
kf	-12.414
▁tyra	-12.4146
hotdog	-12.4148
ecent	-12.4151
anga	-12.4152
bless	-12.4155
wantto	-12.4157
awesome	-12.4165
ofsummer	-12.4166
▁fields	-12.4168
sole	-12.4173
llie	-12.4174
▁cocka	-12.4175
▁mona	-12.4177
▁bds	-12.4183
load	-12.4183
wee	-12.4187
adventure	-12.4189
ntly	-12.4191
goodbye	-12.4195
▁poppin	-12.4197
▁pip	-12.4198
▁brid	-12.4199
tstag	-12.4204
▁mock	-12.4211
laugh	-12.4213
▁ux	-12.4218
▁propos	-12.4219
nguish	-12.4223
until	-12.4227
▁delet	-12.4227
discover	-12.4233
▁grenad	-12.4233
▁enro	-12.4239
▁bagge	-12.4241
inking	-12.4246
rims	-12.4258
spa	-12.4259
fana	-12.426
leave	-12.4261
vor	-12.427
cism	-12.4271
▁kes	-12.4276
lts	-12.4276
hri	-12.4278
likea	-12.428
▁whoa	-12.428
corner	-12.4286
▁disse	-12.4286
thank	-12.4288
heaven	-12.4291
eker	-12.4311
surprise	-12.4312
fabric	-12.4315
sville	-12.4316
▁stead	-12.4319
▁rein	-12.4321
▁oj	-12.4324
could	-12.4325
spank	-12.4325
suite	-12.4325
▁flu	-12.4329
awake	-12.433
rove	-12.4331
pretty	-12.4332
alisa	-12.4332
▁suspende	-12.4333
chats	-12.4336
acco	-12.434
▁fruits	-12.434
crack	-12.4341
without	-12.4343
▁nudis	-12.4348
▁harr	-12.4348
▁surg	-12.4351
relax	-12.4352
rav	-12.4354
amo	-12.4355
athon	-12.4355
▁mou	-12.436
▁abstract	-12.436
client	-12.436
▁comple	-12.4361
▁dictate	-12.4364
rada	-12.4365
arak	-12.4378
▁watc	-12.4381
itz	-12.4381
▁journal	-12.4385
▁alas	-12.4388
▁kk	-12.4392
conference	-12.4392
▁ala	-12.4393
▁onther	-12.4393
brown	-12.4395
▁episod	-12.4395
▁lumi	-12.4399
ero	-12.4402
visit	-12.4405
hells	-12.4405
wrong	-12.4406
ambro	-12.4407
brother	-12.4409
victim	-12.4409
omeran	-12.4414
tshi	-12.4415
freak	-12.4415
enne	-12.4415
keeper	-12.4418
woods	-12.442
▁mormon	-12.4421
osing	-12.4423
uh	-12.4425
ega	-12.4427
▁ng	-12.4432
▁micros	-12.4433
page	-12.4444
▁pens	-12.4444
aut	-12.4446
▁thewi	-12.4447
▁corr	-12.4447
consult	-12.4448
makeup	-12.4449
zzle	-12.4451
miami	-12.4452
source	-12.4455
▁goo	-12.4456
sensiti	-12.4456
hyun	-12.4457
islam	-12.4459
kow	-12.4459
ched	-12.4461
tas	-12.4462
few	-12.4462
anxiety	-12.4463
▁imagin	-12.4463
radic	-12.4469
paris	-12.4472
▁lesmis	-12.4478
▁teh	-12.4479
complain	-12.4482
▁parag	-12.4482
rocco	-12.4483
death	-12.4485
russia	-12.4492
taxi	-12.4494
pu	-12.4495
reason	-12.4497
ames	-12.4504
build	-12.4504
draw	-12.4507
foundation	-12.4508
▁cinem	-12.4509
islove	-12.4509
andler	-12.4509
louis	-12.4513
simple	-12.4516
censor	-12.4522
barn	-12.4523
current	-12.4524
touch	-12.4525
spoiler	-12.4525
makes	-12.4526
john	-12.4529
review	-12.453
▁udt	-12.4532
george	-12.4532
count	-12.4535
lonely	-12.4535
unari	-12.4538
volt	-12.454
mbe	-12.4541
epic	-12.4541
withdad	-12.4543
winter	-12.4546
hunter	-12.4548
israel	-12.4548
tired	-12.4549
murder	-12.455
pilates	-12.4551
netflix	-12.4552
ebra	-12.4554
marley	-12.4557
ii	-12.4558
ucks	-12.4558
sparkle	-12.4558
ob	-12.4559
michael	-12.456
fleet	-12.456
frank	-12.4561
benefits	-12.4561
strength	-12.4563
steel	-12.4564
cavs	-12.4564
hemm	-12.4565
adult	-12.4565
presentation	-12.4565
anthem	-12.4566
unite	-12.4566
elliot	-12.4567
▁nostalgi	-12.4567
miguel	-12.4568
mobile	-12.4568
▁tin	-12.4568
creativ	-12.4568
click	-12.4569
cruelty	-12.457
british	-12.457
▁oo	-12.457
goodvibes	-12.457
▁fashionblog	-12.4571
delicious	-12.4571
brooklyn	-12.4571
general	-12.4571
pooh	-12.4571
advisor	-12.4571
swim	-12.4572
balance	-12.4572
kitty	-12.4573
three	-12.4573
brooks	-12.4574
straight	-12.4576
toronto	-12.4577
▁illumina	-12.4577
character	-12.4578
zombie	-12.4578
banner	-12.4578
lebron	-12.4579
puppy	-12.4579
redemption	-12.4581
spotter	-12.4581
settle	-12.4582
broke	-12.4582
hashtag	-12.4583
socialmedia	-12.4584
battle	-12.4584
lolita	-12.4585
jewel	-12.4586
kardashian	-12.4587
enteainment	-12.4587
fragil	-12.4587
romance	-12.4588
hundred	-12.4591
warcraft	-12.4591
meetup	-12.4592
hockey	-12.4593
zelda	-12.4593
apocalyp	-12.4593
▁reduc	-12.4594
marathon	-12.4594
drama	-12.4595
▁kne	-12.4595
bikini	-12.4595
bride	-12.4596
smallbiz	-12.4596
ladies	-12.4596
hedgehog	-12.4597
morgan	-12.4597
lawyer	-12.4598
vici	-12.4599
jiyo	-12.46
appreciation	-12.46
jones	-12.46
jocox	-12.46
district	-12.4601
quick	-12.4601
brokenhea	-12.4601
photoshop	-12.4601
jazz	-12.4602
doctor	-12.4602
incident	-12.4602
encounter	-12.4603
prison	-12.4603
library	-12.4603
village	-12.4603
hustle	-12.4604
rev	-12.4605
sauce	-12.4605
belief	-12.4606
becke	-12.4606
progress	-12.4607
marine	-12.4607
remaster	-12.4607
brighton	-12.4608
monsoon	-12.4609
creative	-12.4612
extraordinary	-12.4612
▁oooo	-12.4613
glass	-12.4613
eagle	-12.4615
bitter	-12.4615
refugees	-12.4616
degree	-12.4616
bailey	-12.4617
block	-12.4618
destroying	-12.4618
▁boos	-12.4619
qualifi	-12.4619
curvy	-12.4621
hunting	-12.4622
chuck	-12.4622
▁beggin	-12.4623
▁unde	-12.4623
modern	-12.4623
corrupt	-12.4623
trash	-12.4624
▁wt	-12.4625
effect	-12.4625
itt	-12.4626
ague	-12.4628
lent	-12.4631
exams	-12.4632
▁ele	-12.4632
dawn	-12.4633
▁reco	-12.4633
wsome	-12.4633
anytime	-12.4635
christ	-12.4635
▁saba	-12.4636
museum	-12.4636
royals	-12.4636
bhag	-12.4637
▁justinb	-12.4637
heavy	-12.4641
sugar	-12.4641
debut	-12.4643
samples	-12.4645
iani	-12.4646
▁kerr	-12.4646
sketch	-12.4647
journalist	-12.4648
fisher	-12.4649
▁yahoo	-12.465
emotion	-12.4655
fluffy	-12.4657
quay	-12.4658
optrump	-12.466
powerof	-12.4661
doubt	-12.4663
▁kier	-12.4663
ybel	-12.4664
outside	-12.4666
dark	-12.4669
surf	-12.467
standing	-12.4674
treatment	-12.4674
site	-12.4674
▁pirate	-12.4675
lemon	-12.4677
pick	-12.4678
pik	-12.4679
strange	-12.468
ninja	-12.4681
▁jea	-12.4682
academ	-12.4682
oved	-12.4683
mili	-12.4685
chris	-12.4687
dorset	-12.4688
▁hal	-12.4688
▁patron	-12.4688
bread	-12.4694
premiere	-12.4696
▁chic	-12.4696
louise	-12.4696
▁anniversa	-12.4696
satisf	-12.4697
aux	-12.4697
easy	-12.4697
▁necess	-12.4706
▁exercis	-12.4707
suffer	-12.4711
wit	-12.4713
▁validati	-12.4716
member	-12.4717
paner	-12.4717
crown	-12.4717
▁refu	-12.4717
italia	-12.4721
▁studie	-12.4721
hollywood	-12.4723
bright	-12.4726
awwww	-12.4726
▁nun	-12.4727
definite	-12.473
▁laps	-12.4731
slice	-12.4732
▁ripdad	-12.4733
▁kwa	-12.4737
meets	-12.4741
horses	-12.4744
feather	-12.4744
▁hustl	-12.4745
fruit	-12.4748
vow	-12.4749
afi	-12.475
concept	-12.4751
▁cowboys	-12.4752
▁fixture	-12.4752
▁preten	-12.4754
ib	-12.4755
▁chewi	-12.4756
aviv	-12.476
guard	-12.4762
▁descend	-12.4763
nappeti	-12.4763
iphone	-12.4764
ael	-12.4766
chic	-12.4767
candy	-12.4768
belong	-12.4771
aper	-12.4771
tomy	-12.4772
▁suga	-12.4778
impression	-12.478
mateen	-12.4781
clients	-12.4781
stronger	-12.4783
zzie	-12.4787
▁kyl	-12.4788
goingto	-12.4789
ebru	-12.4792
darling	-12.4795
oflife	-12.4797
magine	-12.4797
unty	-12.4799
jh	-12.4799
nate	-12.4801
frog	-12.4805
crying	-12.4805
jeffer	-12.4807
▁daha	-12.4807
▁ais	-12.4807
friendly	-12.4811
▁proudmom	-12.4811
▁tempt	-12.4814
▁shade	-12.4815
▁camb	-12.4818
▁olympic	-12.4818
sushi	-12.4819
roid	-12.482
walking	-12.4821
ahead	-12.4824
▁paki	-12.4824
mylove	-12.4826
discovery	-12.4826
ubis	-12.4827
▁belo	-12.4829
yamo	-12.4829
ltd	-12.4832
mazing	-12.4832
▁mcco	-12.4835
baba	-12.4837
jung	-12.4841
eee	-12.4841
bush	-12.4842
shapes	-12.4843
cooler	-12.4843
mani	-12.4844
dental	-12.4846
carla	-12.4847
ydon	-12.4848
actu	-12.4848
nstop	-12.4849
sons	-12.4851
▁strawb	-12.4853
owner	-12.4853
echni	-12.4854
▁damag	-12.4855
▁natur	-12.4858
mbria	-12.4859
fusion	-12.4859
ruit	-12.486
init	-12.486
▁futur	-12.4861
driver	-12.4861
shah	-12.4863
writers	-12.4864
xcited	-12.4866
return	-12.4867
lyfe	-12.4868
▁unbelievabl	-12.4869
ignof	-12.4871
spiring	-12.4873
twins	-12.4874
boots	-12.4875
mai	-12.4876
▁chocolat	-12.4876
rrrr	-12.4876
phill	-12.4879
▁inconsisten	-12.488
iled	-12.4882
winner	-12.4882
nocent	-12.4883
metal	-12.4886
▁pacifi	-12.4887
▁suckin	-12.4889
▁taxe	-12.489
▁instruct	-12.4891
algar	-12.4891
meditation	-12.4897
▁uplift	-12.4898
oster	-12.4899
▁affirmati	-12.49
woke	-12.4901
fh	-12.4901
▁musicisthe	-12.4902
▁kaya	-12.4906
traveler	-12.4906
▁crook	-12.4907
▁sympath	-12.4908
▁discipl	-12.491
triath	-12.491
▁statu	-12.4914
▁smug	-12.4915
pix	-12.4915
nit	-12.4917
blessing	-12.4917
earp	-12.4918
heel	-12.4918
comm	-12.4918
▁namin	-12.492
▁supremac	-12.4921
boutit	-12.4923
avour	-12.4924
▁antisem	-12.4924
xplore	-12.4926
▁julia	-12.4927
mummy	-12.4927
kata	-12.4928
ilove	-12.4929
▁choreo	-12.4929
▁alternat	-12.4931
▁grou	-12.4932
kuma	-12.4932
▁ske	-12.4932
thegood	-12.4932
gogo	-12.4933
ydeco	-12.4935
▁phantom	-12.4935
▁bieszczady	-12.4935
▁catedraldesal	-12.4935
▁calvinklein	-12.4935
▁deglupta	-12.4935
▁fuccckkkk	-12.4935
▁hinditayo	-12.4935
▁peanutbutter	-12.4935
▁vampire	-12.4935
▁washigton	-12.4935
frankenstein	-12.4935
girliguessimwith	-12.4935
kianandjc	-12.4935
minutepleasestay	-12.4935
▁accommodation	-12.4935
▁accurate	-12.4935
▁adolescent	-12.4935
▁allshotsturke	-12.4935
▁chiropract	-12.4935
▁cymru	-12.4935
▁decoloniz	-12.4935
▁dressrehearsal	-12.4935
▁dysfunction	-12.4935
▁eloquent	-12.4935
▁flaccid	-12.4935
▁geranium	-12.4935
▁globetrotter	-12.4935
▁hemisphere	-12.4935
▁hysterical	-12.4935
▁ilustraci	-12.4935
▁inferiority	-12.4935
▁intersectional	-12.4935
▁jehova	-12.4935
▁jpcandela	-12.4935
▁lapatripedia	-12.4935
▁mackinac	-12.4935
▁municipal	-12.4935
▁noexcuse	-12.4935
▁occupation	-12.4935
▁ovehinking	-12.4935
▁panagia	-12.4935
▁pussygrabber	-12.4935
▁reciprocate	-12.4935
▁scandinavia	-12.4935
▁siempre	-12.4935
▁sigiriya	-12.4935
▁sovereign	-12.4935
▁staffordshire	-12.4935
▁stsoloalbum	-12.4935
▁sycophant	-12.4935
▁taharrush	-12.4935
▁tahitiangay	-12.4935
▁vamoschile	-12.4935
▁beelitz	-12.4935
▁reproductive	-12.4935
▁wrinkle	-12.4935
anillasweetcream	-12.4935
▁confederate	-12.4935
▁cromerpier	-12.4935
▁datacosmolog	-12.4935
▁iludio	-12.4935
▁namibia	-12.4935
▁niagara	-12.4935
▁pseudo	-12.4935
▁sanibel	-12.4935
▁snorkel	-12.4935
bangladeshi	-12.4935
huhuhu	-12.4935
pretzel	-12.4935
szcz	-12.4935
▁aggravat	-12.4935
▁babalarg	-12.4935
▁dandelion	-12.4935
▁daphne	-12.4935
▁evaluat	-12.4935
▁glacier	-12.4935
▁gourmet	-12.4935
▁ninomiya	-12.4935
▁orchestra	-12.4935
▁orwellian	-12.4935
▁phipps	-12.4935
▁sprinkle	-12.4935
▁stressrelie	-12.4935
▁masjid	-12.4935
▁sainsbury	-12.4935
▁iwasborn	-12.4935
elmejora	-12.4935
▁cottoncandy	-12.4935
▁selamat	-12.4935
▁stigma	-12.4935
▁supanova	-12.4935
▁cicispizza	-12.4935
▁mimosa	-12.4935
▁tahiti	-12.4935
▁deficit	-12.4935
▁indoctrinati	-12.4935
▁ontothenext	-12.4935
▁elbow	-12.4935
▁felicit	-12.4935
▁headquaer	-12.4935
▁sangria	-12.4935
▁compensat	-12.4935
▁complementarian	-12.4935
▁dahlia	-12.4935
cynthia	-12.4935
▁leonard	-12.4935
▁shuckin	-12.4935
britmums	-12.4935
▁contradict	-12.4935
▁bankrupt	-12.4935
▁hcorrea	-12.4935
▁osborne	-12.4935
▁reception	-12.4935
▁catheter	-12.4935
▁huntsville	-12.4935
▁sophisticat	-12.4935
▁nsfw	-12.4935
▁dunstaple	-12.4935
▁neonazi	-12.4935
▁nfinity	-12.4935
▁cantbeata	-12.4935
▁despatch	-12.4935
▁origamii	-12.4935
▁sabotage	-12.4935
▁heavymetal	-12.4935
▁selenators	-12.4935
▁cheeseburger	-12.4935
▁perception	-12.4935
▁chemical	-12.4935
▁crimson	-12.4935
▁mitchell	-12.4935
▁msgapparels	-12.4935
▁jaipur	-12.4935
▁szyman	-12.4935
▁whiteslaver	-12.4935
▁meringue	-12.4935
▁hakeem	-12.4935
surigao	-12.4935
▁cachead	-12.4935
▁auckland	-12.4935
▁dalston	-12.4935
▁derrick	-12.4935
▁brennan	-12.4935
▁waterbom	-12.4935
▁whaaat	-12.4935
avisual	-12.4935
▁aspire	-12.4935
▁zomato	-12.4935
voila	-12.4935
▁cachos	-12.4935
▁aiculat	-12.4935
goodenoughfor	-12.4935
▁cherryberry	-12.4935
▁slingshot	-12.4935
▁sensational	-12.4935
realdeal	-12.4935
▁bribie	-12.4935
▁mmmm	-12.4935
lesbleu	-12.4935
▁chateau	-12.4935
▁statistic	-12.4935
▁mmiw	-12.4935
▁cordial	-12.4935
▁recreation	-12.4935
▁fnaf	-12.4935
smyrna	-12.4935
▁jeremy	-12.4935
▁vigil	-12.4935
▁perveed	-12.4935
▁chevy	-12.4935
▁stereo	-12.4935
▁hazel	-12.4935
▁dhaba	-12.4935
▁piliha	-12.4935
▁camila	-12.4935
▁piazz	-12.4935
▁rollerblad	-12.4935
▁allyshair	-12.4935
▁claudi	-12.4936
chelm	-12.4936
▁marilyn	-12.4936
▁herewego	-12.4936
▁screenprint	-12.4936
unplug	-12.4936
▁geometr	-12.4936
▁bahama	-12.4936
▁mughal	-12.4936
▁pattern	-12.4936
▁shuffle	-12.4936
▁utiliz	-12.4936
govinda	-12.4936
▁allentown	-12.4936
▁pinchme	-12.4936
▁hamza	-12.4936
▁phenom	-12.4936
▁lafn	-12.4936
▁reginald	-12.4936
▁armenia	-12.4936
▁hyena	-12.4936
▁viuous	-12.4936
▁mainstream	-12.4936
▁pioneer	-12.4936
▁gareth	-12.4936
▁compromise	-12.4936
▁entitle	-12.4936
▁porfin	-12.4936
▁gilbe	-12.4936
▁mitsuk	-12.4936
▁categor	-12.4936
bagrrys	-12.4936
▁attached	-12.4936
▁province	-12.4936
▁fleves	-12.4936
▁magiccastle	-12.4936
▁behaviorchange	-12.4936
confidentielles	-12.4936
▁rescuedog	-12.4936
▁henley	-12.4936
▁rhino	-12.4936
fohesummer	-12.4936
▁haveanice	-12.4936
▁arjun	-12.4936
▁scripture	-12.4936
▁kinjaz	-12.4937
▁airfare	-12.4937
▁dontwantto	-12.4937
▁pursuitof	-12.4937
▁huntington	-12.4937
occupie	-12.4937
cftf	-12.4937
▁waterloo	-12.4937
▁sniff	-12.4937
▁nikkibeach	-12.4937
▁outlander	-12.4937
▁lawmaker	-12.4937
amiila	-12.4937
▁cretin	-12.4937
▁eugeni	-12.4937
inbow	-12.4937
▁tassel	-12.4937
▁dipshit	-12.4937
▁disabilit	-12.4937
▁astronom	-12.4937
▁lovebeinga	-12.4937
▁illitera	-12.4937
▁phrase	-12.4937
▁flyfishing	-12.4937
▁bettehan	-12.4937
▁dildo	-12.4937
▁thereaping	-12.4937
▁reinstate	-12.4937
▁hahahha	-12.4938
▁matlab	-12.4938
▁barrack	-12.4938
▁rollerco	-12.4938
▁tarnish	-12.4938
▁vermont	-12.4938
▁unsurpris	-12.4938
▁totorothe	-12.4938
▁colourpop	-12.4938
▁nifty	-12.4938
▁magnum	-12.4938
▁woodrow	-12.4938
▁dairyfree	-12.4938
▁lonley	-12.4938
filmfest	-12.4938
▁keanu	-12.4938
▁scarlet	-12.4938
▁whaaaaaa	-12.4938
▁yinz	-12.4938
▁aureli	-12.4938
▁plastic	-12.4938
sunsun	-12.4938
▁purplehair	-12.4938
▁preference	-12.4938
efficien	-12.4938
▁provocat	-12.4938
▁thankyoulord	-12.4939
nohumberland	-12.4939
▁wildfire	-12.4939
wahahahaha	-12.4939
▁verify	-12.4939
▁getwet	-12.4939
▁hillbot	-12.4939
▁snapchatfilter	-12.4939
▁chapel	-12.4939
▁uefa	-12.4939
▁calvin	-12.4939
▁villagewellness	-12.4939
▁crossfit	-12.4939
▁plussize	-12.4939
▁ohhh	-12.4939
▁muppet	-12.4939
▁misinform	-12.4939
theendoftheworld	-12.494
guan	-12.494
nboys	-12.494
babies	-12.494
▁flipside	-12.494
▁cantkeep	-12.494
▁cloaking	-12.494
▁snug	-12.494
▁chippies	-12.494
▁exceptional	-12.494
▁rumble	-12.494
▁ameture	-12.494
▁mompreneur	-12.494
civilization	-12.494
▁irishtimes	-12.494
▁colston	-12.494
manuel	-12.494
▁dalai	-12.494
epalac	-12.494
tinaje	-12.494
▁pedestr	-12.4941
▁hillsbo	-12.4941
bythesea	-12.4941
▁shrink	-12.4941
▁deviant	-12.4941
▁spawn	-12.4941
effer	-12.4941
▁drastic	-12.4941
▁yxe	-12.4941
▁slitheri	-12.4941
▁reconcilia	-12.4941
▁regressive	-12.4941
▁mjb	-12.4941
▁contender	-12.4941
▁ohodontic	-12.4941
▁pension	-12.4941
algae	-12.4941
▁frighten	-12.4942
▁cresc	-12.4942
motorola	-12.4942
▁anarchis	-12.4942
▁lynch	-12.4942
▁gencybe	-12.4942
▁malicious	-12.4942
▁oppounist	-12.4942
▁instafoto	-12.4942
▁permit	-12.4942
▁celery	-12.4942
▁beverly	-12.4942
▁trumptax	-12.4942
▁migraine	-12.4942
▁daddydaughter	-12.4942
▁deceit	-12.4943
▁keeponkeepin	-12.4943
▁drool	-12.4943
▁persevere	-12.4943
▁julbo	-12.4943
▁knack	-12.4943
▁pugsof	-12.4943
▁pledge	-12.4943
▁goooooooo	-12.4943
▁misog	-12.4943
▁sympathise	-12.4943
bih	-12.4944
▁metrocounsell	-12.4944
▁wonderwoman	-12.4944
▁personalized	-12.4944
▁kidnap	-12.4944
▁chowc	-12.4944
▁fatkid	-12.4944
▁stopthewar	-12.4945
▁beabetter	-12.4945
▁aleks	-12.4945
▁chubby	-12.4945
▁intelli	-12.4945
▁cosford	-12.4946
muff	-12.4946
▁cedar	-12.4946
▁teemo	-12.4946
▁farrah	-12.4946
career	-12.4946
▁ybp	-12.4946
▁weakass	-12.4946
▁resume	-12.4946
▁cringe	-12.4946
leconte	-12.4946
▁gulf	-12.4946
▁cheekie	-12.4946
iknowwho	-12.4947
▁pleasestay	-12.4947
▁birch	-12.4947
closeto	-12.4947
dofwar	-12.4947
▁blackmail	-12.4947
▁dontmiss	-12.4947
▁timetoget	-12.4947
▁dodg	-12.4947
heextra	-12.4947
▁mendix	-12.4947
berian	-12.4948
▁saltands	-12.4948
▁lcm	-12.4948
▁abbot	-12.4948
▁skeptic	-12.4948
▁restinlove	-12.4948
estimate	-12.4948
▁fragrant	-12.4948
▁dontforget	-12.4948
▁recei	-12.4948
ien	-12.4949
▁wheresmys	-12.4949
▁immoali	-12.4949
▁panther	-12.4949
mutant	-12.4949
▁bigballs	-12.4949
▁binq	-12.4949
▁socio	-12.4949
▁snowdon	-12.495
rockthis	-12.495
▁airplane	-12.495
▁saskat	-12.495
▁jamie	-12.4951
▁representative	-12.4951
sinki	-12.4951
▁superspo	-12.4951
aq	-12.4951
▁airside	-12.4951
▁orgasm	-12.4952
▁goodtimeswithgo	-12.4952
▁newbeginning	-12.4952
▁accra	-12.4952
▁crony	-12.4952
▁nicla	-12.4952
▁contribution	-12.4952
▁ecig	-12.4952
▁retaliat	-12.4952
▁regina	-12.4953
ffff	-12.4953
▁yawn	-12.4953
▁raptor	-12.4953
▁alpha	-12.4954
▁sleazy	-12.4954
▁cinder	-12.4954
▁unavailab	-12.4954
▁cawheel	-12.4954
▁degenera	-12.4954
sford	-12.4954
omelet	-12.4954
▁buggle	-12.4954
▁hurra	-12.4955
▁teacup	-12.4955
▁risay	-12.4955
▁chamber	-12.4956
▁ancestry	-12.4956
▁shaft	-12.4956
▁boiler	-12.4956
▁metalhead	-12.4956
▁dinne	-12.4957
undra	-12.4957
▁femme	-12.4957
sho	-12.4957
▁blueberry	-12.4957
roix	-12.4958
perfi	-12.4958
▁slob	-12.4958
▁scubadiv	-12.4958
▁recrute	-12.4959
kettering	-12.4959
▁faux	-12.4959
▁universit	-12.4959
yourfather	-12.4959
amaal	-12.4959
▁aussie	-12.496
▁emerging	-12.496
uddin	-12.496
▁cantwatch	-12.496
humili	-12.496
▁anyonebut	-12.496
▁somethin	-12.496
▁ncis	-12.496
▁yeahhhh	-12.4961
eofli	-12.4961
▁imesh	-12.4961
▁exceed	-12.4961
motheranddaughte	-12.4961
▁iloveher	-12.4961
▁tengo	-12.4962
▁jeffrees	-12.4962
▁brenda	-12.4962
▁endofthe	-12.4962
▁rhodes	-12.4963
▁algon	-12.4963
▁tourist	-12.4963
yourshit	-12.4963
humantrafficking	-12.4963
▁illuminate	-12.4964
fdb	-12.4964
▁twoweeks	-12.4964
▁woodland	-12.4964
luc	-12.4964
▁venom	-12.4964
htut	-12.4964
▁murray	-12.4965
andhealth	-12.4965
▁commentator	-12.4965
▁shyster	-12.4965
whenim	-12.4965
▁cliche	-12.4966
▁theresalways	-12.4966
▁unhealthy	-12.4966
▁mcdo	-12.4966
▁sexis	-12.4967
▁djane	-12.4967
xis	-12.4967
▁nambi	-12.4968
▁bestbuy	-12.4968
▁initiative	-12.4968
▁kenne	-12.4968
thinskin	-12.4968
▁standby	-12.4968
▁cheeto	-12.4969
▁jager	-12.4969
▁trini	-12.4969
▁fleur	-12.4969
▁prolife	-12.4969
▁sampl	-12.4969
▁starship	-12.4969
▁profes	-12.4969
▁butthu	-12.497
▁veganfood	-12.497
▁glowgirl	-12.4971
▁kas	-12.4971
emcee	-12.4971
▁mustang	-12.4971
phonics	-12.4971
▁fiore	-12.4972
▁woohooo	-12.4972
▁freshmen	-12.4972
▁tucker	-12.4972
gusta	-12.4973
▁feria	-12.4973
▁barbarian	-12.4973
▁peony	-12.4973
▁malton	-12.4974
▁complement	-12.4974
▁oppressor	-12.4974
wecanbe	-12.4975
▁konk	-12.4975
▁momix	-12.4975
▁disrupt	-12.4975
▁spiral	-12.4975
rivera	-12.4975
atz	-12.4976
cantbelievei	-12.4976
▁meditat	-12.4976
ialomba	-12.4979
▁invitation	-12.4979
ulum	-12.4979
pino	-12.498
▁rebuke	-12.498
▁tedx	-12.498
▁yaaaaasss	-12.4981
▁lnic	-12.4981
▁caution	-12.4982
▁letsdoit	-12.4982
jona	-12.4982
▁japa	-12.4983
▁jenny	-12.4983
imba	-12.4984
▁gregg	-12.4985
oulos	-12.4985
▁judgment	-12.4985
krug	-12.4986
jar	-12.4986
iseeyou	-12.4986
▁murdo	-12.4986
▁feathered	-12.4986
▁pyro	-12.4988
adzie	-12.4988
▁drift	-12.4988
pter	-12.4988
hout	-12.4988
▁yee	-12.4989
▁lastyear	-12.4989
bumps	-12.4989
▁academic	-12.499
▁wellwoman	-12.499
▁aviva	-12.499
▁imagina	-12.4991
▁lakeland	-12.4992
▁feedme	-12.4992
clutter	-12.4992
▁posture	-12.4992
▁toobig	-12.4992
▁noworrie	-12.4993
allergic	-12.4993
▁harley	-12.4993
hoja	-12.4993
endship	-12.4994
▁claws	-12.4994
▁perma	-12.4995
▁lapdog	-12.4995
▁borrow	-12.4995
▁oriental	-12.4995
consistency	-12.4995
▁slurp	-12.4996
▁provape	-12.4996
paradi	-12.4996
ocate	-12.4997
painting	-12.4997
▁payplann	-12.4997
andem	-12.4998
▁canadacat	-12.4998
▁radicalislamic	-12.4998
▁stfu	-12.4999
▁airbnb	-12.4999
metro	-12.4999
▁friki	-12.5
▁hindi	-12.5
uprid	-12.5
▁kcal	-12.5
harma	-12.5
dista	-12.5
▁fete	-12.5
swimm	-12.5
loneliest	-12.5001
fohis	-12.5001
▁nolimit	-12.5001
▁explode	-12.5002
▁althea	-12.5003
▁aj	-12.5003
▁retain	-12.5003
▁fits	-12.5003
▁ciao	-12.5004
▁hawaiian	-12.5004
▁lantern	-12.5005
ofbeing	-12.5005
▁violin	-12.5005
▁escapad	-12.5005
▁xotic	-12.5006
gratulation	-12.5006
scooter	-12.5006
▁obv	-12.5007
blitz	-12.5008
lauder	-12.5008
▁barbari	-12.5008
enberg	-12.5008
▁culp	-12.501
▁mik	-12.501
nge	-12.501
ytrain	-12.5011
▁invisible	-12.5013
ashell	-12.5013
bernard	-12.5013
andlet	-12.5013
▁educ	-12.5013
▁memoir	-12.5013
erotic	-12.5014
▁popup	-12.5014
bite	-12.5014
▁wasteof	-12.5016
sumption	-12.5017
▁talkshow	-12.5018
▁mbp	-12.5018
▁yippe	-12.5019
▁basta	-12.5019
▁alwy	-12.5019
ontrast	-12.502
knowwhat	-12.502
▁stmu	-12.502
culo	-12.5021
ongi	-12.5022
▁smilin	-12.5022
▁hamm	-12.5023
▁palp	-12.5023
▁elvis	-12.5023
▁oracle	-12.5024
▁nothingcomp	-12.5024
▁kirk	-12.5025
▁blacklist	-12.5026
cure	-12.5027
uamar	-12.5027
▁manufacturer	-12.5027
randm	-12.5027
▁chand	-12.5028
▁soulful	-12.5031
laura	-12.5031
▁shameless	-12.5031
▁pleasecome	-12.5032
▁ppm	-12.5033
cambria	-12.5033
sobell	-12.5034
▁godsave	-12.5034
▁nuk	-12.5034
▁chuckle	-12.5035
cept	-12.5035
piercing	-12.5035
▁giac	-12.5035
entari	-12.5036
films	-12.5036
▁jas	-12.5038
▁bmc	-12.5038
▁hamper	-12.5038
▁nipples	-12.5039
▁gangster	-12.504
▁thermi	-12.504
pudding	-12.5041
ofwhat	-12.5041
▁mylifeis	-12.5042
sopro	-12.5043
▁genus	-12.5043
▁wensday	-12.5044
▁shelter	-12.5044
▁europa	-12.5045
▁summercamp	-12.5045
▁inclusiv	-12.5046
▁hangin	-12.5046
▁trance	-12.5046
▁gloom	-12.5047
gyn	-12.5047
▁electora	-12.5047
▁clinch	-12.5047
▁fideli	-12.5048
▁letsummer	-12.5048
ttruff	-12.5048
▁fiesta	-12.5048
▁camber	-12.5048
igence	-12.505
▁rename	-12.505
sci	-12.5051
▁ziplin	-12.5051
rfum	-12.5052
dorf	-12.5053
▁roel	-12.5053
▁dup	-12.5054
watering	-12.5055
petl	-12.5055
oncam	-12.5056
pascal	-12.5056
kill	-12.5056
trance	-12.5058
▁jamai	-12.5059
▁derive	-12.506
quaint	-12.506
spoon	-12.506
▁olympics	-12.5061
▁skyp	-12.5061
▁revive	-12.5066
yogaeveryda	-12.5067
▁tidy	-12.5068
▁mamba	-12.507
▁oneyear	-12.5072
spaniel	-12.5073
▁jel	-12.5074
▁locker	-12.5075
▁outfitter	-12.5075
noh	-12.5075
▁ameri	-12.5075
▁jccp	-12.5076
▁bryan	-12.5077
▁nomoney	-12.5077
▁pivo	-12.5078
▁maison	-12.5078
▁apko	-12.5079
vish	-12.5079
▁mcfa	-12.508
▁calendar	-12.508
▁aspiration	-12.5081
▁snowboard	-12.5081
▁seashell	-12.5083
▁aurora	-12.5083
▁flipflop	-12.5083
listeningto	-12.5084
uknow	-12.5084
▁epitome	-12.5084
▁harold	-12.5084
▁appoint	-12.5084
▁journo	-12.5085
▁callum	-12.5085
booknerd	-12.5085
unnel	-12.5085
▁bavaria	-12.5085
▁florid	-12.5085
▁nelson	-12.5085
▁enlighten	-12.5086
▁forbid	-12.5086
▁drome	-12.5086
▁tzu	-12.5087
▁blizzard	-12.5087
▁kwanza	-12.5088
▁millionaire	-12.5089
▁waterproof	-12.5089
▁hihi	-12.509
▁wizard	-12.509
▁nig	-12.509
▁missingyou	-12.509
▁opposi	-12.509
▁perez	-12.5091
▁demoniz	-12.5092
▁correlat	-12.5093
▁davis	-12.5093
serious	-12.5094
eresa	-12.5095
▁deathstr	-12.5097
▁manc	-12.5097
▁maxxx	-12.5098
▁choreograph	-12.5099
kkh	-12.5099
▁flowerchild	-12.5099
yota	-12.51
mic	-12.5101
▁nyk	-12.5101
▁idioc	-12.5102
▁twinkie	-12.5102
rman	-12.5102
▁niger	-12.5104
▁yuck	-12.5106
▁canyon	-12.5109
▁rural	-12.5109
▁evident	-12.511
▁longdistance	-12.511
▁bestdog	-12.5111
▁bbg	-12.5112
▁showsome	-12.5112
▁odin	-12.5112
▁melting	-12.5112
▁drew	-12.5113
inguis	-12.5116
▁unc	-12.5116
bridges	-12.5116
▁israelis	-12.5117
▁offence	-12.5117
▁frogg	-12.5118
▁jumpedthesh	-12.5118
▁gafe	-12.5119
titsfi	-12.5119
surge	-12.5119
▁plur	-12.5119
americans	-12.5119
▁unfold	-12.512
▁yesss	-12.5121
▁standwith	-12.5121
▁counseling	-12.5122
▁julian	-12.5123
▁rollon	-12.5126
▁pussi	-12.5126
▁ritz	-12.5126
elente	-12.5128
rookie	-12.5128
▁spook	-12.5132
▁nobod	-12.5133
▁lowes	-12.5133
▁mach	-12.5136
▁yaka	-12.5136
▁lawless	-12.5137
▁internation	-12.5137
▁fetes	-12.5138
▁theedge	-12.5138
▁poray	-12.5139
▁shiny	-12.5139
▁banning	-12.5141
▁newchallenge	-12.5141
▁santor	-12.5144
uddle	-12.5144
arebackin	-12.5144
▁headwind	-12.5144
▁demoli	-12.5145
▁linda	-12.5145
▁allez	-12.5149
retti	-12.5149
▁kaye	-12.5149
▁steven	-12.515
ingreen	-12.515
appetit	-12.515
▁shootin	-12.5151
▁kale	-12.5151
▁cheerleader	-12.5151
kabu	-12.5151
▁livin	-12.5153
▁ontheway	-12.5153
wearehere	-12.5154
▁supply	-12.5154
▁flipper	-12.5155
▁roche	-12.5156
▁weahe	-12.5156
▁goofin	-12.5156
▁britt	-12.5156
▁bihdayjo	-12.5157
yesha	-12.5157
▁teamjo	-12.5158
xq	-12.5159
▁epicur	-12.5159
▁lacon	-12.5159
▁invis	-12.5161
othing	-12.5164
▁raymond	-12.5165
iana	-12.5165
▁tattle	-12.5165
aby	-12.5166
▁ita	-12.5167
▁fairytale	-12.5167
▁curbed	-12.5167
▁neverstop	-12.5167
▁mustbe	-12.5168
▁housemate	-12.5169
▁proliferati	-12.5169
pharm	-12.5169
flo	-12.5172
▁bekind	-12.5173
▁cakery	-12.5173
giftof	-12.5173
clue	-12.5173
▁dej	-12.5174
wwwww	-12.5176
▁lone	-12.5178
▁psa	-12.5178
▁willmiss	-12.5178
▁relations	-12.5178
dontask	-12.518
aldez	-12.518
▁buckle	-12.5181
▁leftover	-12.5182
early	-12.5182
▁yeaaa	-12.5182
▁unsp	-12.5182
▁kaik	-12.5183
▁whiteguy	-12.5183
▁banger	-12.5184
▁femi	-12.5187
▁kawa	-12.5189
inosa	-12.519
▁wrecking	-12.519
diq	-12.519
chard	-12.5191
▁criticise	-12.5192
▁jayl	-12.5194
▁consumpti	-12.5195
egna	-12.5196
opez	-12.5198
kesh	-12.5199
▁miley	-12.5199
▁villain	-12.5201
▁ofcourse	-12.5201
▁whip	-12.5202
nesia	-12.5204
andup	-12.5204
▁fundamentalis	-12.5205
afucka	-12.5205
▁liberalism	-12.5205
rea	-12.5205
arez	-12.5205
▁norain	-12.5207
ocrat	-12.5208
▁icant	-12.5208
▁ffx	-12.5214
ulsa	-12.5215
doesntlike	-12.5215
seeme	-12.5215
▁irritat	-12.5215
▁rosa	-12.5216
▁shaw	-12.5216
paloma	-12.5217
▁pax	-12.5217
▁reduce	-12.5218
▁eeeeekkk	-12.5218
▁patroni	-12.5219
miler	-12.522
sight	-12.5222
▁quint	-12.5222
▁jacobti	-12.5222
crosse	-12.5223
wake	-12.5225
anches	-12.5227
▁kindof	-12.5231
▁sunda	-12.5231
▁fashionshow	-12.5233
erica	-12.5234
▁spru	-12.5235
chas	-12.5236
▁seba	-12.5236
▁waterfall	-12.5242
croft	-12.5244
▁kaep	-12.5246
tter	-12.5246
▁hdr	-12.5247
gazi	-12.5247
▁lag	-12.5247
guapa	-12.5248
▁owen	-12.5249
shock	-12.5249
ders	-12.525
theater	-12.525
▁residenc	-12.5251
▁btg	-12.5251
ented	-12.5251
▁abe	-12.5252
▁jets	-12.5252
▁whatthehe	-12.5252
andji	-12.5254
▁pixel	-12.5255
ret	-12.5255
cracker	-12.5256
▁tux	-12.5256
dolan	-12.5257
▁deput	-12.5258
▁hairline	-12.5261
surprises	-12.5261
ites	-12.5263
biotic	-12.5265
rms	-12.5265
thi	-12.5266
▁acce	-12.5266
▁semit	-12.5267
▁overwhelming	-12.5268
▁cuai	-12.5271
urges	-12.5273
▁popey	-12.5274
torun	-12.5274
▁fuckyou	-12.5276
▁nord	-12.5277
▁newvideo	-12.5278
toys	-12.5279
torio	-12.5281
▁regulat	-12.5281
▁vulgar	-12.5281
▁pavil	-12.5282
▁bette	-12.5282
▁janna	-12.5283
▁hydra	-12.5283
▁consulting	-12.5283
▁metro	-12.5285
liebe	-12.5285
▁homo	-12.5286
▁divider	-12.5286
▁squi	-12.5288
▁polyg	-12.529
▁interra	-12.529
nui	-12.5291
getti	-12.5292
▁neva	-12.5293
▁existen	-12.5293
▁getwell	-12.5294
teen	-12.5295
▁mikeas	-12.53
▁khu	-12.53
boi	-12.53
▁soproud	-12.53
▁archet	-12.5302
▁peoples	-12.5303
▁angrybird	-12.5303
install	-12.5303
▁hoho	-12.5304
gomez	-12.5305
▁reef	-12.5305
▁newlight	-12.5306
agirl	-12.5311
▁plum	-12.5312
▁tall	-12.5313
upmy	-12.5313
▁clara	-12.5317
▁funky	-12.5319
▁miguel	-12.5319
▁stabili	-12.532
▁zionist	-12.532
▁elliot	-12.5323
eyeson	-12.5323
coz	-12.5324
▁feather	-12.5325
egian	-12.5325
epub	-12.5325
▁nationals	-12.5326
zie	-12.5327
gregor	-12.533
▁miracles	-12.5333
rockwell	-12.5335
▁pilates	-12.5336
racer	-12.5336
▁trancefami	-12.5336
▁elena	-12.5338
▁yahooo	-12.5339
▁orla	-12.5341
loafer	-12.5341
▁flea	-12.5342
▁passen	-12.5343
kta	-12.5345
etfo	-12.5345
▁coffeelover	-12.5349
▁crumb	-12.5349
▁zense	-12.535
tomlin	-12.535
remain	-12.5352
▁pony	-12.5352
▁seiz	-12.5354
▁taping	-12.5359
▁elit	-12.5359
▁fairy	-12.5359
▁somali	-12.536
▁ukrainian	-12.5361
▁marley	-12.5363
▁thisyear	-12.5364
stay	-12.5364
kal	-12.5366
abi	-12.5366
▁textile	-12.5366
▁glittering	-12.5368
▁knowyour	-12.5369
cura	-12.5371
trafficking	-12.5372
▁scrapp	-12.5373
▁preci	-12.5374
▁harris	-12.5375
▁ann	-12.5375
▁browneye	-12.5378
▁tena	-12.5378
eofw	-12.5383
rism	-12.5384
▁wrc	-12.5384
▁discovering	-12.5384
visible	-12.5386
▁sna	-12.5386
▁booth	-12.5387
upta	-12.5388
yers	-12.539
▁bbf	-12.539
pend	-12.5391
saint	-12.5396
▁capitalist	-12.5396
▁refere	-12.5396
hfd	-12.5397
▁shagg	-12.5398
▁ftm	-12.5399
▁tire	-12.5399
haven	-12.5401
▁sweetdream	-12.5401
▁rik	-12.5406
eter	-12.5407
cb	-12.541
feelings	-12.5415
▁tuc	-12.5416
▁homede	-12.5416
▁linkin	-12.5421
▁reference	-12.5421
▁churr	-12.5422
▁raft	-12.5422
ska	-12.5425
▁rubbi	-12.5425
ezza	-12.5425
▁thefuture	-12.5425
▁merchan	-12.5427
▁bodyand	-12.5427
tosleep	-12.5428
llipo	-12.5431
▁noel	-12.5433
▁shutter	-12.5433
ryana	-12.5435
▁stil	-12.5437
▁fitnesslife	-12.5437
lovepierceme	-12.5437
ocre	-12.5438
▁coff	-12.5439
▁wegot	-12.5443
fty	-12.5444
▁contribute	-12.5447
lalie	-12.5449
▁boyf	-12.545
pony	-12.5451
kris	-12.5452
▁bonn	-12.5452
andco	-12.5455
scum	-12.5457
laws	-12.5457
▁bestofb	-12.5458
▁waron	-12.5458
▁ksa	-12.5459
▁striped	-12.5461
vv	-12.5464
▁copa	-12.5465
crop	-12.5465
emia	-12.5467
omaha	-12.547
▁linds	-12.5475
rouse	-12.5479
▁psy	-12.5479
teous	-12.5484
trination	-12.5484
iction	-12.5486
incessan	-12.5486
▁flipp	-12.5489
▁prai	-12.549
maini	-12.5492
▁flare	-12.5495
disput	-12.5496
otic	-12.5496
ittogether	-12.5499
▁oreo	-12.55
eakable	-12.55
ila	-12.55
▁itax	-12.5501
inist	-12.5501
malayal	-12.5503
antid	-12.5504
▁idontcare	-12.5506
linda	-12.5506
▁mosqu	-12.5507
▁carro	-12.5508
▁hunting	-12.5511
guin	-12.5513
▁jojo	-12.5514
▁wiw	-12.5514
▁lament	-12.5514
▁hq	-12.5515
rule	-12.5517
scout	-12.552
joe	-12.5522
▁blanca	-12.5524
▁manipulat	-12.5526
mca	-12.5527
ukr	-12.5527
ider	-12.5531
ngland	-12.5532
rad	-12.5533
ogan	-12.5534
▁shaun	-12.5536
▁sla	-12.5539
ribb	-12.554
▁hydro	-12.5545
freddy	-12.5546
▁dreamwork	-12.5547
▁donor	-12.5549
lved	-12.5549
pression	-12.5549
▁apolog	-12.5549
cant	-12.555
▁spout	-12.5556
▁changesne	-12.5556
rant	-12.556
▁nikka	-12.556
▁investme	-12.5561
▁joi	-12.5561
▁breen	-12.5562
allthe	-12.5563
▁rack	-12.5565
▁savor	-12.5566
▁mole	-12.5567
ofcolor	-12.5567
rv	-12.5572
diade	-12.5577
▁speedos	-12.5578
▁clears	-12.5582
▁eviden	-12.5584
foodof	-12.5584
ravan	-12.5586
▁persisten	-12.5587
▁wiki	-12.5587
named	-12.5588
▁murphy	-12.5588
▁weeee	-12.5592
ahola	-12.5593
rfectpi	-12.5594
cara	-12.5599
rb	-12.5601
▁infinity	-12.5602
stan	-12.5603
▁forza	-12.5603
▁demons	-12.5605
▁abhi	-12.5606
▁zik	-12.5609
▁quall	-12.5612
▁paypa	-12.5617
yak	-12.5617
▁smth	-12.562
ently	-12.562
habib	-12.562
▁composit	-12.562
ctu	-12.5622
▁moro	-12.5622
utum	-12.5622
rix	-12.5622
▁newcome	-12.5622
▁blight	-12.5627
alk	-12.5628
▁littlegirl	-12.563
▁clark	-12.5631
▁waitingf	-12.5631
▁fond	-12.5632
▁nostalgic	-12.5633
studios	-12.5634
outwiththe	-12.5635
alez	-12.5638
yron	-12.5638
igar	-12.5641
namerica	-12.5641
▁mana	-12.5642
sapp	-12.5645
▁mika	-12.5646
thu	-12.5648
▁onemore	-12.5648
itout	-12.565
▁bore	-12.5651
▁crank	-12.5651
dima	-12.5653
gab	-12.5653
naps	-12.5653
impress	-12.5657
▁sonar	-12.5658
▁malam	-12.5658
adder	-12.5659
▁bw	-12.5659
rafa	-12.5661
duca	-12.5662
capelli	-12.5664
hastie	-12.5664
▁mybrother	-12.5665
vm	-12.5666
gical	-12.5666
israeli	-12.5668
ukt	-12.5668
▁hy	-12.567
▁insect	-12.5671
assist	-12.5674
▁finalfantas	-12.5676
▁qat	-12.5677
▁ober	-12.5678
▁slowmo	-12.5681
bandi	-12.5685
▁slimmingworldu	-12.5685
▁broadb	-12.5687
daddie	-12.5688
▁grenade	-12.5692
vit	-12.5693
uuu	-12.5694
[...]
