<unk>	0
<s>	0
</s>	0
▁#	-2.24914
▁@	-3.66967
user	-3.68855
.	-4.01519
ð	-4.11988
s	-4.15183
▁	-4.1759
▁the	-4.23253
▁to	-4.25346
'	-4.43037
▁i	-4.55729
▁a	-4.64163
!	-4.66695
,	-4.77089
▁you	-4.78488
â	-4.82442
▁ð	-4.8644
¦	-4.95813
▁and	-4.97066
▁in	-4.98939
▁for	-5.0481
▁of	-5.12489
▁is	-5.14825
▁my	-5.25773
▁it	-5.27481
t	-5.31287
▁on	-5.57349
▁this	-5.58002
▁â	-5.58915
▁be	-5.60625
▁with	-5.6339
ing	-5.75136
:	-5.77813
;	-5.81111
▁day	-5.82231
▁that	-5.82872
▁so	-5.85878
love	-5.8764
...	-5.87903
▁all	-5.89502
▁are	-5.92056
▁&	-5.93765
?	-5.94908
#	-5.96143
▁̧	-5.96421
amp	-5.96514
▁your	-6.01875
ed	-6.05933
▁at	-6.06451
▁have	-6.06636
m	-6.07146
▁we	-6.10581
▁me	-6.10891
▁happy	-6.12468
▁can	-6.13726
ï	-6.2245
▁-	-6.2528
▁just	-6.263
▁will	-6.30484
▁when	-6.32879
▁do	-6.33617
▁u	-6.3449
▁love	-6.37581
▁not	-6.37803
▁am	-6.40032
▁what	-6.40216
d	-6.43959
-	-6.44782
▁time	-6.44883
▁but	-6.48222
▁from	-6.50956
▁up	-6.52818
▁today	-6.54615
▁like	-6.55199
¦	-6.55611
▁now	-6.57232
i	-6.59223
a	-6.60163
▁out	-6.60667
▁new	-6.6102
¤	-6.6191
!!	-6.62147
▁get	-6.62599
▁"	-6.63344
positive	-6.63421
!!!	-6.64501
▁was	-6.65895
▁about	-6.69923
▁.	-6.70003
▁our	-6.70659
▁as	-6.70989
▁how	-6.71264
▁by	-6.72836
▁no	-6.74855
▁people	-6.75047
▁make	-6.77852
life	-6.78124
re	-6.78153
▁good	-6.78703
▁they	-6.78841
y	-6.78841
▁one	-6.78868
▁see	-6.81772
e	-6.82586
_	-6.84784
ly	-6.86748
▁don	-6.87791
▁life	-6.88453
▁more	-6.89374
"	-6.9102
▁if	-6.93066
▁who	-6.94616
▁go	-6.94681
▁2	-6.9581
▁want	-6.95934
▁take	-6.96513
	-6.97204
▁he	-6.98046
o	-7.01351
smile	-7.03006
▁!	-7.036
▁bihday	-7.03856
healthy	-7.0417
day	-7.07151
▁an	-7.07576
▁has	-7.11731
	-7.11898
ã	-7.15057
▁there	-7.15135
▁or	-7.15435
me	-7.19008
▁got	-7.19647
▁need	-7.20799
fun	-7.21173
2016	-7.21332
▁bull	-7.21353
▁way	-7.21412
▁father	-7.2212
thankful	-7.22163
am	-7.23036
▁here	-7.23463
▁his	-7.23466
)	-7.23794
	-7.25876
/	-7.26127
	-7.27207
▁great	-7.27426
▁going	-7.27891
▁wait	-7.28116
▁us	-7.28569
▁only	-7.28913
▁best	-7.29936
▁their	-7.30157
▁first	-7.30564
▁work	-7.30953
	-7.32571
▁why	-7.32978
▁really	-7.33231
summer	-7.33313
▁ur	-7.33404
ve	-7.33502
▁back	-7.339
..	-7.34438
▁thankful	-7.35806
▁know	-7.37053
▁days	-7.37133
the	-7.37573
▁!!	-7.37763
▁tomorrow	-7.38073
▁some	-7.38697
▁been	-7.39005
▁week	-7.39132
▁(	-7.39405
music	-7.39444
affirmation	-7.41009
▁think	-7.42975
▁her	-7.4374
▁very	-7.44273
4	-7.44313
	-7.44742
model	-7.45256
»	-7.46206
▁world	-7.46886
▁morning	-7.48228
cute	-7.48962
▁being	-7.4911
▁after	-7.51211
▁too	-7.51698
▁never	-7.51701
▁1	-7.5199
▁feel	-7.52006
▁off	-7.52607
▁...	-7.52811
blog	-7.53646
	-7.53816
▁right	-7.54662
for	-7.54846
▁much	-7.54923
	-7.55141
fathersday	-7.56762
▁sad	-7.57423
family	-7.57706
▁had	-7.5879
▁over	-7.59882
	-7.60154
▁she	-7.60215
▁find	-7.61332
er	-7.62066
▁night	-7.6223
▁even	-7.62531
	-7.6254
	-7.63003
▁well	-7.63104
n	-7.6328
beautiful	-7.63879
	-7.63886
	-7.64253
▁weekend	-7.64809
▁3	-7.65078
▁last	-7.65199
bihday	-7.65371
▁always	-7.65542
▁come	-7.65958
▁because	-7.66058
±	-7.67188
▁than	-7.67329
▁next	-7.67665
▁year	-7.67665
th	-7.67892
▁still	-7.67917
weekend	-7.68209
▁4	-7.69165
▁finally	-7.69178
▁look	-7.6945
gold	-7.69528
ex	-7.69877
ó	-7.69973
	-7.69975
▁these	-7.70492
▁them	-7.70853
ll	-7.71142
selfie	-7.71501
orlando	-7.71526
gt	-7.7211
silver	-7.72704
▁thank	-7.73825
▁:)	-7.7402
▁let	-7.74031
	-7.75798
▁tonight	-7.76393
▁things	-7.76514
▁friday	-7.77021
friends	-7.77246
­	-7.77376
altwaystoheal	-7.77808
	-7.77935
1⁄4	-7.78933
friday	-7.79012
in	-7.79122
▁,	-7.79756
▁many	-7.81179
▁ready	-7.81582
	-7.81653
happiness	-7.81799
▁via	-7.82135
on	-7.82509
▁man	-7.83158
▁again	-7.83528
▁home	-7.83883
girl	-7.84007
▁then	-7.84283
▁everyone	-7.84939
2	-7.8499
▁little	-7.85142
▁live	-7.86451
@	-7.86498
▁would	-7.86516
▁:	-7.8655
▁him	-7.86909
▁looking	-7.8784
▁show	-7.88026
▁w	-7.88118
▁̈	-7.88551
like	-7.88601
▁down	-7.88675
▁thanks	-7.88783
	-7.88791
▁keep	-7.89091
	-7.89364
trump	-7.89811
new	-7.90197
▁r	-7.9034
▁old	-7.90865
r	-7.90887
▁ever	-7.91134
▁sta	-7.91699
▁getting	-7.91786
3	-7.91865
▁most	-7.93242
▁family	-7.93423
l	-7.93543
▁climb	-7.93993
▁another	-7.94132
▁should	-7.94683
▁help	-7.95592
▁say	-7.95931
▁n	-7.96048
▁watch	-7.96523
k	-7.96678
▁b	-7.97199
▁bear	-7.97479
happy	-7.98549
▁friends	-7.98614
▁amazing	-7.9878
▁stop	-8.00142
▁every	-8.01064
▁city	-8.01386
▁made	-8.02893
▁polar	-8.03208
▁sunday	-8.03362
¢	-8.03619
instagood	-8.03684
▁might	-8.03752
▁feeling	-8.03944
	-8.04103
▁whatever	-8.04135
▁beautiful	-8.04212
blessed	-8.0426
	-8.0439
f	-8.05618
	-8.05944
or	-8.06225
follow	-8.06268
▁someone	-8.06905
▁game	-8.07038
my	-8.07046
work	-8.0708
no	-8.0736
of	-8.07569
▁fathers	-8.08089
motivation	-8.0809
▁trump	-8.0947
▁excited	-8.0964
▁may	-8.09735
	-8.09983
▁hope	-8.10465
▁god	-8.10533
▁where	-8.10626
&	-8.11016
▁girl	-8.11337
▁́	-8.11863
▁before	-8.11961
fashion	-8.11983
▁any	-8.12356
time	-8.1245
peace	-8.12745
....	-8.12783
and	-8.13047
having	-8.13321
▁did	-8.13524
sun	-8.13993
	-8.14497
▁coming	-8.15045
▁into	-8.15907
▁dad	-8.15956
st	-8.16855
p	-8.17061
▁follow	-8.17104
▁won	-8.17204
it	-8.17805
lt	-8.1802
▁angry	-8.18299
▁long	-8.18476
▁black	-8.18483
▁pay	-8.18652
1	-8.18671
dog	-8.18972
▁found	-8.19249
▁believe	-8.19261
▁its	-8.1947
▁nothing	-8.19491
▁until	-8.19643
¢	-8.19935
healing	-8.20153
home	-8.20289
▁hate	-8.20372
▁around	-8.20418
es	-8.20744
h	-8.20883
▁better	-8.21068
▁5	-8.21676
be	-8.21693
	-8.21918
▁free	-8.22342
sunday	-8.22606
▁white	-8.22633
food	-8.22705
beach	-8.23359
▁summer	-8.23713
▁were	-8.23917
baby	-8.23977
all	-8.24241
travel	-8.24539
▁years	-8.24855
▁big	-8.25094
quote	-8.2515
▁please	-8.25206
▁direct	-8.25445
▁school	-8.25829
▁guys	-8.26212
b	-8.26309
us	-8.26355
1⁄2	-8.26678
▁news	-8.27332
▁'	-8.27717
à	-8.27835
▁music	-8.28395
▁orlando	-8.28432
▁other	-8.28599
3⁄4	-8.28688
▁dominate	-8.29004
▁attack	-8.29363
grateful	-8.30375
▁thing	-8.30406
to	-8.30574
▁soon	-8.30774
▁done	-8.30902
rip	-8.31214
al	-8.31465
	-8.31527
▁something	-8.31533
▁such	-8.3192
▁enjoy	-8.32228
dad	-8.32303
father	-8.32461
▁two	-8.32567
▁miss	-8.32932
▁away	-8.3295
▁own	-8.33
pay	-8.33092
	-8.33118
funny	-8.33602
good	-8.33889
▁yes	-8.34075
▁real	-8.34382
wedding	-8.34681
live	-8.34714
g	-8.35057
▁hea	-8.35167
▁didn	-8.35312
▁check	-8.35422
▁forward	-8.35586
▁end	-8.35724
▁watching	-8.36025
	-8.36331
▁bad	-8.36696
▁left	-8.36747
free	-8.36951
▁without	-8.36993
photooftheday	-8.37888
▁nice	-8.37929
▁smile	-8.37991
▁play	-8.38354
▁those	-8.38535
joy	-8.38612
▁place	-8.38815
▁friend	-8.39028
black	-8.39102
followme	-8.39241
;&	-8.39524
▁video	-8.39553
able	-8.39947
▁?	-8.40359
▁waiting	-8.40363
▁pa	-8.40737
▁lost	-8.40746
euro	-8.4105
▁lol	-8.41406
you	-8.41933
▁wish	-8.42198
▁true	-8.42859
▁doing	-8.4291
Â	-8.43002
	-8.43007
▁person	-8.431
▁re	-8.43225
▁give	-8.43781
▁bing	-8.44584
▁oh	-8.44699
	-8.4477
▁y	-8.44902
▁̄	-8.44939
▁playing	-8.4494
▁bong	-8.44996
▁hard	-8.45092
▁team	-8.4523
	-8.45314
▁could	-8.45578
mindset	-8.45665
hot	-8.45665
▁yeah	-8.45718
▁racing	-8.45726
▁face	-8.45799
▁fun	-8.46145
fitness	-8.47132
	-8.47412
!!!!	-8.47518
▁lot	-8.48324
▁fuck	-8.48679
▁weeks	-8.48957
	-8.49021
holiday	-8.49205
▁stay	-8.4929
▁women	-8.49892
world	-8.4991
▁|	-8.49932
gonna	-8.4995
▁happiness	-8.50095
▁baby	-8.50761
▁saturday	-8.50775
▁x	-8.50827
girls	-8.51216
▁kids	-8.51346
▁girls	-8.51591
quotes	-8.51659
▁t	-8.52018
▁head	-8.52605
▁+	-8.52673
▁does	-8.52812
▁change	-8.52913
▁everything	-8.53475
c	-8.53491
▁racist	-8.54004
	-8.54035
tbt	-8.54076
▁doesn	-8.54125
▁yet	-8.54162
man	-8.54985
▁f	-8.55001
▁2016	-8.55185
16	-8.55552
▁leave	-8.56044
▁strong	-8.56047
u	-8.56306
▁making	-8.565
up	-8.5674
▁same	-8.57092
▁sex	-8.57396
▁post	-8.57855
▁e	-8.58139
ers	-8.58258
▁10	-8.59038
we	-8.59039
▁food	-8.59155
▁buffalo	-8.59354
▁house	-8.5985
	-8.59974
▁s	-8.60637
▁said	-8.60779
▁few	-8.60821
not	-8.61201
	-8.61498
▁tweets	-8.61669
	-8.61947
;3	-8.62063
▁job	-8.62209
▁tear	-8.62267
ies	-8.62299
▁7	-8.63106
▁against	-8.63235
▁top	-8.63326
▁book	-8.63448
▁im	-8.63484
cool	-8.63559
▁looks	-8.63886
▁sleep	-8.64798
▁already	-8.64799
enjoy	-8.64916
▁awesome	-8.64981
▁thought	-8.65026
cat	-8.65067
▁lovely	-8.65307
▁yourself	-8.6532
▁reach	-8.65459
▁try	-8.65518
	-8.65582
▁gorilla	-8.65584
▁full	-8.65586
▁america	-8.65668
▁living	-8.66005
▁:(	-8.66516
▁use	-8.66604
	-8.66907
▁un	-8.67065
▁read	-8.67639
▁d	-8.67722
go	-8.67769
▁says	-8.67866
▁open	-8.68639
nd	-8.68655
▁must	-8.68702
therapy	-8.68744
depression	-8.69037
▁6	-8.69325
▁..	-8.69396
hair	-8.6966
▁shooting	-8.69681
▁wow	-8.6992
▁environment	-8.70538
▁twitter	-8.70581
	-8.70895
▁win	-8.70997
▁monday	-8.71048
proud	-8.71358
inspiration	-8.71374
▁season	-8.71378
so	-8.71576
▁mind	-8.71654
▁super	-8.71751
▁p	-8.72027
	-8.72309
▁through	-8.72314
▁shit	-8.72487
að	-8.72649
boy	-8.7266
▁put	-8.72892
▁each	-8.73155
▁while	-8.73193
▁meet	-8.73296
▁c	-8.73317
an	-8.73346
	-8.73352
▁listen	-8.73572
health	-8.73593
saturday	-8.73597
	-8.73772
▁adapt	-8.7404
▁month	-8.74423
▁tell	-8.74775
▁call	-8.74821
▁simulat	-8.74923
politics	-8.75079
out	-8.75497
▁guy	-8.75561
▁isn	-8.75628
▁hours	-8.75632
▁also	-8.75861
▁kind	-8.76262
▁order	-8.76345
▁simulation	-8.76753
▁which	-8.76781
▁since	-8.76938
team	-8.76949
gay	-8.77773
▁children	-8.78152
▁far	-8.784
today	-8.78579
	-8.78606
▁song	-8.78739
z	-8.78776
beauty	-8.78798
oil	-8.78841
▁country	-8.78871
▁=	-8.7969
sexy	-8.79774
amazing	-8.79803
▁june	-8.79858
7	-8.80046
shop	-8.80117
▁moment	-8.80328
Ð	-8.80359
▁suppo	-8.81168
▁buy	-8.81201
▁tweet	-8.81706
▁join	-8.81946
▁hear	-8.82063
¥	-8.8212
▁hour	-8.82382
	-8.82383
▁enough	-8.82655
▁cold	-8.82658
success	-8.82672
insta	-8.82765
lifestyle	-8.82805
night	-8.82921
v	-8.82941
▁working	-8.8321
▁ppl	-8.8325
▁complete	-8.8327
till	-8.83654
▁high	-8.83861
▁poetry	-8.83885
▁both	-8.84258
monday	-8.84261
	-8.84344
▁others	-8.85088
tweets	-8.85108
morning	-8.85745
▁conference	-8.85829
▁hey	-8.85866
▁men	-8.86004
	-8.8602
do	-8.8612
is	-8.86133
ng	-8.86215
light	-8.8622
▁anything	-8.86366
▁came	-8.86462
style	-8.86599
london	-8.86718
▁trying	-8.86726
▁rest	-8.8674
tags	-8.86748
allah	-8.86778
retweet	-8.86815
▁body	-8.87018
▁money	-8.87088
	-8.87338
▁dead	-8.87729
america	-8.87879
▁lead	-8.8797
▁official	-8.87998
▁wonderful	-8.88456
▁sure	-8.88464
▁seeing	-8.88768
usa	-8.89012
nature	-8.89036
blue	-8.8915
best	-8.89598
friend	-8.89606
hate	-8.89727
news	-8.8996
▁gone	-8.89972
people	-8.90212
▁proud	-8.90278
la	-8.9033
photography	-8.90408
pm	-8.90872
▁care	-8.90926
▁perfect	-8.91049
kids	-8.91176
	-8.91238
sad	-8.91384
▁words	-8.91423
¤	-8.9147
▁comes	-8.91571
▁boy	-8.91697
Ã	-8.91859
▁ht	-8.91879
x	-8.91981
▁woman	-8.92183
▁remember	-8.92501
	-8.92577
▁else	-8.92614
▁obama	-8.92725
now	-8.92739
▁!!!	-8.93865
▁almost	-8.93906
▁culture	-8.93996
est	-8.94117
▁h	-8.94403
▁car	-8.94456
w	-8.94537
▁8	-8.94665
¡	-8.94737
▁omg	-8.95059
▁tickets	-8.95354
▁times	-8.9537
prayfororlando	-8.95809
±	-8.95837
▁goes	-8.96073
thursday	-8.9683
▁delete	-8.97114
▁side	-8.97308
▁mean	-8.97543
▁~	-8.97842
▁young	-8.98104
se	-8.98519
great	-8.9852
▁m	-8.98581
▁myself	-8.98746
▁na	-8.99066
▁actually	-8.99218
sea	-8.9984
less	-9.00016
▁wedding	-9.00078
▁saw	-9.00081
▁months	-9.0029
▁useful	-9.00341
▁become	-9.00494
▁under	-9.00522
vine	-9.00616
▁fans	-9.00621
▁power	-9.00836
▁de	-9.01115
delete	-9.0113
▁visit	-9.01325
le	-9.01384
▁mom	-9.01402
▁aww	-9.01445
	-9.0149
	-9.01502
	-9.01511
na	-9.01542
▁race	-9.01554
▁anyone	-9.01559
photo	-9.01563
▁empty	-9.01627
dance	-9.01721
▁cause	-9.01772
▁wrong	-9.01781
.#	-9.01905
▁places	-9.02029
▁set	-9.02292
▁loved	-9.02303
▁act	-9.02426
."	-9.02559
▁went	-9.02823
▁lives	-9.03053
june	-9.03366
white	-9.03388
awesome	-9.03424
▁fact	-9.03711
dream	-9.03807
▁needs	-9.03871
▁anymore	-9.03944
▁gun	-9.04121
this	-9.04153
god	-9.04372
▁story	-9.04525
▁dads	-9.04864
▁hardcore	-9.05126
ity	-9.0531
liberal	-9.05455
*	-9.05615
▁v	-9.05704
▁hair	-9.06051
▁matter	-9.06051
	-9.0628
▁impoant	-9.06286
▁yesterday	-9.06468
▁9	-9.06486
▁son	-9.06813
▁thoughts	-9.06824
goodmorning	-9.06927
days	-9.07271
▁beach	-9.07565
▁talk	-9.07616
▁dog	-9.07652
▁happened	-9.0769
▁less	-9.07996
	-9.08219
▁media	-9.08302
libtard	-9.08399
tgif	-9.08503
mom	-9.08511
▁pretty	-9.08626
¥	-9.0863
relax	-9.09078
en	-9.0912
▁together	-9.09645
	-9.09781
??	-9.09855
▁latest	-9.10059
with	-9.10114
▁couple	-9.10194
design	-9.10429
▁bed	-9.10827
flowers	-9.11084
melancholy	-9.11309
picoftheday	-9.11314
	-9.11346
▁word	-9.11463
▁fathersday	-9.11532
▁early	-9.11587
▁ago	-9.11662
ne	-9.11739
▁close	-9.11904
fathers	-9.12035
miami	-9.12123
your	-9.12544
goals	-9.12604
▁once	-9.12922
.....	-9.13124
women	-9.13165
▁movie	-9.13426
8	-9.13431
▁point	-9.13544
development	-9.13553
education	-9.13578
sjw	-9.13995
▁20	-9.13997
▁sometimes	-9.14012
▁victims	-9.14342
▁o	-9.14458
▁trip	-9.14529
▁Â	-9.14559
usd	-9.14624
▁special	-9.14772
lgbt	-9.14791
nervous	-9.14829
coffee	-9.14925
3⁄4	-9.14952
▁bring	-9.15274
▁libtard	-9.15641
▁loving	-9.15787
▁daily	-9.15884
game	-9.15947
▁ok	-9.16019
red	-9.1605
show	-9.16117
depressed	-9.16239
young	-9.16392
▁run	-9.16502
	-9.16648
▁guess	-9.16685
▁gift	-9.1679
ness	-9.17159
▁seen	-9.17192
▁share	-9.17532
porn	-9.17701
sunshine	-9.17728
▁photo	-9.17744
▁business	-9.17897
▁arrived	-9.18099
▁send	-9.1827
▁later	-9.18287
one	-9.1838
uk	-9.18399
oð	-9.18572
▁peace	-9.18599
hope	-9.186
▁cool	-9.19016
▁organization	-9.19378
▁dear	-9.1938
	-9.19409
▁g	-9.19449
▁target	-9.19473
▁turn	-9.19507
▁50	-9.19936
▁mood	-9.20064
school	-9.20212
5	-9.20267
video	-9.20369
▁funny	-9.20404
▁though	-9.20432
thankyou	-9.20449
hu	-9.2045
▁understand	-9.2046
anxiety	-9.20489
ment	-9.20695
▁favorite	-9.20762
▁damn	-9.20999
▁walk	-9.2102
▁*	-9.2119
dj	-9.21311
never	-9.21619
▁sun	-9.21635
▁racism	-9.21649
blogger	-9.2207
¶	-9.22211
	-9.22213
	-9.2224
▁park	-9.22293
▁whole	-9.22351
▁holiday	-9.22518
▁booked	-9.22682
but	-9.22915
▁sorry	-9.23031
at	-9.2319
un	-9.23234
ion	-9.23531
run	-9.23689
just	-9.23754
	-9.23867
▁killed	-9.23878
▁evening	-9.23958
▁l	-9.24013
▁death	-9.24071
▁stas	-9.24197
▁reason	-9.24255
▁thursday	-9.24313
indie	-9.24978
gym	-9.24998
▁child	-9.25106
	-9.25139
▁bit	-9.25313
▁late	-9.25417
feeling	-9.2553
lol	-9.25766
▁hu	-9.25792
top	-9.25838
▁date	-9.25891
▁yo	-9.25942
	-9.26269
▁staing	-9.2631
hea	-9.26366
book	-9.26372
▁dream	-9.26418
cantwait	-9.26592
¡	-9.26638
despite	-9.26652
▁everyday	-9.27308
ever	-9.27331
▁followers	-9.27377
▁vs	-9.27411
truth	-9.27587
can	-9.27684
▁control	-9.27836
im	-9.27868
▁learn	-9.27871
▁wednesday	-9.27894
more	-9.28074
	-9.28122
udtapunjab	-9.2813
ha	-9.28284
▁state	-9.2835
fit	-9.28487
▁fan	-9.28579
▁seems	-9.28749
first	-9.2878
▁yay	-9.2909
▁saying	-9.29464
alone	-9.29506
▁update	-9.29642
ma	-9.29661
nice	-9.29677
twitter	-9.29712
	-9.29846
men	-9.29923
▁safe	-9.29942
▁talking	-9.30173
son	-9.30253
▁cute	-9.30366
rs	-9.30403
▁happen	-9.30667
	-9.30789
▁single	-9.30866
	-9.30983
▁app	-9.31009
▁half	-9.31072
why	-9.31135
▁12	-9.31142
king	-9.31169
▁crazy	-9.31196
ation	-9.31198
▁source	-9.31291
▁sweet	-9.31324
▁families	-9.31568
▁dance	-9.31706
▁comments	-9.32175
da	-9.32203
▁gay	-9.32336
▁realize	-9.32795
nude	-9.32803
▁break	-9.32911
	-9.32943
▁choose	-9.32989
▁porn	-9.33026
▁heard	-9.332
▁homes	-9.33337
yoga	-9.3334
▁vote	-9.33346
▁meeting	-9.33368
▁welcome	-9.3338
social	-9.33756
horn	-9.33856
▁tv	-9.33932
taking	-9.34233
makeup	-9.34304
oitnb	-9.34328
disney	-9.34414
▁spend	-9.34476
▁july	-9.34649
back	-9.34732
▁finished	-9.3484
▁forget	-9.3491
lover	-9.3519
ic	-9.35364
▁hello	-9.35429
tâ	-9.35851
▁survive	-9.35883
▁daddy	-9.35911
festival	-9.36094
¬	-9.36095
crazy	-9.36109
orlandoshooting	-9.36118
season	-9.36173
▁pre	-9.36178
▁move	-9.36282
▁name	-9.36284
▁president	-9.36381
▁phone	-9.36388
▁da	-9.36411
▁happening	-9.36466
as	-9.36537
▁co	-9.3655
nyc	-9.36697
▁hill	-9.36718
▁forever	-9.36762
▁hit	-9.3685
▁wishing	-9.37209
▁birds	-9.37389
▁save	-9.3739
	-9.37428
instagram	-9.37595
sunny	-9.37624
special	-9.37686
pulse	-9.37736
©	-9.3779
▁wake	-9.37878
▁stuff	-9.37972
▁event	-9.38042
by	-9.38051
▁episode	-9.38058
ff	-9.38088
▁star	-9.38166
▁group	-9.38183
▁history	-9.38483
forever	-9.38545
green	-9.38637
▁used	-9.38669
▁sick	-9.38929
▁truth	-9.39276
▁reading	-9.39278
	-9.39505
▁least	-9.39505
°	-9.39506
business	-9.39531
▁15	-9.39593
▁light	-9.39659
▁gets	-9.39692
▁cant	-9.39752
te	-9.39787
big	-9.39794
▁along	-9.40039
▁pick	-9.40051
▁broke	-9.40214
▁wanted	-9.40395
▁ask	-9.40408
▁london	-9.40471
smiles	-9.40494
rain	-9.40498
real	-9.40563
change	-9.40836
house	-9.40839
▁past	-9.40962
attraction	-9.41045
nasty	-9.41168
▁truly	-9.41212
▁list	-9.41515
▁maybe	-9.41644
▁present	-9.41689
▁:-	-9.41746
▁called	-9.41752
nity	-9.41851
week	-9.41893
ting	-9.41945
▁sho	-9.42096
▁club	-9.42406
fest	-9.42579
web	-9.42651
ie	-9.42682
▁kill	-9.42727
laugh	-9.42811
sky	-9.42816
lawof	-9.4293
▁wanna	-9.42958
tuesday	-9.43041
▁couldn	-9.43149
▁boys	-9.43226
▁afternoon	-9.43245
▁police	-9.43245
win	-9.43287
obama	-9.4333
self	-9.43526
▁final	-9.43562
▁prayers	-9.43612
thanks	-9.43681
▁lunch	-9.43787
▁picture	-9.43798
▁gbp	-9.43837
▁mother	-9.43884
▁#2016	-9.43941
mood	-9.43969
play	-9.44021
xxx	-9.44059
ge	-9.44061
▁celebrate	-9.44098
▁self	-9.44501
▁bought	-9.44704
▁task	-9.44707
fridayfeeling	-9.44747
strong	-9.44761
6	-9.44888
pretty	-9.4489
▁course	-9.44891
christinagrimmie	-9.45074
co	-9.45282
▁pic	-9.4544
ton	-9.45706
±	-9.46151
	-9.4619
▁hot	-9.46333
chill	-9.46379
dogs	-9.46397
blur	-9.46524
▁absolute	-9.46533
vacation	-9.46553
instalike	-9.46586
▁lose	-9.46598
ce	-9.4667
florida	-9.467
(	-9.46704
▁worst	-9.46714
tech	-9.46729
tired	-9.46738
▁easy	-9.4683
▁ahead	-9.47004
▁parents	-9.47039
couple	-9.47049
vote	-9.47155
▁chase	-9.47171
sweet	-9.47345
▁11	-9.47423
▁thinking	-9.47435
▁health	-9.47477
	-9.47583
dads	-9.47748
▁green	-9.4781
▁hi	-9.48171
city	-9.48223
nbafinals	-9.48366
naughty	-9.48367
	-9.48394
	-9.48404
»	-9.48492
1	-9.48501
flag	-9.48503
▁water	-9.48885
cannot	-9.48904
▁red	-9.48925
£	-9.48991
▁means	-9.49089
▁simple	-9.49252
▁mass	-9.49723
▁die	-9.49723
▁line	-9.498
▁k	-9.49866
▁dur	-9.49878
▁kid	-9.49981
▁agree	-9.50087
▁tuesday	-9.50087
▁expans	-9.50253
▁wonder	-9.50271
newyork	-9.50274
▁different	-9.50316
shy	-9.50362
brexit	-9.50508
▁aren	-9.50512
cake	-9.50535
wednesday	-9.50546
▁mountains	-9.5065
▁mine	-9.50794
old	-9.51216
he	-9.51265
▁room	-9.51271
▁soul	-9.51385
▁minutes	-9.51459
▁haven	-9.51512
▁missing	-9.51755
ld	-9.51785
gotta	-9.51879
fucking	-9.51969
pussy	-9.52256
▁nigga	-9.52268
vegan	-9.52291
▁alone	-9.52303
little	-9.5232
leadership	-9.52386
slut	-9.52411
▁football	-9.52464
▁hell	-9.52905
stay	-9.52969
▁decide	-9.5298
▁voice	-9.53012
▁conce	-9.53087
▁ass	-9.53395
movie	-9.53626
ather	-9.5376
rooster	-9.54138
rock	-9.54187
▁instead	-9.54204
	-9.54238
lonely	-9.54425
▁community	-9.54446
lucky	-9.54522
▁cat	-9.54653
land	-9.54709
j	-9.54853
10	-9.54927
▁small	-9.54982
ch	-9.54994
▁service	-9.55037
▁staed	-9.55354
▁using	-9.5537
▁national	-9.55449
well	-9.55768
park	-9.55822
§	-9.55955
▁blessed	-9.56073
▁deserve	-9.5611
▁dis	-9.56118
▁stand	-9.56138
kinky	-9.56139
«	-9.5617
▁behind	-9.56191
▁social	-9.5625
▁luck	-9.56264
▁--	-9.5633
fresh	-9.56379
help	-9.56431
▁bless	-9.56431
share	-9.5644
friendship	-9.56529
vast	-9.56667
gave	-9.5675
wet	-9.56863
trip	-9.56915
▁human	-9.57135
▁st	-9.5714
▁/	-9.57253
▁uk	-9.57354
daddy	-9.57393
?!	-9.57601
look	-9.57823
▁daughter	-9.57873
¡	-9.57916
▁finish	-9.58035
­	-9.5819
instamood	-9.582
▁leaving	-9.58229
▁feels	-9.58261
▁wants	-9.58363
▁shows	-9.58371
▁glad	-9.58511
true	-9.58565
ra	-9.58661
▁fall	-9.58693
ford	-9.58763
▁lots	-9.58773
ready	-9.58876
▁anniversary	-9.58996
pray	-9.59209
get	-9.5924
▁class	-9.59291
sleep	-9.59425
ful	-9.59602
anti	-9.59606
wine	-9.59611
¤	-9.59769
ism	-9.59888
©	-9.59965
▁sound	-9.60114
face	-9.60115
▁mr	-9.60162
rd	-9.60179
1⁄2	-9.60305
	-9.60339
	-9.60361
▁ma	-9.60413
japan	-9.60684
▁giving	-9.60733
relationship	-9.60735
money	-9.60739
▁coffee	-9.6075
celebrate	-9.60763
single	-9.6077
▁office	-9.60875
▁account	-9.60928
▁poor	-9.61
mad	-9.61134
body	-9.6122
gamedev	-9.61236
words	-9.61413
car	-9.61432
future	-9.6156
pink	-9.6179
▁shot	-9.61844
▁rip	-9.61916
ripchristina	-9.61926
▁sign	-9.61928
that	-9.62022
over	-9.62103
▁lucky	-9.62113
▁nude	-9.62422
▁vici	-9.62447
ry	-9.6254
▁due	-9.6258
1	-9.62667
▁sto	-9.62675
▁wishes	-9.62796
running	-9.62929
▁needed	-9.63059
smiling	-9.63067
▁eat	-9.63086
job	-9.63308
▁fly	-9.6346
▁100	-9.63764
ar	-9.63803
▁positive	-9.64019
▁future	-9.64035
▁24	-9.64103
▁en	-9.64207
▁tired	-9.6431
▁sexy	-9.64318
mping	-9.64449
what	-9.64481
	-9.64601
	-9.64645
right	-9.64647
inspirational	-9.64696
▁mad	-9.647
shooting	-9.64709
▁york	-9.64763
▁#1	-9.64795
▁war	-9.6482
▁series	-9.64855
▁political	-9.64979
▁ride	-9.65075
▁husband	-9.6509
child	-9.65127
dev	-9.65205
▁local	-9.65245
▁wife	-9.65283
ke	-9.65298
don	-9.65378
▁cry	-9.65618
▁fear	-9.65666
moment	-9.65708
▁brother	-9.65738
9	-9.65794
▁violence	-9.65891
anime	-9.66069
▁ain	-9.66378
spos	-9.66602
ay	-9.66609
▁step	-9.66648
▁previous	-9.66785
instadaily	-9.66796
▁current	-9.66878
perfect	-9.66918
▁fantastic	-9.671
	-9.67225
club	-9.6737
sick	-9.67433
▁woh	-9.67453
▁test	-9.67472
▁fo	-9.67587
memories	-9.67624
▁shop	-9.67752
▁view	-9.67884
▁american	-9.67944
▁hand	-9.6809
▁wa	-9.68394
gif	-9.68395
▁beauty	-9.68479
▁running	-9.68484
▁color	-9.68513
▁ha	-9.6863
▁speak	-9.68782
po	-9.68996
▁add	-9.69061
	-9.69106
▁low	-9.69147
▁seriously	-9.69202
super	-9.69212
insho	-9.69265
▁sir	-9.69266
▁launch	-9.69373
▁exciting	-9.69439
32016	-9.69492
▁died	-9.69504
▁stupid	-9.69631
▁la	-9.69639
sunset	-9.69735
▁road	-9.69764
▁suppoers	-9.6981
boyfriend	-9.70094
boys	-9.70208
▁film	-9.7061
▁freedom	-9.70764
▁rain	-9.7077
stop	-9.70781
▁queen	-9.70869
­	-9.70977
▁joy	-9.71003
▁campaign	-9.71205
way	-9.71211
	-9.71411
¥	-9.7144
▁literally	-9.71442
¤	-9.71456
▁eyes	-9.71469
probably	-9.71487
	-9.71492
▁bc	-9.71519
▁chance	-9.71533
▁given	-9.71678
garden	-9.71786
▁three	-9.71947
»	-9.72018
▁reality	-9.72034
squad	-9.72055
▁inside	-9.72186
together	-9.72204
loved	-9.72379
▁moving	-9.72412
▁key	-9.72487
▁project	-9.72557
eur	-9.72592
▁page	-9.72609
▁fill	-9.72633
▁hillary	-9.72732
▁training	-9.72763
fuck	-9.72818
train	-9.72827
▁pray	-9.72848
▁fight	-9.72873
national	-9.73033
▁smiling	-9.73163
▁hands	-9.73234
loveâ	-9.73391
▁sister	-9.73431
▁wasn	-9.73435
▁experience	-9.73521
animals	-9.73586
bad	-9.73587
▁ways	-9.73598
▁land	-9.73768
nofilter	-9.73776
vsco	-9.73777
▁okay	-9.73777
▁huge	-9.73986
▁happier	-9.74065
▁camp	-9.74095
▁case	-9.741
▁folks	-9.74124
▁donald	-9.74142
▁busy	-9.74248
▁bitch	-9.74446
▁online	-9.74519
energy	-9.74525
woman	-9.74579
▁took	-9.74602
▁lady	-9.7467
▁listening	-9.74677
▁idea	-9.7468
▁opening	-9.74748
ia	-9.74777
tics	-9.74834
▁30	-9.74861
▁met	-9.74922
eat	-9.74949
pride	-9.74958
behappy	-9.75183
▁bday	-9.75364
de	-9.75566
tv	-9.75578
▁near	-9.75643
pic	-9.75668
yay	-9.75746
sta	-9.75763
how	-9.75837
▁guns	-9.75846
el	-9.75879
▁hero	-9.75943
very	-9.75944
down	-9.7613
snapshot	-9.76203
▁laugh	-9.76229
▁naked	-9.76362
▁everybody	-9.76385
▁gym	-9.76446
▁ice	-9.76469
▁sense	-9.765
puppy	-9.76528
off	-9.76626
flower	-9.7687
breakfast	-9.76973
yummy	-9.77011
babies	-9.7704
ramadan	-9.77059
pain	-9.77061
daughter	-9.77062
igers	-9.77067
20	-9.7708
shopping	-9.77169
▁students	-9.77257
▁travel	-9.77336
▁missed	-9.77396
▁deal	-9.77453
▁....	-9.77538
▁flight	-9.777
▁problem	-9.77768
«	-9.77826
animal	-9.77887
▁announce	-9.78028
▁leakag	-9.78182
yes	-9.78211
▁beat	-9.78263
	-9.78391
	-9.78469
▁rock	-9.78473
▁accept	-9.78552
▁13	-9.78565
our	-9.78686
positivity	-9.78704
¤	-9.78714
feminismis	-9.7872
­	-9.78747
▁either	-9.78974
▁haha	-9.79049
▁internet	-9.79193
pet	-9.79276
+	-9.79292
▁college	-9.79351
water	-9.79404
youtube	-9.79492
united	-9.79536
▁allow	-9.79555
▁tragedy	-9.79563
lunch	-9.79636
blonde	-9.7966
▁town	-9.79688
when	-9.79688
▁smh	-9.79694
▁loss	-9.79779
▁14	-9.7985
▁issue	-9.79854
▁kick	-9.79904
▁selfie	-9.80065
▁videos	-9.80201
▁dreams	-9.80241
gamer	-9.80361
	-9.80362
goodvibes	-9.80412
ally	-9.8042
star	-9.80554
pathetic	-9.8056
▁drink	-9.80629
▁garden	-9.81002
▁ex	-9.8142
▁public	-9.81662
ca	-9.81799
▁shopping	-9.81866
▁ã	-9.81918
▁eah	-9.81926
▁staff	-9.82032
▁2017	-9.82076
17	-9.82125
cry	-9.82154
snapchat	-9.82257
▁india	-9.82287
racism	-9.8229
▁bar	-9.82326
workout	-9.82327
q	-9.82372
yourself	-9.82387
loveit	-9.82494
sex	-9.82554
▁tho	-9.82566
▁england	-9.8258
▁dinner	-9.8263
app	-9.82857
▁train	-9.83026
▁dark	-9.83225
her	-9.83403
▁hold	-9.83444
hard	-9.8351
▁offer	-9.83522
▁street	-9.8366
▁count	-9.83719
▁blue	-9.83766
▁themselves	-9.83899
¶	-9.83912
▁knew	-9.84066
▁below	-9.84111
▁j	-9.84112
▁dress	-9.84146
▁box	-9.84177
celebrating	-9.84202
let	-9.84254
▁trust	-9.84297
▁deep	-9.84358
	-9.84369
cats	-9.84431
who	-9.84472
▁congrats	-9.84561
▁vacation	-9.84581
they	-9.84582
▁xx	-9.84682
▁west	-9.84717
feminism	-9.84756
pool	-9.84774
▁wouldn	-9.84774
▁calling	-9.84833
aist	-9.8486
hungry	-9.8492
▁mo	-9.84949
violence	-9.84969
media	-9.84986
▁walking	-9.85084
▁album	-9.8509
diet	-9.85116
em	-9.85154
▁store	-9.85181
os	-9.85229
▁second	-9.85339
hour	-9.85555
▁treat	-9.85604
ro	-9.8578
▁customer	-9.85834
24	-9.85882
▁anti	-9.85956
	-9.85958
view	-9.85979
¥	-9.86086
▁age	-9.86111
makes	-9.8628
stuck	-9.86437
▁expect	-9.86516
·	-9.86618
	-9.86634
▁tried	-9.86709
ootd	-9.8682
▁moments	-9.86887
▁sale	-9.86911
▁piece	-9.86988
▁nobody	-9.8705
living	-9.87203
▁content	-9.87398
foodie	-9.87461
▁bag	-9.87531
growth	-9.87778
-(	-9.87791
▁clean	-9.87796
▁air	-9.87817
gop	-9.8783
heabroken	-9.87843
▁comment	-9.87992
enjoying	-9.88017
▁release	-9.88031
▁minute	-9.88079
▁number	-9.88143
tour	-9.88246
dont	-9.88277
hello	-9.88287
▁fr	-9.88308
pa	-9.88629
beer	-9.88632
▁message	-9.88664
experience	-9.88754
	-9.89022
terrorism	-9.89092
bl	-9.89104
inthe	-9.89165
▁nation	-9.89174
watch	-9.89301
▁entire	-9.89379
bjp	-9.89397
¤	-9.89404
¶	-9.89419
tampa	-9.89421
▁states	-9.89422
▁cut	-9.89432
maga	-9.89509
▁retweet	-9.89513
1⁄4	-9.89517
key	-9.89561
film	-9.8959
▁americans	-9.89593
▁totally	-9.89621
▁stories	-9.89646
▁favourite	-9.89682
ny	-9.90091
sorry	-9.90136
▁grow	-9.90197
▁click	-9.90342
▁heading	-9.90613
hillary	-9.90617
next	-9.90628
drawing	-9.90657
▁ticket	-9.90712
▁wild	-9.90815
▁bro	-9.90838
???	-9.91195
▁board	-9.91514
▁18	-9.91579
tips	-9.91638
guns	-9.91687
▁fast	-9.91711
▁august	-9.91783
▁teen	-9.91888
story	-9.91889
make	-9.91897
▁lover	-9.91944
▁claim	-9.92006
¶	-9.92037
ine	-9.92188
essentialoil	-9.92237
beyond	-9.92239
▁exactly	-9.92244
▁received	-9.92306
▁40	-9.92336
▁major	-9.92358
staup	-9.9238
▁track	-9.92457
▁benefits	-9.92472
▁longer	-9.92519
▁outside	-9.92668
3	-9.92731
apple	-9.92764
▁fire	-9.92995
▁til	-9.93181
clean	-9.9321
australia	-9.93309
▁pizza	-9.9337
walk	-9.93403
cancer	-9.93428
football	-9.93462
▁le	-9.93499
poetry	-9.93558
▁card	-9.93628
nearly	-9.93655
always	-9.93666
memes	-9.93727
too	-9.93766
▁broken	-9.93856
ance	-9.93889
▁smiles	-9.9392
12	-9.93944
thoughts	-9.94011
▁snapchat	-9.94051
▁following	-9.94072
▁respect	-9.94263
year	-9.9427
▁ones	-9.94423
fo	-9.94486
▁ya	-9.94587
spring	-9.94604
▁$$	-9.94674
!!!!!	-9.94701
wood	-9.9471
come	-9.94906
▁16	-9.94938
▁pics	-9.95092
ta	-9.95174
biggest	-9.95179
▁instagram	-9.95212
▁round	-9.95272
▁secret	-9.95288
flagday	-9.95315
humpday	-9.95322
▁create	-9.95565
▁christina	-9.95647
ist	-9.9565
analy	-9.95698
▁ness	-9.95707
▁sunshine	-9.95737
▁available	-9.95743
▁jo	-9.95781
50	-9.95784
▁fake	-9.9579
▁wakeup	-9.9588
oâ	-9.95949
▁cover	-9.95957
▁blog	-9.96013
▁gorgeous	-9.96044
▁born	-9.96084
▁21	-9.96095
reading	-9.96106
▁facebook	-9.96156
▁south	-9.96241
▁begin	-9.96434
children	-9.96474
paris	-9.96543
▁th	-9.96677
omg	-9.9685
▁question	-9.9686
▁begins	-9.96894
▁crying	-9.97021
▁pain	-9.97056
only	-9.97069
ble	-9.97094
▁law	-9.97327
▁memories	-9.9735
▁repo	-9.97439
▁ball	-9.97495
american	-9.97591
lost	-9.97626
fan	-9.9763
▁trend	-9.97653
pop	-9.97664
▁muslim	-9.97686
heal	-9.97717
▁florida	-9.9787
▁lack	-9.97906
▁joke	-9.97975
actor	-9.98024
song	-9.98074
▁disney	-9.98208
·	-9.98218
°	-9.9825
foodporn	-9.98269
sister	-9.98312
▁price	-9.98354
▁answer	-9.98372
▁passed	-9.98384
▁planning	-9.984
▁happens	-9.98405
▁straight	-9.98414
▁match	-9.98472
»	-9.98502
3⁄4	-9.98524
▁paid	-9.98525
▁company	-9.98542
▁lord	-9.98545
years	-9.98569
▁speech	-9.98576
▁decision	-9.98589
▁islam	-9.98647
gift	-9.98662
coming	-9.98733
nt	-9.98761
▁congratulations	-9.9877
goodday	-9.98783
▁front	-9.98845
▁dory	-9.98857
street	-9.98953
read	-9.98954
▁double	-9.98972
sa	-9.99205
ho	-9.99297
▁tour	-9.99309
zen	-9.99452
gratitude	-9.9947
feliz	-9.99525
got	-9.99604
broken	-9.99625
▁fresh	-9.99629
bride	-9.9965
gbp	-9.99716
wow	-9.99725
dinner	-9.99733
tan	-9.99862
male	-9.99975
islamic	-9.99979
▁youtube	-10.0013
▁design	-10.0016
▁success	-10.0028
▁alive	-10.0058
ive	-10.008
fail	-10.0091
▁games	-10.0095
bigot	-10.0095
	-10.0103
▁condemn	-10.0107
kkk	-10.0112
him	-10.0124
▁fuher	-10.0134
idwp	-10.0135
▁above	-10.0137
▁losing	-10.0138
▁between	-10.0141
positivevibes	-10.0144
▁definite	-10.0146
▁cou	-10.016
goodtimes	-10.0161
▁reasons	-10.0163
▁usa	-10.0181
▁system	-10.0182
▁website	-10.0183
talk	-10.0216
ur	-10.0217
playing	-10.0231
▁eating	-10.0231
age	-10.0235
ling	-10.0235
ps	-10.0236
goodnight	-10.0253
▁tears	-10.0255
marketing	-10.0262
punjab	-10.0272
side	-10.0275
jobs	-10.0279
bear	-10.0283
ibiza	-10.0285
▁wtf	-10.0285
confused	-10.0287
magic	-10.0288
faith	-10.0288
▁church	-10.0289
england	-10.0294
repost	-10.0305
feel	-10.0311
▁stream	-10.0312
▁weather	-10.0325
bar	-10.0334
photos	-10.0334
▁lo	-10.0337
▁stage	-10.0337
▁breakfast	-10.0344
▁lie	-10.0353
tea	-10.0355
race	-10.0374
▁action	-10.0375
▁female	-10.0377
ty	-10.0386
fl	-10.0386
believe	-10.0419
things	-10.0429
oftheday	-10.0436
¢	-10.0437
▁feelings	-10.044
quality	-10.0442
▁shoot	-10.0442
▁choice	-10.0451
~	-10.0452
▁sa	-10.0453
summeime	-10.0456
calgary	-10.0456
	-10.0458
¦	-10.0458
▁register	-10.0459
▁apparently	-10.0459
happiest	-10.0461
▁spent	-10.0464
tattoo	-10.0466
▁released	-10.0479
▁throw	-10.0481
▁brand	-10.0481
▁remain	-10.0484
here	-10.0486
miss	-10.0495
▁horrible	-10.0508
yr	-10.0514
▁shame	-10.0515
union	-10.0516
▁link	-10.0518
▁john	-10.0522
medies	-10.0529
▁clear	-10.0536
▁killing	-10.0536
nation	-10.0539
dreams	-10.0565
▁played	-10.0578
▁sadly	-10.0581
13	-10.0588
please	-10.0594
dc	-10.0607
▁bike	-10.0613
▁eye	-10.0623
respect	-10.0624
dark	-10.0625
church	-10.0625
freedom	-10.0626
weather	-10.0627
project	-10.0628
▁watched	-10.0642
▁role	-10.0646
15	-10.065
▁product	-10.0663
▁sea	-10.0669
▁ramadan	-10.0673
high	-10.0674
▁space	-10.0683
bo	-10.0695
con	-10.0698
▁tips	-10.0701
htâ	-10.0722
▁france	-10.0722
ko	-10.0739
ocean	-10.075
field	-10.0753
studio	-10.0775
▁25	-10.078
▁festival	-10.0785
▁oil	-10.0787
hispanic	-10.0789
quoteoftheday	-10.0792
loveislove	-10.0792
▁worse	-10.0798
▁brilliant	-10.0803
▁judge	-10.0804
queen	-10.0806
▁woke	-10.082
▁heal	-10.0824
▁michael	-10.0826
▁shift	-10.0826
▁google	-10.0826
waiting	-10.0851
spiritual	-10.0858
▁changes	-10.0893
eng	-10.0917
▁beer	-10.0917
▁taken	-10.0919
▁christmas	-10.0922
dead	-10.0926
bike	-10.0936
hopefully	-10.0948
comedy	-10.0954
games	-10.0954
temple	-10.0958
entrepreneur	-10.0958
color	-10.0959
▁yrs	-10.0961
winter	-10.0968
radio	-10.0969
suppo	-10.0969
disappointed	-10.0971
germany	-10.0971
daily	-10.0972
kid	-10.0977
lovely	-10.098
wtf	-10.0987
▁learning	-10.0999
▁pathetic	-10.1006
choice	-10.1008
▁tea	-10.1009
crying	-10.101
▁chill	-10.1036
training	-10.1048
▁17	-10.1048
▁cream	-10.105
▁boyfriend	-10.1064
ikh	-10.1077
▁per	-10.1092
san	-10.1102
colombia	-10.1103
she	-10.1106
awards	-10.1128
▁notice	-10.113
▁arrive	-10.1131
likeforlike	-10.1134
bouncing	-10.1135
handmade	-10.1135
	-10.1137
▁attention	-10.1139
	-10.1139
	-10.1139
▁sent	-10.1142
▁cock	-10.1143
▁pictures	-10.1144
▁simply	-10.1161
cot	-10.1164
say	-10.1172
▁counting	-10.1179
▁often	-10.1182
▁greatest	-10.1189
▁ending	-10.1201
▁within	-10.1204
▁sing	-10.1206
moments	-10.1208
▁download	-10.1229
▁ka	-10.1233
hat	-10.1236
▁whe	-10.1256
▁affect	-10.1262
▁knowing	-10.1268
▁hang	-10.1294
coach	-10.1297
bloggers	-10.1301
▁flowers	-10.1302
power	-10.132
wisdom	-10.1321
▁troll	-10.1322
ilove	-10.1322
▁material	-10.1322
ku	-10.1326
tragic	-10.1326
countdown	-10.1327
science	-10.1329
▁session	-10.134
see	-10.1348
▁pls	-10.1352
sucks	-10.1372
▁roll	-10.1378
":	-10.1383
hoping	-10.1385
▁surprise	-10.1406
fat	-10.1418
▁brown	-10.1419
again	-10.1446
drinks	-10.1456
▁tool	-10.1457
	-10.1462
▁youth	-10.148
loa	-10.148
▁blame	-10.1481
▁shout	-10.1487
▁fine	-10.1488
blackandwhite	-10.1491
organic	-10.1491
▁response	-10.1491
findingdory	-10.1491
▁press	-10.1492
¥	-10.1496
▁wear	-10.1496
3⁄4	-10.1501
▁mum	-10.1502
▁supposed	-10.1504
astrolog	-10.1504
▁felt	-10.1507
▁powerful	-10.1508
ina	-10.1509
1	-10.151
▁events	-10.1512
	-10.1525
pi	-10.1526
▁nightclub	-10.1526
▁lebron	-10.153
celebration	-10.1532
adventure	-10.1535
▁grimmie	-10.154
▁religion	-10.1543
▁member	-10.1543
mind	-10.1573
▁sat	-10.1579
▁singing	-10.1582
finger	-10.159
▁fab	-10.1592
open	-10.1608
mi	-10.1609
▁dancing	-10.1616
▁nba	-10.1622
▁boss	-10.1631
▁writing	-10.1637
line	-10.1642
▁hotel	-10.1648
hr	-10.1661
▁disappointed	-10.1667
▁germany	-10.1667
▁murder	-10.1669
lake	-10.1672
grace	-10.1681
il	-10.1687
kitty	-10.1691
ireland	-10.1695
journey	-10.1697
history	-10.1699
▁dude	-10.1709
▁loves	-10.1712
moving	-10.1729
long	-10.1729
▁#2	-10.1739
place	-10.174
▁generation	-10.1742
small	-10.1749
▁cards	-10.1755
wi	-10.176
▁songs	-10.1771
..&	-10.1773
▁di	-10.1783
mylife	-10.1791
▁catch	-10.1794
▁pop	-10.1797
?"	-10.1806
▁lil	-10.1807
	-10.1822
ya	-10.1825
▁print	-10.1826
int	-10.1834
▁non	-10.1849
▁protest	-10.1853
▁sunny	-10.1854
▁block	-10.1861
boricua	-10.1862
▁vandalis	-10.1862
wso	-10.1865
middle	-10.1865
	-10.1868
¤	-10.1874
▁wh	-10.1875
amwriting	-10.1876
tweet	-10.1878
▁quick	-10.1879
▁sma	-10.1893
▁imagine	-10.1896
▁accepted	-10.1896
master	-10.1897
▁packing	-10.19
aap	-10.1901
▁possible	-10.1902
chat	-10.191
wellness	-10.1921
▁band	-10.1934
▁collection	-10.1934
soul	-10.1938
▁forgot	-10.1943
▁growing	-10.1944
making	-10.1954
▁english	-10.1959
feelings	-10.1967
▁warm	-10.1968
▁calm	-10.1977
▁praying	-10.1977
▁married	-10.1991
▁touch	-10.1993
▁breaking	-10.1996
▁moon	-10.1998
▁gives	-10.1999
better	-10.2014
eyes	-10.2016
gaming	-10.2024
▁clients	-10.203
▁countdown	-10.2036
▁shi	-10.2036
yum	-10.204
▁pro	-10.2045
▁plans	-10.2052
ni	-10.2053
emotional	-10.2067
horror	-10.2069
passion	-10.2075
chicago	-10.2078
scared	-10.2082
iphone	-10.2082
equality	-10.21
conce	-10.2101
tears	-10.2103
teen	-10.2111
com	-10.2113
smileâ	-10.2133
yo	-10.2137
think	-10.214
ns	-10.2141
▁million	-10.2141
ah	-10.2143
plants	-10.2145
▁mark	-10.2159
▁customers	-10.2161
▁cake	-10.2166
clearly	-10.2169
▁humans	-10.217
ac	-10.217
▁review	-10.2175
away	-10.2176
▁animals	-10.2205
▁apple	-10.2214
▁$	-10.2214
um	-10.2232
inlove	-10.224
weightloss	-10.2246
teambts	-10.2247
¤	-10.2248
▁injured	-10.225
▁usual	-10.2253
▁record	-10.2256
▁login	-10.2261
▁worry	-10.2262
winning	-10.2265
asian	-10.2271
illustration	-10.2272
▁opinion	-10.2275
▁type	-10.2276
▁bitches	-10.2277
west	-10.2281
▁cuz	-10.2281
▁senseless	-10.2284
▁;)	-10.2296
▁disgusting	-10.23
bestfriend	-10.2306
▁orange	-10.2334
▁mins	-10.2351
▁marriage	-10.2361
▁cavs	-10.2371
▁nails	-10.2375
misogyny	-10.2383
gram	-10.2384
▁se	-10.2394
may	-10.2398
turned	-10.2398
▁sh	-10.2399
▁university	-10.2401
▁hatred	-10.2408
▁vibes	-10.2417
lifeâ	-10.2417
▁con	-10.243
end	-10.2439
ham	-10.247
▁shoes	-10.2472
dress	-10.2473
russia	-10.2474
suicide	-10.2475
exercise	-10.2477
nerd	-10.248
hatred	-10.2483
▁wall	-10.2484
after	-10.2484
11	-10.2486
finally	-10.2491
really	-10.2494
learning	-10.2498
▁email	-10.2499
▁host	-10.2506
▁shut	-10.2519
▁fat	-10.2521
shi	-10.2524
▁po	-10.2532
▁calls	-10.2546
▁sit	-10.255
...#	-10.2553
take	-10.2558
care	-10.2561
▁brain	-10.2569
▁politics	-10.258
sleepy	-10.258
problems	-10.2583
list	-10.2583
aâ	-10.2596
room	-10.2597
▁awards	-10.2604
are	-10.2611
bday	-10.2616
▁text	-10.2623
conjuring	-10.2646
▁profile	-10.2646
neverump	-10.2646
▁factory	-10.265
guy	-10.2653
°	-10.2656
£	-10.2657
«	-10.2657
	-10.2661
colour	-10.2662
▁mp	-10.2662
▁adventure	-10.2664
writing	-10.2667
▁ignored	-10.2669
working	-10.2676
▁appreciate	-10.2677
tbh	-10.2678
▁row	-10.2686
▁everywhere	-10.2686
stress	-10.2691
▁afraid	-10.2699
1⁄4	-10.27
▁worked	-10.2702
▁19	-10.2704
▁waste	-10.2705
apps	-10.2706
▁chick	-10.271
birds	-10.2716
▁plan	-10.2718
▁feet	-10.2724
▁lyrics	-10.2733
ship	-10.2735
▁known	-10.2742
▁ladies	-10.2745
keep	-10.2746
if	-10.2755
▁search	-10.2772
▁euro	-10.2776
itting	-10.2781
craft	-10.2795
▁tragic	-10.2804
▁weight	-10.2807
box	-10.2809
justice	-10.2812
ana	-10.2827
▁journey	-10.2828
▁prove	-10.2837
▁facts	-10.2842
gun	-10.2852
mac	-10.2857
pe	-10.2858
▁seem	-10.2867
bed	-10.2879
beard	-10.2884
loving	-10.2891
ass	-10.2891
california	-10.2893
university	-10.2894
shepherd	-10.2897
christmas	-10.2899
pizza	-10.29
something	-10.2901
smh	-10.2902
▁muslims	-10.2915
▁blood	-10.2919
holding	-10.2923
▁result	-10.2924
▁plz	-10.2927
▁lets	-10.2953
▁relationship	-10.2968
▁!!!!	-10.2976
▁client	-10.298
▁total	-10.299
save	-10.2991
there	-10.2992
▁cup	-10.3001
▁pm	-10.3006
▁ho	-10.3008
ced	-10.3022
ba	-10.3035
▁consider	-10.304
▁bus	-10.3058
.06.	-10.3058
coolâ	-10.306
chwandorf	-10.3063
ga	-10.3063
mindfulness	-10.3063
webcam	-10.3065
▁excellent	-10.3067
▁build	-10.307
canada	-10.3072
▁slow	-10.3075
▁fix	-10.308
▁bottle	-10.3081
▁cox	-10.3085
ali	-10.3087
▁centre	-10.3088
▁closer	-10.3089
cha	-10.3094
▁focus	-10.3094
▁alligator	-10.3095
▁fail	-10.3098
▁normal	-10.3101
▁bout	-10.3107
▁society	-10.3116
americans	-10.3118
▁ca	-10.3118
▁door	-10.312
mother	-10.3123
▁christian	-10.3136
author	-10.3136
▁politicians	-10.3138
hotel	-10.3139
books	-10.314
▁yr	-10.314
▁data	-10.3141
▁dr	-10.3141
drink	-10.3161
attack	-10.3165
▁market	-10.3168
picture	-10.3175
head	-10.3182
joke	-10.3186
¦	-10.3194
wd	-10.3197
▁lake	-10.3206
▁graduation	-10.3209
▁relax	-10.321
▁ki	-10.3216
emo	-10.3221
▁movies	-10.3225
▁fed	-10.3229
bless	-10.3231
event	-10.3232
▁telling	-10.3238
bestseller	-10.324
▁emotions	-10.3247
▁san	-10.3252
oh	-10.3261
natural	-10.3287
wwdc	-10.3291
bigotry	-10.3291
.99	-10.3293
▁coach	-10.3299
france	-10.331
humor	-10.3313
ted	-10.3316
local	-10.3318
▁basic	-10.332
▁continue	-10.3322
▁interview	-10.3323
meditation	-10.3325
from	-10.3328
vegas	-10.3334
▁performance	-10.3338
boss	-10.3339
▁blonde	-10.334
lady	-10.3341
camp	-10.3367
▁terrorist	-10.3372
▁level	-10.3377
▁risk	-10.3388
▁idiot	-10.3395
▁knows	-10.3398
edm	-10.3407
▁pl	-10.3434
soon	-10.3436
jo	-10.3445
late	-10.345
¬	-10.3458
	-10.346
▁diet	-10.3466
▁schools	-10.3469
air	-10.3479
throwback	-10.3481
host	-10.3482
▁shootings	-10.3492
jersey	-10.3498
tony	-10.3498
toronto	-10.3498
·	-10.3498
fitfam	-10.3498
▁drive	-10.3499
▁difficult	-10.3499
lifeisgood	-10.35
instapic	-10.35
±	-10.3501
▁unfounately	-10.3504
©	-10.3506
post	-10.3507
spo	-10.3509
	-10.3514
(30	-10.3515
▁king	-10.3517
0	-10.3522
▁seek	-10.3522
▁stars	-10.3522
▁involved	-10.3525
▁govt	-10.3525
	-10.3526
▁negative	-10.3531
▁four	-10.3537
loveyou	-10.354
▁abt	-10.354
▁route	-10.3546
▁mouth	-10.3546
......	-10.3549
▁five	-10.355
youtuber	-10.3552
▁terrible	-10.3557
bff	-10.3559
groom	-10.357
bihdaygirl	-10.3575
▁ignorance	-10.3576
lu	-10.3584
▁dies	-10.3586
▁ten	-10.3592
nothing	-10.3592
»	-10.3593
ball	-10.3597
hâ	-10.3602
2017	-10.3604
▁turning	-10.3606
loser	-10.361
order	-10.361
▁crime	-10.3612
▁clothes	-10.3613
30	-10.3615
student	-10.3622
▁relaxing	-10.3623
▁gop	-10.3624
anne	-10.3633
▁pool	-10.3649
▁hrs	-10.3651
▁leaders	-10.3656
arat	-10.3658
▁nights	-10.3667
nursery	-10.3698
▁vot	-10.3707
vibes	-10.3708
vk	-10.371
bu	-10.3722
▁works	-10.3725
pig	-10.3744
▁rid	-10.3746
▁screen	-10.3747
swag	-10.3754
culture	-10.3762
south	-10.3765
romance	-10.3769
bi	-10.3773
fair	-10.3777
▁government	-10.3778
another	-10.378
peaceful	-10.3781
delicious	-10.3783
rainbow	-10.3785
netflix	-10.3786
poem	-10.3788
▁united	-10.3793
inspired	-10.3793
14	-10.3801
evening	-10.3809
mon	-10.3814
▁cheer	-10.3815
▁sell	-10.3815
▁paner	-10.3816
bf	-10.3818
▁reaction	-10.3818
singer	-10.382
emotions	-10.3821
▁award	-10.3832
et	-10.3837
▁main	-10.3854
▁winner	-10.3857
90	-10.3865
▁fl	-10.3873
19	-10.3893
▁grateful	-10.391
▁goal	-10.3911
shoes	-10.3915
:)	-10.3919
▁pig	-10.393
▁ceain	-10.393
flying	-10.3933
have	-10.3945
porait	-10.3952
luxury	-10.3952
▁attempt	-10.3953
ukhx	-10.3953
blacklivesmatter	-10.3953
wednesdaywisdom	-10.3953
▁wine	-10.3955
¬	-10.3956
emiratis	-10.3956
▁obvious	-10.3956
▁brought	-10.3957
▁etc	-10.3957
writer	-10.3959
holidays	-10.3959
▁materia	-10.396
©	-10.3961
▁al	-10.3961
§	-10.3962
▁common	-10.3964
▁september	-10.3964
scope	-10.3966
▁ugh	-10.3969
sohappy	-10.3973
	-10.3978
▁innocent	-10.3984
▁blocked	-10.3985
▁rally	-10.3986
▁express	-10.3989
▁practice	-10.399
nba	-10.3992
▁surprised	-10.3993
▁return	-10.3995
rest	-10.3998
tb	-10.4004
▁stock	-10.4005
▁em	-10.4007
▁african	-10.4007
▁channel	-10.4018
island	-10.4023
▁bernie	-10.4026
▁bright	-10.4027
▁ali	-10.4028
▁heaven	-10.4031
moon	-10.4046
▁plus	-10.4047
▁texas	-10.4065
▁evil	-10.4066
spain	-10.4079
loss	-10.4092
last	-10.4099
muslim	-10.4101
▁changed	-10.4104
▁hearing	-10.4112
ad	-10.4116
signed	-10.4118
diy	-10.4122
▁anger	-10.4123
▁successful	-10.4123
▁leak	-10.4125
▁vegas	-10.4128
▁continues	-10.4141
dex	-10.4146
bank	-10.4157
▁scared	-10.4159
anniversary	-10.4163
▁sky	-10.417
▁matters	-10.4171
shit	-10.4174
bc	-10.4174
▁lmao	-10.4176
philly	-10.4178
fire	-10.4179
board	-10.4183
ant	-10.4191
▁heas	-10.4193
anger	-10.4216
bts	-10.4218
mc	-10.4224
▁terrorism	-10.4228
spirit	-10.4234
wish	-10.4234
boycott	-10.4245
tokyo	-10.4245
dy	-10.4252
vintage	-10.4255
india	-10.4255
swim	-10.4259
childhood	-10.4259
theatre	-10.4262
graduation	-10.4263
|	-10.4263
married	-10.4264
dancing	-10.4264
golf	-10.4264
tragedy	-10.4265
successful	-10.4266
date	-10.4268
chair	-10.4269
▁pride	-10.4273
town	-10.4275
mylove	-10.4286
ster	-10.4287
▁sunset	-10.4289
sale	-10.4298
followers	-10.4303
▁clinton	-10.4303
▁bill	-10.4306
will	-10.4307
▁island	-10.4309
myself	-10.431
cycling	-10.4311
raw	-10.432
▁bank	-10.4337
▁building	-10.434
▁friendship	-10.4341
di	-10.4356
ck	-10.4358
cy	-10.436
▁bird	-10.4387
▁members	-10.4388
▁remind	-10.4393
israel	-10.4398
still	-10.4401
decor	-10.4403
▁spread	-10.4412
bogota	-10.4428
jeep	-10.443
	-10.443
hollywood	-10.443
¦	-10.4431
¡	-10.4431
lin	-10.4432
▁essential	-10.4433
▁dangerous	-10.4433
▁rhy	-10.4436
§	-10.4436
▁process	-10.4441
bestfriendsday	-10.4441
▁yoga	-10.4442
done	-10.4443
▁anywhere	-10.4444
▁serious	-10.4445
ri	-10.4446
▁spos	-10.4446
▁protect	-10.4446
▁doubt	-10.4448
yellow	-10.4449
▁request	-10.4449
▁beginning	-10.4454
▁somebody	-10.4455
▁across	-10.4457
▁station	-10.4461
id	-10.4463
▁talented	-10.4463
ig	-10.4467
▁updates	-10.4478
▁dropp	-10.4481
gp	-10.4485
▁kingdom	-10.449
ian	-10.4492
▁version	-10.4497
▁asked	-10.45
▁tuned	-10.4503
▁ugly	-10.4506
▁shouldn	-10.4511
▁(@	-10.4512
muk	-10.4515
where	-10.4516
▁humanity	-10.4517
▁male	-10.4521
que	-10.4528
safe	-10.4538
getting	-10.4538
mp	-10.4542
▁fave	-10.4545
▁eve	-10.4551
hood	-10.4562
▁rape	-10.4564
ice	-10.4565
▁asking	-10.457
▁fair	-10.4571
▁posted	-10.4579
fear	-10.458
▁xxx	-10.4587
▁snow	-10.4596
angels	-10.4604
▁noh	-10.4619
made	-10.4624
space	-10.4633
towards	-10.4634
rap	-10.4648
jesus	-10.4656
▁mon	-10.4661
geek	-10.4663
mes	-10.4664
▁speaker	-10.4665
eid	-10.4671
icecream	-10.4679
▁quotes	-10.4687
▁girlfriend	-10.4688
▁pass	-10.4702
▁questions	-10.4704
break	-10.4708
▁ban	-10.4711
▁grand	-10.4716
▁hasn	-10.472
gabb	-10.4723
detox	-10.4724
misogynist	-10.4724
weight	-10.4731
den	-10.4733
islam	-10.4738
▁legend	-10.4744
frustrated	-10.4745
transformation	-10.4745
wife	-10.4751
handsome	-10.4758
voice	-10.4759
kitten	-10.4762
upset	-10.4763
▁)	-10.4765
poor	-10.4774
▁workshop	-10.4784
▁mid	-10.4812
expectations	-10.4829
tion	-10.483
▁healthy	-10.4847
▁vic	-10.4887
18	-10.4887
edit	-10.4913
▁cross	-10.4921
homophobic	-10.4928
lasvegas	-10.4928
electronic	-10.4929
altright	-10.4929
jocox	-10.4929
rugby	-10.4929
socialmedia	-10.493
antonyelchin	-10.4931
	-10.4932
▁except	-10.4933
▁massive	-10.4934
▁attend	-10.4934
	-10.4935
▁effo	-10.4936
▁genuine	-10.4941
▁industry	-10.4941
	-10.4942
▁bigger	-10.4947
drinking	-10.4948
third	-10.4953
ger	-10.4953
	-10.4955
bestfriends	-10.4955
▁drinks	-10.4956
▁knowledge	-10.4958
▁student	-10.4959
▁dying	-10.4959
ley	-10.4965
▁//	-10.4967
▁expected	-10.4972
putins	-10.4974
▁assault	-10.4976
ofthe	-10.4977
▁talent	-10.4979
law	-10.4979
▁agenda	-10.4984
▁figure	-10.4985
▁glass	-10.4991
▁fa	-10.4993
bus	-10.5
▁large	-10.5
wal	-10.5001
caught	-10.5003
▁wearing	-10.5014
▁david	-10.5014
▁rat	-10.5014
▁dj	-10.5017
▁workers	-10.5017
»	-10.5018
▁league	-10.5019
▁advice	-10.5027
need	-10.5028
▁gig	-10.5031
moh	-10.5032
▁spring	-10.5037
▁strength	-10.5043
▁bye	-10.5046
▁tough	-10.5047
snow	-10.5057
▁style	-10.5061
▁kiss	-10.5065
gi	-10.508
low	-10.508
▁princess	-10.5082
▁players	-10.5089
▁90	-10.5103
legend	-10.5107
hug	-10.5107
▁bridge	-10.5107
▁upset	-10.5109
facebook	-10.511
weak	-10.5111
original	-10.5115
treat	-10.5117
▁ended	-10.5127
▁shepherd	-10.5131
word	-10.5135
class	-10.5141
burn	-10.5168
▁finger	-10.5168
▁purpose	-10.517
▁flag	-10.5171
weare	-10.5189
▁area	-10.5197
ka	-10.5219
hype	-10.5221
grow	-10.5226
country	-10.5229
▁situation	-10.5231
ney	-10.5232
glasses	-10.5233
fish	-10.5235
cloud	-10.5237
les	-10.5239
ride	-10.524
▁weak	-10.5249
▁mention	-10.5261
▁cheers	-10.5269
road	-10.527
resistance	-10.527
▁fav	-10.5271
▁photos	-10.5273
ki	-10.5275
search	-10.5276
cafe	-10.5278
office	-10.5283
trust	-10.5286
president	-10.5286
▁cost	-10.5289
hi	-10.5289
creative	-10.5289
▁east	-10.5289
bored	-10.529
everything	-10.5292
someone	-10.5294
bag	-10.5295
shame	-10.5297
▁ideas	-10.5298
woh	-10.5302
▁signs	-10.5302
▁workout	-10.5306
clouds	-10.5312
was	-10.5313
tonight	-10.5314
▁sales	-10.532
▁scene	-10.5341
xoxo	-10.5346
cheers	-10.5347
▁ji	-10.535
▁sis	-10.5352
fa	-10.5359
▁attitude	-10.5367
▁chat	-10.5374
prayers	-10.5376
▁skin	-10.538
▁28	-10.5387
▁200	-10.5397
▁spo	-10.5406
▁pe	-10.5413
rich	-10.5422
▁explain	-10.5431
▁rate	-10.5445
▁nyc	-10.5453
ramadhan	-10.5455
paradise	-10.5455
jpy	-10.5455
niece	-10.5456
japanese	-10.5456
sundayfunday	-10.5457
charity	-10.5457
▁ba	-10.5457
etsy	-10.5457
▁liberal	-10.5458
feelgood	-10.5459
yolo	-10.5459
village	-10.5459
▁details	-10.546
guys	-10.5461
	-10.5462
	-10.5462
▁battle	-10.5463
	-10.5463
«	-10.5463
▁angel	-10.5463
▁proof	-10.5464
▁quite	-10.5466
▁copy	-10.547
	-10.547
▁problems	-10.5474
▁incredible	-10.5477
▁ignore	-10.5477
3	-10.5478
▁??	-10.5486
▁adult	-10.5486
▁driving	-10.5487
▁murdered	-10.5493
eu	-10.5494
han	-10.5496
▁regard	-10.5496
▁posts	-10.5497
404	-10.55
▁chose	-10.5508
sunnyday	-10.551
▁hospital	-10.5512
ja	-10.5514
▁moved	-10.5524
▁global	-10.5526
iam	-10.553
▁celebration	-10.5532
▁airpo	-10.5533
▁wales	-10.5542
its	-10.5548
▁charge	-10.5549
▁indian	-10.5554
▁fasting	-10.5555
▁lying	-10.5557
ors	-10.5565
▁size	-10.557
▁sharing	-10.557
21	-10.557
peri	-10.5578
3⁄4	-10.5579
sho	-10.5588
min	-10.5591
▁actor	-10.5593
▁sold	-10.5594
▁ty	-10.56
gin	-10.5614
▁creative	-10.5624
▁log	-10.5625
smiley	-10.5632
stone	-10.5634
▁theatre	-10.5643
▁books	-10.5644
parent	-10.565
bury	-10.565
▁note	-10.5651
▁netflix	-10.5651
customer	-10.5687
▁cats	-10.5692
cover	-10.5701
rice	-10.571
▁products	-10.5713
▁......	-10.5714
▁jan	-10.5715
▁radio	-10.5716
sh	-10.5717
▁career	-10.5726
ks	-10.5727
mine	-10.5728
5%	-10.5742
▁schedule	-10.5749
▁laws	-10.5751
born	-10.5758
fighting	-10.5761
▁faces	-10.5766
rape	-10.5776
▁rose	-10.578
ville	-10.5782
▁choices	-10.5783
sis	-10.5787
princess	-10.5788
ver	-10.5802
secret	-10.5808
sushi	-10.581
content	-10.5821
▁ga	-10.5822
weird	-10.5832
▁issues	-10.5832
guitar	-10.5835
adorable	-10.5835
motivated	-10.5836
greece	-10.5837
thailand	-10.5837
rose	-10.5838
photographer	-10.5839
▁title	-10.5841
scary	-10.5841
europe	-10.5844
china	-10.5846
marriage	-10.5846
cavs	-10.5846
gorgeous	-10.5846
death	-10.5848
tomorrow	-10.5849
▁aicle	-10.5852
enough	-10.5854
▁candidate	-10.5855
info	-10.5855
calm	-10.5858
▁fell	-10.5859
weeks	-10.5872
▁tattoo	-10.5883
▁driver	-10.5884
warriors	-10.5884
aking	-10.5893
▁anyway	-10.5899
▁gain	-10.59
▁pink	-10.5915
▁returns	-10.5918
ize	-10.5927
▁player	-10.5928
▁fam	-10.593
▁leader	-10.5933
▁brexit	-10.5935
▁defend	-10.5937
▁suck	-10.594
ona	-10.5954
▁mat	-10.5957
▁reveal	-10.596
aud	-10.5977
hill	-10.5979
▁sum	-10.598
▁putt	-10.5993
chi	-10.5994
▁breaks	-10.6
▁cow	-10.6002
▁pull	-10.6005
turkey	-10.601
▁easily	-10.601
▁describe	-10.601
notmypresident	-10.601
guncontrol	-10.601
orlandonightclub	-10.6011
▁lgbt	-10.6016
▁basis	-10.6016
▁indeed	-10.6016
▁education	-10.6018
▁||	-10.6018
acting	-10.6019
starbucks	-10.602
management	-10.6021
	-10.6025
tagsforlikes	-10.6033
prayfor	-10.6037
southafrica	-10.6043
▁table	-10.6043
▁famous	-10.6044
▁hits	-10.6046
euros	-10.6049
▁foods	-10.605
thing	-10.6056
▁yep	-10.6059
rk	-10.6061
==	-10.6063
	-10.6063
▁keshi	-10.6063
magical	-10.6067
▁insane	-10.6068
▁based	-10.607
ale	-10.6071
twitch	-10.6073
▁taste	-10.6076
▁foot	-10.6078
▁becoming	-10.6086
▁pure	-10.6088
▁fox	-10.6095
hrs	-10.6099
▁fabulous	-10.6102
▁paladino	-10.6102
▁cinema	-10.6102
▁asian	-10.6102
via	-10.6104
▁brings	-10.6107
▁leaves	-10.6107
ory	-10.6109
▁makeup	-10.611
▁james	-10.6113
▁progress	-10.6116
bikini	-10.6116
▁heat	-10.6119
▁challenge	-10.6119
papa	-10.6121
▁stronger	-10.6121
▁mini	-10.6128
▁cooking	-10.6135
▁dogs	-10.6143
▁swimming	-10.616
▁bbc	-10.6164
fly	-10.6165
ang	-10.6177
mommy	-10.6186
▁serve	-10.6191
cup	-10.6199
▁jesus	-10.6201
▁buying	-10.6216
amen	-10.6216
▁poem	-10.6223
▁original	-10.6224
cant	-10.6229
▁shower	-10.6232
fu	-10.6239
▁#2017	-10.6244
▁epic	-10.6246
plan	-10.6255
▁magic	-10.6255
thank	-10.626
brother	-10.6261
career	-10.6263
rending	-10.6268
ous	-10.6271
!"	-10.6273
▁holidays	-10.6287
26	-10.6292
pro	-10.6294
▁upload	-10.6297
shake	-10.6306
▁pr	-10.6312
▁results	-10.632
cap	-10.6325
▁shine	-10.6334
▁hahaha	-10.6336
addict	-10.6337
▁bae	-10.6343
=	-10.6376
his	-10.6378
.00	-10.638
▁base	-10.6381
month	-10.6385
set	-10.6387
boat	-10.6393
inspire	-10.6409
barcelona	-10.6409
jewelry	-10.641
vip	-10.6412
irl	-10.6416
▁tag	-10.6419
annoyed	-10.642
ukraine	-10.642
latepost	-10.6421
prince	-10.6424
scotland	-10.6427
bbq	-10.6428
▁option	-10.6429
np	-10.6431
bliss	-10.6431
chocolate	-10.6432
christian	-10.6435
bit	-10.6435
almost	-10.6437
conference	-10.6437
person	-10.6441
silly	-10.6443
about	-10.6444
vs	-10.6444
much	-10.6446
staff	-10.6451
▁lies	-10.6453
▁statement	-10.6457
▁restaurant	-10.6459
▁terror	-10.646
painting	-10.646
call	-10.6494
▁site	-10.6498
cold	-10.6514
▁term	-10.6521
▁value	-10.6521
productive	-10.6537
▁bond	-10.6544
▁kills	-10.6546
wild	-10.6562
▁mall	-10.6578
▁materi	-10.659
note	-10.6592
bird	-10.6594
roses	-10.6597
▁teacher	-10.6597
3⁄4°	-10.6598
brunette	-10.6598
¶	-10.66
digital	-10.6601
▁reject	-10.6603
▁bitcoin	-10.6604
▁wrote	-10.6604
▁countries	-10.6604
▁twice	-10.6604
▁steal	-10.6606
▁himself	-10.6612
▁peeps	-10.6614
▁difference	-10.6614
▁period	-10.6614
▁typical	-10.6614
▁michelle	-10.6614
▁nominee	-10.6614
▁fish	-10.6614
sundaymorning	-10.6615
	-10.6616
pped	-10.6618
▁force	-10.6623
▁honor	-10.6624
▁false	-10.6624
▁impression	-10.6624
▁trash	-10.6624
▁stunning	-10.6625
instacool	-10.6625
▁thx	-10.6627
multiple	-10.6628
	-10.6628
▁credit	-10.6632
▁packed	-10.6634
▁feed	-10.6639
▁ground	-10.6645
▁gr	-10.6647
▁reminder	-10.6649
girlfriend	-10.665
▁haters	-10.6651
100	-10.6652
▁prize	-10.6652
▁downtown	-10.6659
going	-10.6667
1⁄4	-10.6675
▁toward	-10.6691
▁miles	-10.6692
▁(#	-10.6693
▁meal	-10.6694
▁blast	-10.6694
▁crew	-10.6695
pac	-10.6701
▁voters	-10.6703
▁study	-10.6704
▁jack	-10.6705
resources	-10.6707
los	-10.6709
▁cheat	-10.6711
▁none	-10.6715
market	-10.6716
lifehack	-10.672
rainy	-10.6727
▁correct	-10.6731
ending	-10.6733
▁weird	-10.6736
▁bestie	-10.6738
▁goals	-10.6742
shine	-10.6747
▁rules	-10.6755
ee	-10.6757
find	-10.6762
▁write	-10.6772
▁europe	-10.6777
ins	-10.6778
▁1000	-10.6782
▁bl	-10.6797
lic	-10.6804
teacher	-10.6815
▁natural	-10.6819
nightout	-10.682
ern	-10.6826
everyday	-10.6827
beat	-10.6828
▁spain	-10.6829
surprise	-10.6839
▁russia	-10.684
brown	-10.6846
wa	-10.6848
va	-10.685
message	-10.6854
bloody	-10.6854
simple	-10.6863
setting	-10.6867
fruit	-10.687
ji	-10.6872
service	-10.6875
challenge	-10.6875
liar	-10.6889
▁winter	-10.6896
problem	-10.6897
▁oils	-10.6902
lâ	-10.6905
▁las	-10.6906
▁faith	-10.6914
▁punjab	-10.6915
has	-10.6917
mama	-10.6929
▁bare	-10.694
cad	-10.6944
▁bet	-10.6945
link	-10.6947
likes	-10.6972
animation	-10.6984
▁dm	-10.6989
give	-10.6992
bob	-10.7008
▁babies	-10.7009
▁bio	-10.701
▁aist	-10.7017
mini	-10.7018
▁pleasure	-10.7021
▁fellow	-10.7022
launch	-10.7033
inity	-10.7036
balance	-10.7038
friyay	-10.7042
berlin	-10.7042
brighton	-10.7044
unleash	-10.7047
wrong	-10.7049
filter	-10.705
kindness	-10.7052
cnn	-10.7052
mexico	-10.7056
guide	-10.7056
swimming	-10.7057
kiss	-10.7059
piano	-10.7059
clothes	-10.7059
correct	-10.7059
english	-10.7059
stupid	-10.7059
female	-10.7059
crime	-10.706
storm	-10.706
college	-10.706
▁ring	-10.7063
▁excuse	-10.7064
crash	-10.7064
reality	-10.7068
▁venue	-10.7076
parenting	-10.7078
▁whites	-10.7081
colorful	-10.7084
excited	-10.7085
war	-10.7098
bbc	-10.7101
missing	-10.7102
mixed	-10.7105
▁shooter	-10.7108
▁creat	-10.7111
stagram	-10.7111
▁teach	-10.7116
angry	-10.7119
▁comfo	-10.7138
▁carl	-10.7143
▁z	-10.7147
bath	-10.7153
bs	-10.7161
▁burn	-10.7164
double	-10.7166
▁wins	-10.7172
▁path	-10.7172
▁episodes	-10.7181
▁babe	-10.719
▁forecast	-10.7196
▁storm	-10.7206
▁purchase	-10.7207
want	-10.7208
▁republican	-10.7208
▁promote	-10.7211
▁actual	-10.7214
az	-10.7218
fascism	-10.7223
hiphop	-10.7224
gameofthrones	-10.7224
▁plane	-10.7224
vscocam	-10.7224
cricke	-10.7224
annual	-10.7224
roadtrip	-10.7224
mu	-10.7225
acne	-10.7225
·	-10.7226
sweden	-10.7228
	-10.723
	-10.723
▁six	-10.7232
▁research	-10.7235
▁appear	-10.7236
▁kevin	-10.7239
▁classes	-10.7239
▁increase	-10.724
▁address	-10.724
▁gentle	-10.7241
summit	-10.7241
relaxed	-10.7243
▁avoid	-10.7244
£	-10.7247
▁contract	-10.7249
▁impact	-10.7251
▁precious	-10.7251
▁clue	-10.7251
▁fb	-10.7254
▁carry	-10.7255
onthe	-10.7256
karen	-10.7259
human	-10.7261
instahappy	-10.7265
bay	-10.7266
sin	-10.7266
ai	-10.7268
▁lately	-10.727
▁thousands	-10.727
▁tiny	-10.7271
▁allowed	-10.7283
lo	-10.7283
▁ignorant	-10.7284
▁swear	-10.7285
▁anton	-10.729
▁performing	-10.7292
▁delivery	-10.7293
everyone	-10.7293
▁loud	-10.7296
dh	-10.7299
▁dragon	-10.7304
▁code	-10.7305
▁added	-10.7306
▁personali	-10.7313
▁speaking	-10.7313
▁wo	-10.7314
santa	-10.7316
ios	-10.732
▁congress	-10.7327
▁holy	-10.7327
girlâ	-10.7328
▁bay	-10.7332
▁network	-10.7339
xbox	-10.7342
▁milk	-10.7345
▁ny	-10.7351
months	-10.7352
▁isis	-10.7359
1/2	-10.7359
▁studio	-10.7369
▁fully	-10.737
▁cleveland	-10.7371
▁boat	-10.7372
▁balance	-10.7379
fans	-10.7396
▁cast	-10.7405
▁friendly	-10.7405
▁lip	-10.741
lies	-10.7411
ther	-10.742
mike	-10.7422
▁eu	-10.7425
▁cop	-10.7443
final	-10.7444
▁trade	-10.745
za	-10.7451
nails	-10.7478
▁tony	-10.7495
ring	-10.7499
▁sleeping	-10.7507
boom	-10.7514
jive	-10.7515
▁ireland	-10.7516
ab	-10.752
skin	-10.7521
ita	-10.7524
▁science	-10.7527
▁herbal	-10.753
nut	-10.7536
zoo	-10.7548
$	-10.7559
dl	-10.7583
▁info	-10.7584
welcome	-10.7594
mo	-10.7601
nz	-10.7602
▁push	-10.7611
ard	-10.7615
▁pretend	-10.7624
▁hoe	-10.7627
vr	-10.7627
faces	-10.7639
ju	-10.7642
▁stress	-10.7654
▁program	-10.7658
donaldtrump	-10.7666
▁ends	-10.767
▁energy	-10.7676
epic	-10.7677
▁snap	-10.7678
▁interest	-10.7678
suit	-10.7679
▁joe	-10.7683
evil	-10.769
newyear	-10.769
▁fool	-10.77
au	-10.7706
▁aim	-10.7707
sketch	-10.7707
confident	-10.7708
magnet	-10.7709
hawaii	-10.7712
buzz	-10.7715
edinburgh	-10.7717
laughter	-10.7718
potus	-10.7719
▁commercial	-10.7721
▁mail	-10.7721
▁ta	-10.7723
toddler	-10.7723
bernie	-10.7724
texas	-10.7726
ladies	-10.7726
congrats	-10.7727
nny	-10.7729
official	-10.7729
▁mate	-10.7729
three	-10.773
heabreaking	-10.7732
▁chicken	-10.7736
full	-10.7742
bee	-10.7742
▁production	-10.7745
▁yu	-10.7748
▁prepar	-10.7751
▁tune	-10.7752
sofinstagram	-10.7754
▁drug	-10.7758
▁travell	-10.7759
because	-10.7761
▁root	-10.7769
cam	-10.7771
elections	-10.7773
mer	-10.7773
00	-10.7774
▁showing	-10.7784
dr	-10.7792
▁exam	-10.7792
refugees	-10.7793
▁points	-10.7796
▁mi	-10.7807
▁dare	-10.7808
size	-10.7824
▁sisters	-10.7825
dumb	-10.7829
▁election	-10.7846
▁spin	-10.7852
▁perform	-10.7852
·	-10.7866
paint	-10.7868
3⁄4¬	-10.7873
▁window	-10.7875
▁incredibl	-10.7875
gone	-10.7883
▁honest	-10.7885
▁recent	-10.7887
xenophobia	-10.789
adidas	-10.789
carlpaladino	-10.789
mentalhealth	-10.7891
▁definition	-10.7891
▁easier	-10.7891
bbw	-10.7892
blogging	-10.7894
	-10.7894
▁stick	-10.7895
delta	-10.7895
	-10.7895
▁cucumbers	-10.7896
▁argument	-10.7897
held	-10.7897
▁realise	-10.7898
▁consumer	-10.79
▁honestly	-10.7901
feelinggood	-10.7902
	-10.7902
)-	-10.7908
▁alarm	-10.7908
split	-10.7909
	-10.791
retro	-10.7911
finding	-10.7911
▁whil	-10.7912
▁quote	-10.7912
▁finals	-10.7913
urdu	-10.7914
▁disease	-10.7919
▁thru	-10.7919
▁enemy	-10.792
kpop	-10.7921
ella	-10.7923
▁extra	-10.7923
▁noticed	-10.7926
▁reply	-10.7927
sunglasses	-10.7928
▁sight	-10.7928
▁gear	-10.7931
▁horrific	-10.7931
▁hv	-10.7933
▁advance	-10.7943
action	-10.7943
mum	-10.7943
band	-10.7944
presidential	-10.7947
▁crap	-10.7952
▁hockey	-10.7954
▁rainbow	-10.7955
sisters	-10.7956
▁chapter	-10.7957
cut	-10.7962
3	-10.7963
▁grade	-10.7972
dia	-10.7974
▁hide	-10.798
▁hump	-10.7983
▁planet	-10.7986
ature	-10.7989
▁standing	-10.8
▁60	-10.8004
▁learned	-10.8015
	-10.8024
▁quiet	-10.8025
noh	-10.8025
▁international	-10.8026
unhappy	-10.8026
▁drops	-10.8031
▁drunk	-10.8036
▁kitchen	-10.8036
▁hashtag	-10.804
▁goodbye	-10.8048
exchange	-10.8048
▁thi	-10.8058
):	-10.8062
▁mental	-10.8076
▁toddler	-10.8076
▁:/	-10.8079
▁development	-10.8079
▁laughing	-10.8079
▁ep	-10.8083
▁bliss	-10.8085
▁woohoo	-10.8087
▁papa	-10.8098
▁yea	-10.8107
▁27	-10.8108
▁director	-10.8109
tshi	-10.8114
▁bored	-10.8126
▁26	-10.8127
mr	-10.8131
italian	-10.8134
▁radical	-10.8134
colors	-10.8135
ria	-10.8136
!!!!!!!	-10.8143
▁warriors	-10.8158
kill	-10.8162
try	-10.8166
▁bih	-10.8169
▁singer	-10.8172
▁terrorists	-10.8172
gate	-10.8178
▁minds	-10.8178
▁escape	-10.819
milo	-10.8196
ition	-10.8208
thebest	-10.8211
ask	-10.8239
▁crack	-10.8241
herbal	-10.825
present	-10.8254
▁"#	-10.8255
▁fit	-10.8273
republican	-10.8275
babe	-10.828
▁paris	-10.8283
nazi	-10.8285
bye	-10.8285
▁euros	-10.8292
▁apa	-10.8296
yet	-10.8296
▁su	-10.8301
▁sessions	-10.8302
fact	-10.8302
some	-10.8305
bestie	-10.8314
plus	-10.8323
▁hungry	-10.8326
rocks	-10.8329
▁bags	-10.8331
pre	-10.8333
tu	-10.8344
ugh	-10.8348
fi	-10.8352
kinda	-10.8359
▁decid	-10.8366
butterfl	-10.8366
bali	-10.8375
network	-10.8382
luv	-10.8395
▁:'	-10.8395
study	-10.8407
gen	-10.8408
left	-10.8409
horse	-10.8409
▁mode	-10.841
caturday	-10.8416
▁sucks	-10.8417
▁discover	-10.8417
▁mis	-10.8425
fascist	-10.8427
satisfied	-10.8429
__	-10.843
corruption	-10.8432
lovemylife	-10.8432
sydney	-10.8433
▁sneak	-10.8434
hack	-10.8434
cheese	-10.8435
recipe	-10.8436
character	-10.8436
cleveland	-10.8438
army	-10.8438
attitude	-10.8438
orange	-10.8439
strength	-10.8439
wakeup	-10.844
poland	-10.8441
▁location	-10.8441
giving	-10.8442
wonderful	-10.8443
▁af	-10.8445
▁exist	-10.8446
maybe	-10.8447
italy	-10.8449
angeles	-10.845
racist	-10.8452
sand	-10.8457
op	-10.846
isation	-10.8461
isis	-10.8463
review	-10.8464
zy	-10.8468
flight	-10.8469
glam	-10.847
robe	-10.8473
blessings	-10.8478
▁provide	-10.8479
▁dick	-10.8484
pc	-10.8485
ife	-10.8487
williams	-10.8501
bel	-10.8501
▁victim	-10.8506
▁gla	-10.8508
fantasy	-10.8508
grad	-10.8516
walking	-10.8522
fc	-10.8544
freaking	-10.8546
▁.....	-10.8547
▁retail	-10.8552
▁destroy	-10.8552
pug	-10.856
▁colors	-10.856
▁gator	-10.8563
ci	-10.8571
▁comic	-10.8572
▁names	-10.8573
▁nigeria	-10.8596
▁excit	-10.8599
aught	-10.8603
▁relevant	-10.8604
cosmetics	-10.8604
nomnom	-10.8604
weddingplanning	-10.8605
peppa	-10.8605
¦	-10.8605
▁utter	-10.8606
¡	-10.8606
▁raise	-10.8607
▁shall	-10.8608
	-10.8609
eye	-10.8609
©	-10.861
§	-10.8611
▁yelchin	-10.8611
▁plenty	-10.8611
pregnant	-10.8612
▁enter	-10.8612
▁demand	-10.8613
	-10.8613
▁suspend	-10.8614
	-10.8616
monsoon	-10.8616
goodmood	-10.8617
▁pack	-10.8618
▁anybody	-10.8622
goodluck	-10.8623
▁obsessed	-10.8624
▁massacre	-10.8624
▁btw	-10.8626
▁debate	-10.8626
1	-10.8628
▁introduc	-10.8633
	-10.8635
▁april	-10.8636
▁military	-10.8636
▁silence	-10.8636
▁general	-10.8636
wo	-10.8638
▁remove	-10.8638
▁sadness	-10.864
bra	-10.8641
▁remarks	-10.8642
adventures	-10.8644
1⁄4	-10.8645
▁reso	-10.8645
▁frank	-10.8649
▁hubby	-10.8649
▁computer	-10.8649
loveisland	-10.8651
▁among	-10.8653
bestoftheday	-10.8657
▁delivered	-10.8658
▁interesting	-10.8658
▁dat	-10.866
▁basketball	-10.8661
▁giant	-10.8663
▁soft	-10.8663
shoutout	-10.8664
▁fri	-10.8666
loveher	-10.8669
ate	-10.8671
▁complain	-10.8671
▁cancel	-10.8674
▁swift	-10.8677
▁classic	-10.8683
".	-10.8687
quotestags	-10.8687
▁10%	-10.8687
crooked	-10.8696
▁agreed	-10.8698
▁jealous	-10.8699
kindle	-10.87
	-10.8704
▁bound	-10.8706
jokes	-10.8708
▁blacks	-10.8712
▁fired	-10.8713
▁draw	-10.8721
ashiq	-10.8723
selflove	-10.8726
ties	-10.873
▁binge	-10.8737
▁mexican	-10.8737
▁salad	-10.8737
▁lazy	-10.8737
	-10.8739
▁connect	-10.8742
ary	-10.8742
?!?	-10.8747
▁podcast	-10.8749
ress	-10.875
▁bother	-10.875
bur	-10.8758
▁comb	-10.8762
▁paul	-10.8764
▁movement	-10.8767
▁whoop	-10.8775
fm	-10.8778
▁matt	-10.8779
kat	-10.8792
mummy	-10.8792
pets	-10.8801
feels	-10.8811
fingers	-10.8811
▁chocolate	-10.8814
40	-10.8818
▁poster	-10.8819
▁rn	-10.882
▁mama	-10.8822
▁scum	-10.8824
connect	-10.8824
pol	-10.8826
▁stoppe	-10.8829
▁itself	-10.8831
marij	-10.8834
▁rich	-10.8836
actors	-10.8838
disgusted	-10.8841
▁hugs	-10.8845
▁acts	-10.8858
rin	-10.886
▁hat	-10.8867
manga	-10.8869
watching	-10.8875
punt	-10.8881
even	-10.889
▁access	-10.89
early	-10.8901
▁emails	-10.8901
▁q	-10.8912
▁emotional	-10.8919
▁chicago	-10.893
▁gang	-10.8931
▁solve	-10.8935
▁animal	-10.8946
palm	-10.8946
▁ig	-10.8951
▁lee	-10.8962
▁dumb	-10.8964
▁bo	-10.8971
write	-10.8972
nc	-10.8977
ten	-10.8978
▁trans	-10.8985
▁jobs	-10.9
mic	-10.9
ized	-10.9004
babygirl	-10.9005
zara	-10.9012
▁cares	-10.9032
▁smoke	-10.9036
1%	-10.9037
▁seconds	-10.9049
step	-10.9051
wait	-10.9052
led	-10.9053
lee	-10.9057
otd	-10.9065
▁teens	-10.9066
▁#6	-10.907
▁form	-10.9074
▁paying	-10.9083
ought	-10.9088
▁puppy	-10.9118
▁treats	-10.912
70	-10.9132
use	-10.9136
nutrition	-10.9138
aloha	-10.9141
nike	-10.9143
mar	-10.9144
▁com	-10.9146
learn	-10.915
lemans	-10.9153
resist	-10.9161
warnu	-10.9163
▁rights	-10.9164
wetter	-10.9167
cause	-10.9168
uana	-10.9173
brand	-10.9174
su	-10.9175
fight	-10.9178
sound	-10.9179
▁includ	-10.9181
ating	-10.9186
anxious	-10.9186
africa	-10.9193
runner	-10.9194
paul	-10.9195
hamilton	-10.9196
madrid	-10.9197
▁gi	-10.9198
pharrell	-10.9199
android	-10.9199
moto	-10.9201
enteainment	-10.9202
massage	-10.9202
unbelievable	-10.9203
▁field	-10.9204
mobile	-10.9205
kitchen	-10.9207
drunk	-10.9207
movement	-10.9207
john	-10.9208
sharing	-10.9208
remain	-10.9208
honey	-10.921
front	-10.921
group	-10.9211
families	-10.9211
buffalo	-10.9212
before	-10.9212
hashtag	-10.9213
goodbye	-10.922
▁drop	-10.9221
bae	-10.9224
brain	-10.9229
▁sub	-10.9229
online	-10.9234
27	-10.9237
must	-10.9243
▁seven	-10.9244
▁swing	-10.9245
▁mil	-10.9248
lc	-10.925
rolling	-10.9261
wishing	-10.9263
did	-10.9268
ey	-10.9268
thinking	-10.9271
ima	-10.9276
falls	-10.9284
fra	-10.9285
yoy	-10.9286
▁semi	-10.9295
map	-10.9297
▁tech	-10.9302
▁mirror	-10.9311
grann	-10.9324
▁li	-10.9325
under	-10.9327
49	-10.9328
▁ti	-10.933
wc	-10.9341
ea	-10.9344
pie	-10.9346
▁deliver	-10.9346
fohe	-10.9353
shore	-10.9356
og	-10.9356
▁inspiration	-10.936
▁mix	-10.9367
▁shock	-10.9371
▁35	-10.9372
▁spot	-10.9372
▁dust	-10.9373
amarinder	-10.9374
orangeisthenew	-10.9374
pougal	-10.9374
iqbal	-10.9374
pulsenightclub	-10.9374
bbuk	-10.9374
possibility	-10.9374
glasto	-10.9374
▁vendor	-10.9374
necklace	-10.9374
corporate	-10.9374
3⁄4¬	-10.9374
comingsoon	-10.9375
gemini	-10.9375
letsgo	-10.9375
drake	-10.9376
infographic	-10.9376
houston	-10.9376
▁shoe	-10.9377
«	-10.9381
▁nowadays	-10.9381
longhair	-10.9382
katie	-10.9383
used	-10.9384
	-10.9384
▁loose	-10.9385
▁jump	-10.9386
▁tale	-10.9387
▁confirmed	-10.939
candy	-10.9391
▁blind	-10.9393
▁expensive	-10.9394
▁embrace	-10.9396
▁roof	-10.9396
¬	-10.9396
▁hath	-10.9397
wasi	-10.9398
▁trailer	-10.9398
skinny	-10.9403
▁decades	-10.9406
apa	-10.9408
▁denial	-10.9409
relaxing	-10.941
000	-10.941
▁afford	-10.9412
▁playlist	-10.9412
▁bitter	-10.9419
▁failed	-10.9419
▁tradition	-10.9421
▁policy	-10.9421
▁delayed	-10.9422
doodle	-10.9423
▁excitement	-10.9424
lion	-10.9425
▁condolences	-10.9427
	-10.9428
windows	-10.9432
▁somewhere	-10.9432
▁à	-10.9434
▁interested	-10.9436
▁stephen	-10.9436
venu	-10.9437
▁painting	-10.9438
customers	-10.944
ial	-10.9443
	-10.9443
▁forgotten	-10.9445
▁ke	-10.9447
▁library	-10.9448
▁praise	-10.9449
▁curry	-10.945
▁recovery	-10.9451
▁gf	-10.9455
leather	-10.9457
	-10.9457
▁independent	-10.9457
▁former	-10.946
▁regret	-10.9462
▁stark	-10.9465
▁wasted	-10.9467
▁created	-10.947
▁belong	-10.9477
selling	-10.9482
pt	-10.9486
▁competition	-10.949
▁position	-10.9491
▁lookin	-10.9493
salute	-10.9501
ler	-10.9501
du	-10.9501
▁seats	-10.9503
▁russian	-10.9504
wear	-10.951
▁british	-10.9517
▁alex	-10.9519
▁gov	-10.9519
▁buddy	-10.952
▁george	-10.9525
▁completed	-10.9529
▁nor	-10.9529
▁arms	-10.9532
hanging	-10.9539
ye	-10.9541
hand	-10.9542
▁49	-10.9544
▁christ	-10.9548
funday	-10.9549
▁shocked	-10.9555
▁character	-10.9558
far	-10.956
▁jim	-10.9562
des	-10.9571
▁arm	-10.9572
▁laughter	-10.9573
ical	-10.9578
▁master	-10.9579
▁heabreaking	-10.9586
▁piano	-10.9586
▁mexico	-10.9587
▁terms	-10.9589
gotten	-10.959
ter	-10.9592
lift	-10.9598
¥#	-10.9599
cars	-10.9603
ner	-10.9612
▁relate	-10.9623
▁ran	-10.9631
▁gb	-10.9641
▁teams	-10.9642
bility	-10.9646
▁golf	-10.9656
▁wood	-10.9662
ky	-10.9668
▁exams	-10.968
▁prob	-10.9693
▁checked	-10.9697
obs	-10.9701
▁ally	-10.9706
▁millions	-10.9709
▁dan	-10.9713
ber	-10.9713
▁liberals	-10.9715
-200	-10.9728
▁flat	-10.9733
traveling	-10.9736
outdoors	-10.9741
▁adam	-10.9749
ek	-10.9761
▁flower	-10.9764
▁ps	-10.9769
main	-10.9785
▁actions	-10.9794
▁plays	-10.9796
▁bts	-10.9801
tic	-10.9802
lv	-10.9809
▁fitness	-10.9811
nite	-10.9813
▁ft	-10.9816
ak	-10.982
stage	-10.9821
fab	-10.9824
traitor	-10.9834
▁iphone	-10.9835
canadian	-10.9854
bir	-10.9856
▁ni	-10.9857
fam	-10.9867
leave	-10.9873
che	-10.9876
▁kicks	-10.9884
lovers	-10.989
comics	-10.9897
▁ale	-10.9902
▁gold	-10.9912
▁wi	-10.9924
phone	-10.9926
pakistan	-10.9931
▁colour	-10.9933
▁bell	-10.9936
vie	-10.9937
▁70	-10.994
▁random	-10.9941
▁selfies	-10.9943
wheel	-10.9945
▁cm	-10.9947
▁sc	-10.9957
check	-10.9958
draw	-10.9971
wealth	-10.9978
▁spark	-10.9978
plant	-10.999
▁jokes	-10.999
▁bath	-10.9991
▁handle	-10.9992
milk	-10.9995
international	-11.0001
▁ad	-11.0002
bitch	-11.0003
any	-11.0004
▁mess	-11.0012
listen	-11.0013
▁ro	-11.0015
singapore	-11.002
nashville	-11.002
purpose	-11.002
heaven	-11.0022
aldub	-11.0022
puppet	-11.0026
romantic	-11.003
brunch	-11.0032
drive	-11.0032
deep	-11.0033
clothing	-11.0033
▁smell	-11.0034
stoked	-11.0034
johnny	-11.0035
▁steps	-11.0037
boston	-11.0037
central	-11.0038
podcast	-11.0039
quiet	-11.004
advice	-11.0041
collection	-11.0043
internet	-11.0044
political	-11.0044
afternoon	-11.0044
fake	-11.0045
police	-11.0045
▁pair	-11.0047
shocked	-11.0048
remember	-11.0048
▁harm	-11.005
▁80	-11.0058
hero	-11.006
▁language	-11.0061
cooking	-11.0062
▁announcement	-11.0069
▁views	-11.0072
security	-11.0076
available	-11.0077
▁highlight	-11.0087
▁center	-11.0095
flow	-11.0101
boo	-11.0103
▁sp	-11.0107
forward	-11.0114
matters	-11.0115
▁lu	-11.0115
page	-11.0128
▁truck	-11.0132
▁abuse	-11.0136
▁hole	-11.0137
▁crowd	-11.0145
li	-11.0148
witter	-11.015
▁groups	-11.0156
ric	-11.0158
hicks	-11.0165
▁pc	-11.0172
▁discuss	-11.0173
rc	-11.0174
▁prevent	-11.0174
had	-11.018
ul	-11.0182
▁ruin	-11.0183
fringe	-11.0183
▁ku	-11.0185
▁mobile	-11.0185
gig	-11.0188
vi	-11.0188
dogsof	-11.0189
suicid	-11.0195
▁dc	-11.0196
:(	-11.0196
eah	-11.0202
pokemon	-11.0204
gifts	-11.0205
abraham	-11.0207
kejriwal	-11.0207
namaste	-11.0207
pencil	-11.0207
teamsuperjunior	-11.0207
ottawa	-11.0207
▁perhaps	-11.0207
coldplaywembley	-11.0207
thinkbigsun	-11.0207
yyc	-11.0207
starwars	-11.0207
realestate	-11.0207
accessories	-11.0207
grumpy	-11.0208
strawberry	-11.0208
premium	-11.0208
¢	-11.0208
skincare	-11.0211
▁suffer	-11.0212
°	-11.0213
hell	-11.0214
democratic	-11.0214
ymouth	-11.0215
▁fault	-11.0215
▁lmfao	-11.0215
▁potential	-11.0215
▁routine	-11.0215
▁example	-11.0215
▁desire	-11.0215
▁distance	-11.0215
▁planned	-11.0216
	-11.0216
▁laptop	-11.0216
▁min	-11.0216
▁scream	-11.0219
move	-11.022
▁admit	-11.022
▁cried	-11.0221
verage	-11.0221
¤	-11.0223
foto	-11.0224
▁gays	-11.0224
nomore	-11.0224
¤	-11.0225
buy	-11.0225
stopthe	-11.0225
▁trouble	-11.0227
▁rational	-11.0227
▁slowly	-11.0229
▁november	-11.0229
▁choosing	-11.023
▁incident	-11.023
▁bunch	-11.023
▁awful	-11.023
▁witness	-11.0231
▁100%	-11.0231
▁faster	-11.0231
instamoment	-11.0233
▁somehow	-11.0234
status	-11.0236
nzd	-11.0238
dayoff	-11.0238
marine	-11.024
▁violent	-11.0244
▁soo	-11.0244
ned	-11.0244
▁appreciation	-11.0245
▁changing	-11.0246
▁systemic	-11.0247
▁knock	-11.0248
1⁄4	-11.025
	-11.0251
burst	-11.0252
east	-11.0255
▁independence	-11.0259
	-11.026
them	-11.0261
▁attending	-11.0262
▁passing	-11.0264
▁rough	-11.0267
▁announced	-11.0268
▁ruined	-11.0268
adult	-11.0268
candles	-11.0271
royals	-11.0272
▁floor	-11.0274
▁genocide	-11.0274
▁racial	-11.0274
▁lawyer	-11.0274
mark	-11.0276
▁shark	-11.0276
▁odd	-11.0277
▁yall	-11.0278
george	-11.0278
▁stone	-11.028
ery	-11.0281
▁speed	-11.0282
▁sandy	-11.0282
▁reunited	-11.0282
determined	-11.0284
▁xoxo	-11.0284
▁model	-11.0284
▁referendum	-11.0288
▁inspiring	-11.0289
▁higher	-11.029
▁woo	-11.0291
▁lied	-11.0291
▁cloud	-11.0301
▁ridiculous	-11.0303
▁funeral	-11.0303
▁ashamed	-11.0307
▁zone	-11.0307
▁memory	-11.0307
▁menu	-11.0311
▁beside	-11.0312
▁delighted	-11.0313
same	-11.0317
▁officers	-11.0317
▁oppounity	-11.0318
lou	-11.0322
▁closed	-11.0325
araz	-11.0326
▁awake	-11.0328
▁depressing	-11.0333
gayboy	-11.0334
▁golden	-11.0335
▁wise	-11.0336
▁manchester	-11.0337
safety	-11.0338
▁manager	-11.0339
eve	-11.0345
buddy	-11.0352
▁shocking	-11.0354
bridge	-11.0362
▁falling	-11.0365
▁jackson	-11.0365
▁lay	-11.0366
▁french	-11.0366
edc	-11.0376
▁wit	-11.0376
▁security	-11.0378
lab	-11.038
▁badly	-11.0383
▁anxiety	-11.0383
▁africa	-11.0385
▁nose	-11.0386
▁anal	-11.0389
▁jews	-11.0395
1⁄4	-11.0398
▁wings	-11.0411
▁recipe	-11.0411
▁poland	-11.0411
▁skills	-11.0413
▁lit	-11.0414
ish	-11.0414
▁italy	-11.0415
▁outfit	-11.0415
▁luv	-11.0418
▁web	-11.0419
▁robe	-11.0419
enjoylife	-11.042
▁rule	-11.0421
movies	-11.0422
▁ja	-11.0423
ated	-11.0429
goodlife	-11.0431
▁raining	-11.0433
▁xbox	-11.0437
ink	-11.0442
▁candidates	-11.0457
▁silly	-11.0457
▁ra	-11.0457
▁par	-11.0467
togo	-11.0468
▁killer	-11.0468
asia	-11.0469
▁shake	-11.0476
lets	-11.0477
trans	-11.0478
fever	-11.0479
fbi	-11.0479
▁bride	-11.048
▁camping	-11.0484
▁blessings	-11.0488
ris	-11.0489
poli	-11.0492
▁gains	-11.0494
ipad	-11.0498
friendsâ	-11.05
cards	-11.0504
▁pleased	-11.0507
▁funday	-11.0511
▁owner	-11.0518
▁leg	-11.0534
▁#30	-11.0543
ied	-11.0543
grand	-11.0553
▁pas	-11.0554
▁california	-11.0562
ppy	-11.0563
▁grace	-11.0564
▁doors	-11.0573
tobe	-11.0586
▁coz	-11.0611
ala	-11.0621
▁wisdom	-11.0624
homemade	-11.0626
▁upon	-11.0639
meme	-11.0639
ette	-11.0646
epp	-11.0649
▁tip	-11.0658
aa	-11.0659
ec	-11.0662
▁confused	-11.0678
erâ	-11.068
hours	-11.0684
▁inc	-11.0699
cho	-11.0707
beyou	-11.0711
▁brave	-11.0712
pr	-11.0713
mal	-11.0724
.......	-11.0726
ace	-11.0734
freak	-11.0736
▁spa	-11.074
▁demo	-11.0742
▁ages	-11.0744
value	-11.0749
sounds	-11.0755
▁heabroken	-11.0757
husband	-11.0758
bring	-11.0759
ut	-11.0773
election	-11.078
client	-11.078
▁hug	-11.0781
sday	-11.0791
ml	-11.0802
prayer	-11.0803
mix	-11.0826
▁react	-11.083
ser	-11.0838
▁bob	-11.084
rude	-11.0846
lifeis	-11.0846
control	-11.087
▁22	-11.0871
cali	-11.0872
musical	-11.0873
sos	-11.0879
cro	-11.0881
interior	-11.0887
glastonbury	-11.0888
fundrais	-11.089
▁allah	-11.0896
visit	-11.0899
stock	-11.0901
ez	-11.0902
▁ko	-11.0905
▁led	-11.0909
cape	-11.091
mont	-11.0914
▁improve	-11.0915
mcdonald	-11.0918
soundcloud	-11.0918
pissed	-11.0919
solo	-11.0919
▁pageant	-11.092
per	-11.0921
jump	-11.0923
▁japan	-11.0926
▁gel	-11.0926
metal	-11.0927
dna	-11.0928
jack	-11.0929
lgbtq	-11.0932
▁contact	-11.0935
▁piss	-11.0935
tumblr	-11.0935
ol	-11.0936
vinyl	-11.0939
marathon	-11.0939
paper	-11.094
soccer	-11.0941
fraud	-11.0942
sexual	-11.0942
mid	-11.0943
iloveyou	-11.0943
amsterdam	-11.0943
disneyland	-11.0946
monkey	-11.0946
desperate	-11.0947
british	-11.0948
producer	-11.0948
teeth	-11.0948
mexican	-11.0949
jackson	-11.0949
amazon	-11.0949
salad	-11.0949
french	-11.0949
progress	-11.095
boring	-11.095
mode	-11.095
lazy	-11.095
league	-11.095
wards	-11.0951
ignorance	-11.0951
download	-11.0952
congratulations	-11.0952
humanity	-11.0953
james	-11.0953
release	-11.0955
around	-11.0956
clock	-11.0956
novel	-11.0958
suppoers	-11.0959
easy	-11.0962
▁#5	-11.0964
!!!!!!	-11.0966
▁suit	-11.0966
racing	-11.0968
busy	-11.0974
mask	-11.0978
jet	-11.0978
▁mistake	-11.0981
▁lesson	-11.0987
▁score	-11.0987
▁lines	-11.099
doll	-11.1004
▁lifestyle	-11.1005
ze	-11.1008
cutie	-11.101
gardening	-11.1011
talks	-11.1013
camping	-11.1021
pll	-11.1025
vo	-11.1027
▁logic	-11.1027
▁tick	-11.1031
▁fe	-11.1031
▁bomb	-11.1033
sch	-11.1034
▁48	-11.1036
▁drama	-11.1038
▁chris	-11.1054
toy	-11.1054
rat	-11.106
hub	-11.1061
van	-11.1061
heworld	-11.1062
▁bi	-11.1069
▁hook	-11.1078
graphic	-11.1078
cr	-11.1086
▁revolution	-11.1087
praying	-11.109
▁repeat	-11.1091
peopl	-11.1101
▁tree	-11.1103
▁range	-11.1109
youth	-11.1112
purple	-11.1114
daywithmarsha	-11.1116
galaxy	-11.1116
gandhi	-11.1116
▁industrial	-11.1116
▁policies	-11.1116
mentalillness	-11.1116
euref	-11.1116
jazz	-11.1116
msnbc	-11.1116
dogsarejoy	-11.1116
▁rebecca	-11.1116
povey	-11.1116
philippines	-11.1117
sitges	-11.1117
▁declare	-11.1117
boutique	-11.1117
kylie	-11.1118
lewis	-11.1118
jewellery	-11.1118
▁endorse	-11.1118
phy	-11.1119
▁internalize	-11.112
xboxone	-11.112
▁msg	-11.112
80	-11.1121
dogsofinstagram	-11.1121
▁wheel	-11.1121
demo	-11.1122
▁teaser	-11.1122
▁sake	-11.1122
lounge	-11.1124
goodread	-11.1124
▁yup	-11.1125
audio	-11.1125
▁neighbour	-11.1125
▁convince	-11.1125
▁pitch	-11.1127
▁anthem	-11.1127
▁extend	-11.113
hay	-11.1135
leaf	-11.1137
▁written	-11.1141
▁documentary	-11.1141
▁constitution	-11.1142
battlefield	-11.1143
	-11.1143
▁quickly	-11.1143
laura	-11.1144
▁destroyed	-11.1147
▁mary	-11.1147
chester	-11.1148
hulk	-11.1149
▁purchased	-11.1152
worldocea	-11.1153
lovinglife	-11.1153
	-11.1154
minecraft	-11.1156
▁effect	-11.1156
1⁄4	-11.1157
▁advocate	-11.1157
▁domestic	-11.1157
▁bottom	-11.1157
▁enemies	-11.1157
▁valley	-11.1157
▁censorship	-11.1157
▁label	-11.1158
two	-11.1158
▁fuel	-11.116
kong	-11.1162
▁hating	-11.1164
facts	-11.1165
▁mateen	-11.1167
quanti	-11.1167
▁replace	-11.1167
▁cheap	-11.1168
motivational	-11.1169
wellbeing	-11.117
▁reflections	-11.1171
taylor	-11.1171
▁flash	-11.1173
classic	-11.1174
▁23	-11.1175
▁citizens	-11.1179
▁mt	-11.118
australian	-11.1184
catcher	-11.1184
	-11.1187
▁amount	-11.1191
▁european	-11.1192
▁fruit	-11.1196
warm	-11.1197
▁hrc	-11.12
rad	-11.1201
vape	-11.1204
▁responsib	-11.1206
▁popular	-11.1206
▁draft	-11.1213
denim	-11.1215
▁korea	-11.1216
ridge	-11.1217
▁direction	-11.1221
▁idk	-11.1232
backto	-11.1234
ware	-11.1236
▁illegal	-11.1237
bro	-11.1238
▁democracy	-11.1239
▁habit	-11.124
▁worship	-11.124
▁repoer	-11.1243
▁weekends	-11.1246
▁button	-11.1246
▁coldplay	-11.1247
▁prison	-11.1255
▁signing	-11.1257
seek	-11.1258
▁trails	-11.1264
▁finale	-11.1269
▁gender	-11.1272
▁confidence	-11.1272
stag	-11.1272
▁grandpa	-11.1273
biz	-11.1282
▁sexual	-11.1288
▁boring	-11.1289
▁desperate	-11.1289
sales	-11.1289
▁hus	-11.1298
▁tupac	-11.1304
▁central	-11.1305
cove	-11.1306
▁dans	-11.1312
shining	-11.1323
weed	-11.1334
ado	-11.1338
ite	-11.1344
▁ego	-11.1362
tterwarnu	-11.1368
▁pit	-11.1369
▁filter	-11.1372
▁guide	-11.1373
assy	-11.1374
▁featur	-11.1378
ufc	-11.1381
▁plant	-11.1384
▁ju	-11.1388
▁unhappy	-11.1394
cc	-11.1397
▁scenes	-11.1407
▁williams	-11.1409
▁scary	-11.1409
diva	-11.1418
bang	-11.1422
▁mommy	-11.1424
▁leading	-11.143
▁spirit	-11.1432
▁canadian	-11.1441
▁traveling	-11.1447
▁visiting	-11.1458
▁childhood	-11.1458
▁levels	-11.147
▁gifts	-11.1471
▁alt	-11.1472
▁delicious	-11.1474
number	-11.1485
▁looki	-11.1503
▁wing	-11.1505
pole	-11.1507
crafts	-11.1512
ok	-11.152
▁exercise	-11.1528
tai	-11.1528
ise	-11.1534
ph	-11.1539
▁passion	-11.1544
ics	-11.1549
▁justice	-11.1552
▁kitty	-11.156
▁idiots	-11.1562
▁cars	-11.1564
▁99	-11.1577
--	-11.1578
ou	-11.1595
uring	-11.1597
david	-11.1606
yeah	-11.1608
cast	-11.1632
▁secrets	-11.1641
▁respond	-11.1642
rick	-11.1657
▁bt	-11.1664
empower	-11.1685
eezy	-11.1692
angel	-11.1692
fr	-11.1705
shot	-11.1706
▁pet	-11.1709
mission	-11.1712
▁suppos	-11.172
oo	-11.1721
▁ker	-11.1728
hrowbackthursday	-11.173
gator	-11.173
spa	-11.1737
beats	-11.1738
gar	-11.1741
tley	-11.1744
sma	-11.1746
▁flights	-11.1746
farmers	-11.1751
letsdo	-11.1756
-)	-11.1763
ping	-11.1768
ban	-11.177
personal	-11.1771
cousin	-11.1773
winner	-11.1774
▁yummy	-11.1789
pos	-11.1792
▁fashion	-11.1799
needa	-11.1806
sign	-11.1807
ran	-11.1823
cent	-11.183
ities	-11.1835
▁blues	-11.1838
fâ	-11.1843
ill	-11.1844
yesterday	-11.1845
▁switch	-11.1855
▁chip	-11.186
speak	-11.1861
thought	-11.1862
pix	-11.1867
card	-11.1868
pub	-11.1872
**	-11.1873
duck	-11.1879
ped	-11.188
bollywood	-11.189
wattpad	-11.189
capture	-11.1891
▁invite	-11.1893
ology	-11.1894
kareem	-11.1894
photoshoot	-11.1896
motivate	-11.1902
bash	-11.1902
eating	-11.1903
ime	-11.1907
smoke	-11.1909
▁brothers	-11.1913
ons	-11.1915
▁speaks	-11.1919
▁sweat	-11.192
pregnancy	-11.193
giveaway	-11.193
▁ios	-11.1934
sunrise	-11.1935
diversity	-11.1936
public	-11.1936
focused	-11.1939
dublin	-11.1942
hopeful	-11.1942
rapist	-11.1943
steak	-11.1943
vehicle	-11.1943
close	-11.1945
confidence	-11.1947
haha	-11.1947
grandpa	-11.1947
drama	-11.1947
limited	-11.1949
congress	-11.1949
fabulous	-11.195
paladino	-11.195
favorite	-11.195
donald	-11.195
christina	-11.195
system	-11.1951
feet	-11.1952
bill	-11.1952
wing	-11.1952
▁represent	-11.1952
website	-11.1953
horrible	-11.1953
community	-11.1953
▁blow	-11.1956
nu	-11.1956
broad	-11.1957
wales	-11.1959
ugly	-11.1959
indian	-11.196
damn	-11.1963
bright	-11.1963
▁politician	-11.1969
without	-11.1969
gender	-11.197
▁lonely	-11.1971
yeg	-11.1971
myjob	-11.1973
▁presentation	-11.1973
store	-11.1974
▁stadium	-11.1975
later	-11.1986
lbs	-11.1987
????	-11.1992
results	-11.1994
kin	-11.1998
lit	-11.2001
bubbles	-11.2002
gel	-11.2006
act	-11.2007
rev	-11.2014
ebook	-11.2015
breaking	-11.2015
▁degree	-11.2016
▁manage	-11.2016
▁accident	-11.2018
arrow	-11.2019
hey	-11.2026
cinema	-11.2027
mensfashion	-11.2044
▁doctor	-11.2047
▁wee	-11.2049
▁fuckin	-11.205
▁trail	-11.2051
wan	-11.2052
gray	-11.2052
▁str	-11.206
singing	-11.2064
▁presents	-11.2068
allthe	-11.2071
▁weigh	-11.2076
▁folk	-11.2077
500	-11.208
▁refuse	-11.2098
prayfo	-11.2101
▁#99	-11.2102
superhero	-11.2106
maker	-11.211
▁possibl	-11.2114
▁29	-11.2114
3⁄4­	-11.2114
chihuahua	-11.2116
istanbul	-11.2116
nintendo	-11.2116
raghuramrajan	-11.2116
shopalyssas	-11.2116
switzerland	-11.2116
tennessee	-11.2116
▁ceremony	-11.2116
ghostbusters	-11.2116
dissapoint	-11.2116
▁guidance	-11.2116
muhammad	-11.2116
wolf	-11.2116
▁appointment	-11.2116
utiful	-11.2116
sandiego	-11.2116
samsung	-11.2116
▁cancelled	-11.2116
cambridge	-11.2116
polishgirl	-11.2116
slimmingworld	-11.2117
watermelo	-11.2117
▁ourselves	-11.2117
▁confirmation	-11.2117
yorkshire	-11.2118
ov	-11.2118
collage	-11.2118
whiskey	-11.2119
harassment	-11.2119
bridal	-11.2119
stanley	-11.212
▁grave	-11.212
▁seat	-11.212
▁information	-11.212
▁underway	-11.2122
gaypride	-11.2123
▁traffic	-11.2123
	-11.2123
farewell	-11.2124
____	-11.2124
­	-11.2125
▁sexist	-11.2125
▁touches	-11.2125
	-11.2125
▁acceptable	-11.2126
blueeyes	-11.2126
greek	-11.2126
▁phase	-11.2126
	-11.2126
starek	-11.2126
▁prepare	-11.2127
▁entry	-11.2128
▁threaten	-11.2128
whitepeople	-11.2129
labour	-11.2131
▁oven	-11.2133
▁sept	-11.2134
	-11.2134
▁huh	-11.2134
▁overcome	-11.2135
spot	-11.2135
±	-11.2135
▁coolest	-11.2136
missyou	-11.2137
▁preview	-11.2137
mindful	-11.2137
	-11.2137
cheat	-11.2138
▁nra	-11.2138
ukh	-11.2141
¶	-11.2141
▁tank	-11.2142
nj	-11.2142
▁select	-11.2142
nohern	-11.2143
▁defense	-11.2144
▁amateur	-11.2144
reform	-11.2148
▁jimmy	-11.2148
▁2008	-11.215
die	-11.215
thomas	-11.215
▁scott	-11.2151
▁concept	-11.2152
natalie	-11.2154
▁:*	-11.2155
▁kim	-11.2156
	-11.2156
olathe	-11.2157
jerry	-11.2158
immigrants	-11.2161
▁sudden	-11.2161
▁neighborhood	-11.2162
▁cheek	-11.2162
▁attractive	-11.2163
▁feedback	-11.2163
▁alternative	-11.2163
wu	-11.2164
▁image	-11.2165
godbless	-11.2166
▁closing	-11.2167
lap	-11.2167
▁promot	-11.2174
	-11.2174
▁outrage	-11.2175
▁sadden	-11.2176
▁bullshit	-11.2179
▁circle	-11.2179
▁oakland	-11.218
▁crisis	-11.218
▁dollar	-11.218
▁personal	-11.2182
▁blamed	-11.2182
▁quiz	-11.2183
▁corner	-11.2183
▁louis	-11.2184
▁premier	-11.2185
▁deeply	-11.2186
▁dragg	-11.2188
nsday	-11.2191
▁intelligence	-11.2198
mint	-11.2198
greatday	-11.2199
aging	-11.2201
▁respected	-11.2202
▁rss	-11.2202
▁manag	-11.2203
▁logo	-11.2204
▁graduated	-11.2206
▁rare	-11.2208
▁50%	-11.2209
▁treated	-11.221
▁royal	-11.2211
▁rome	-11.2213
▁mater	-11.2214
88	-11.2215
▁begun	-11.2216
▁pumped	-11.2217
▁anna	-11.2219
▁2015	-11.2219
ide	-11.2222
▁ver	-11.2223
▁woot	-11.2223
▁bread	-11.2229
▁strange	-11.2229
queens	-11.2229
▁hateful	-11.223
ington	-11.2232
shide	-11.2233
gopro	-11.2233
	-11.2234
▁zero	-11.2235
▁oscar	-11.2235
genou	-11.2237
▁hip	-11.2237
▁worldwide	-11.2239
ain	-11.224
gm	-11.2242
rica	-11.2242
▁funding	-11.2245
▁goodness	-11.2252
▁leeds	-11.2254
sleeves	-11.2255
parents	-11.2258
▁tax	-11.2258
▁highly	-11.2261
▁humble	-11.2261
▁cheese	-11.2264
▁0	-11.2266
firsttime	-11.2266
▁weren	-11.2271
▁river	-11.2271
doggy	-11.2272
▁dave	-11.2276
▁grass	-11.2279
mtb	-11.2287
▁equal	-11.2291
uv	-11.2292
wise	-11.2296
▁net	-11.2297
iâ	-11.23
▁crossed	-11.2302
3⁄4	-11.2303
▁images	-11.2305
▁quit	-11.2306
▁jam	-11.2306
mb	-11.2307
▁amazon	-11.231
noone	-11.2311
▁runs	-11.2314
2	-11.2316
balls	-11.2322
▁cousins	-11.2326
▁boston	-11.2326
▁sacrifice	-11.233
▁warn	-11.2336
ren	-11.2342
▁pressure	-11.2344
pictures	-11.2347
▁sup	-11.2347
▁unbelievable	-11.2347
badal	-11.2353
▁loser	-11.2358
▁musical	-11.2359
tec	-11.236
▁sms	-11.2362
▁ben	-11.2363
ypics	-11.2367
▁aka	-11.2367
vile	-11.2374
▁ate	-11.2383
ged	-11.2384
iq	-11.2386
▁masters	-11.2387
augusta	-11.2388
▁ill	-11.239
▁oppressiv	-11.2391
fer	-11.2394
▁2016.	-11.2402
besties	-11.2403
▁crash	-11.2405
▁depressed	-11.2406
▁boom	-11.2407
ben	-11.2408
om	-11.2408
▁tim	-11.241
bh	-11.241
der	-11.2411
▁sites	-11.2412
awork	-11.2416
▁bbq	-11.242
▁lessons	-11.242
ski	-11.243
▁trees	-11.2436
jai	-11.2438
gb	-11.2442
▁buzz	-11.2443
▁china	-11.2444
▁hav	-11.2444
being	-11.2452
sending	-11.2457
scum	-11.2469
▁livel	-11.2473
▁handsome	-11.2477
▁wil	-11.2477
duke	-11.2485
▁invest	-11.2488
math	-11.2491
▁va	-11.2493
▁hood	-11.2494
▁swim	-11.25
▁lang	-11.2505
shitty	-11.2506
▁#20	-11.2509
shootings	-11.2512
told	-11.2516
dw	-11.2525
▁diy	-11.2525
ence	-11.2535
▁paint	-11.2541
tree	-11.2548
eâ	-11.2551
▁canada	-11.2555
ario	-11.2562
▁reviews	-11.2566
▁peaceful	-11.2578
killer	-11.2578
arch	-11.2588
▁opposit	-11.2594
data	-11.2595
alex	-11.2597
▁staer	-11.2599
▁ideal	-11.26
mag	-11.2601
ole	-11.2605
ong	-11.2605
▁inter	-11.2608
▁pen	-11.2614
▁surprises	-11.2627
add	-11.2631
bell	-11.2642
dental	-11.2649
râ	-11.2653
cal	-11.2657
wor	-11.2671
▁strip	-11.2679
heroes	-11.2686
▁bite	-11.2692
cu	-11.2697
pping	-11.2697
▁ibiza	-11.2699
sil	-11.2703
▁healing	-11.2709
yu	-11.2716
eli	-11.2723
▁ads	-11.2742
rus	-11.275
nick	-11.276
uspol	-11.2779
rush	-11.2786
▁$1	-11.2795
ascot	-11.2799
▁lean	-11.2805
boro	-11.2808
▁expos	-11.2811
▁drawing	-11.2815
3:	-11.2822
▁goodnight	-11.2829
▁whom	-11.2831
09	-11.2834
▁applet	-11.2835
point	-11.2836
rie	-11.2837
ds	-11.2839
costa	-11.2841
gâ	-11.2843
saturdaynight	-11.2843
bomb	-11.2847
▁prep	-11.2858
grun	-11.2859
pigg	-11.2859
▁nature	-11.2866
▁lows	-11.2876
ti	-11.2879
acious	-11.2886
myfamily	-11.2888
desse	-11.2904
hal	-11.2908
▁acc	-11.2914
▁extremel	-11.292
luis	-11.2921
test	-11.2933
oon	-11.294
changes	-11.294
▁bu	-11.2948
rise	-11.2958
▁ah	-11.2962
▁liked	-11.2965
▁films	-11.2968
kh	-11.2979
psycho	-11.298
ele	-11.2983
sugar	-11.2983
happ	-11.2986
ions	-11.2987
▁rob	-11.2988
ww	-11.2989
state	-11.2992
lying	-11.2994
though	-11.2998
continuous	-11.3
▁ms	-11.3001
finished	-11.3002
▁#100	-11.3002
muscle	-11.3003
bridesmaid	-11.3003
arkansas	-11.3003
overwhelm	-11.3004
dancer	-11.3004
▁assume	-11.3005
seaside	-11.3008
▁attacks	-11.3014
▁accounts	-11.3015
river	-11.3018
glitter	-11.302
relaxation	-11.3022
▁active	-11.3024
mai	-11.3028
chronic	-11.3029
console	-11.3031
flashback	-11.3031
ybig	-11.3031
islamophobia	-11.3031
aã	-11.3031
talent	-11.3032
latina	-11.3035
pal	-11.3035
▁mrs	-11.3037
thrive	-11.304
gets	-11.3041
every	-11.3041
priceless	-11.3041
ohio	-11.3042
stupidity	-11.3043
background	-11.3047
compassion	-11.3048
batman	-11.3048
since	-11.3049
shed	-11.3049
destiny	-11.305
croatia	-11.305
baseball	-11.3051
increasing	-11.3051
shameful	-11.3052
bond	-11.3053
preorder	-11.3053
delhi	-11.3054
camera	-11.3055
grind	-11.3055
promise	-11.3056
nephew	-11.3056
irish	-11.3057
rebel	-11.3057
gg	-11.3058
prison	-11.3059
madness	-11.3059
competition	-11.3059
mirror	-11.306
depressing	-11.3061
manchester	-11.3061
grass	-11.3062
hbd	-11.3062
channel	-11.3062
airpo	-11.3063
silent	-11.3064
fantastic	-11.3064
religion	-11.3065
million	-11.3065
piece	-11.3066
▁services	-11.3067
outfit	-11.3069
stuff	-11.3071
wishes	-11.3072
russian	-11.3075
doggie	-11.3076
product	-11.3076
▁souls	-11.308
,"	-11.3081
sessions	-11.3083
juan	-11.3087
glad	-11.3091
▁jew	-11.3091
wonder	-11.3091
lyrics	-11.3092
▁flip	-11.3098
aji	-11.3098
hyper	-11.31
iron	-11.3103
golden	-11.3108
focus	-11.3112
▁machine	-11.3112
▁conservative	-11.3114
uni	-11.3116
version	-11.3116
▁coast	-11.312
▁photoshoot	-11.3122
▁criminal	-11.3122
leak	-11.3123
josh	-11.3124
ht	-11.3125
eyed	-11.3128
exams	-11.3131
goodtime	-11.3131
pass	-11.3133
pan	-11.3133
▁suppoer	-11.3134
then	-11.3137
cor	-11.3143
▁professional	-11.315
rio	-11.3152
snap	-11.3165
term	-11.3169
99	-11.3169
▁letter	-11.317
▁voter	-11.3175
mak	-11.3175
rena	-11.3175
▁vi	-11.3179
▁qua	-11.3182
▁drag	-11.3184
ack	-11.3186
▁ray	-11.3191
risk	-11.3192
tell	-11.3195
/06/	-11.3196
▁cos	-11.3197
restin	-11.3201
▁confirm	-11.3203
▁earn	-11.3206
diving	-11.3212
▁graduat	-11.3213
▁effective	-11.3216
▁negativ	-11.3219
▁follower	-11.3222
▁receive	-11.3223
sculpt	-11.3225
casa	-11.3227
cologne	-11.3227
curvy	-11.3227
prosecco	-11.3227
▁orientation	-11.3227
▁syfy	-11.3227
predator	-11.3227
fairytail	-11.3227
scifi	-11.3227
selfharm	-11.3227
comfy	-11.3227
religious	-11.3227
extraordinary	-11.3228
imwithher	-11.3228
neverforget	-11.3228
▁repostapp	-11.3228
▁caption	-11.3228
▁twist	-11.3229
warcraftmovie	-11.323
▁vids	-11.323
relat	-11.323
hijab	-11.323
▁guilty	-11.3231
fifa	-11.3231
▁slice	-11.3231
minority	-11.3231
▁sentence	-11.3231
▁appeal	-11.3232
0.5%	-11.3232
dorset	-11.3232
nepal	-11.3233
▁brighten	-11.3234
▁stray	-11.3234
stressfree	-11.3234
larry	-11.3235
▁suspect	-11.3235
3⁄4¬	-11.3235
¥	-11.3235
brokenhea	-11.3236
▁plain	-11.3237
bluesky	-11.3237
wenger	-11.3238
	-11.3238
▁recognition	-11.3238
▁neutral	-11.3238
▁rhetoric	-11.3238
▁surround	-11.3238
▁oprah	-11.3239
▁january	-11.3239
▁contain	-11.3239
goofy	-11.3239
¦	-11.3239
diaries	-11.3239
▁unreal	-11.324
montreal	-11.324
▁strike	-11.324
▁preparation	-11.3241
▁$10	-11.3241
©	-11.3241
	-11.3241
§	-11.3242
potd	-11.3243
▁apament	-11.3244
izing	-11.3245
▁condition	-11.3245
▁awhile	-11.3246
­	-11.3247
comeon	-11.3247
kept	-11.3248
py	-11.325
▁diego	-11.325
§	-11.325
▁personally	-11.3251
▁lineup	-11.3251
▁sway	-11.3254
°	-11.3254
▁potato	-11.3255
▁raised	-11.3255
▁te	-11.3256
▁peek	-11.3257
▁october	-11.3258
▁glorious	-11.3258
▁votes	-11.3259
▁protection	-11.3261
instafood	-11.3261
salon	-11.3263
albestfriendday	-11.3264
▁trial	-11.3265
press	-11.3266
▁alum	-11.3267
mojo	-11.327
global	-11.327
▁sooo	-11.327
▁committed	-11.3271
tress	-11.3272
nce	-11.3272
▁ahhh	-11.3273
laughing	-11.3274
▁superb	-11.3276
▁athletes	-11.3277
▁trapped	-11.3278
▁birmingham	-11.3278
▁imagination	-11.3278
▁heritage	-11.3278
▁amodu	-11.3278
1⁄2	-11.328
▁herself	-11.328
▁mentioned	-11.328
funtimes	-11.3282
padre	-11.3282
▁vit	-11.3283
▁sweetie	-11.3285
	-11.3285
▁shave	-11.3286
▁ove	-11.3289
▁farm	-11.3291
▁omar	-11.3295
▁differently	-11.3295
▁reflect	-11.3297
▁censor	-11.3298
▁chinese	-11.3298
▁wembley	-11.3299
▁solution	-11.3299
▁betray	-11.3299
▁miserable	-11.3299
tra	-11.33
▁oitnb	-11.3302
▁loads	-11.3302
nw	-11.3308
▁recorded	-11.331
	-11.331
▁kit	-11.331
▁connected	-11.3316
▁burning	-11.3316
▁immigration	-11.3319
▁activities	-11.3319
▁danger	-11.332
cheesy	-11.332
▁cookies	-11.3321
▁studying	-11.3321
▁victory	-11.3321
▁andrew	-11.3322
thisis	-11.3322
▁grill	-11.3325
republicans	-11.3326
▁greeting	-11.3328
▁depression	-11.3328
kg	-11.3329
▁grey	-11.3332
▁vinyls	-11.3333
turnup	-11.3334
▁theater	-11.3337
wwe	-11.3339
▁chain	-11.3339
▁promotion	-11.3342
hairstyle	-11.3343
▁dry	-11.3343
▁engaged	-11.3345
▁horse	-11.3345
▁uncle	-11.3346
finals	-11.3348
▁dawn	-11.3349
▁billy	-11.3351
peh	-11.3352
ile	-11.3355
▁strangers	-11.3355
creator	-11.3355
nhs	-11.3356
▁fred	-11.3357
lives	-11.3359
▁selfish	-11.3361
yogi	-11.3367
	-11.3368
avenger	-11.3373
mus	-11.3374
▁breath	-11.3375
robot	-11.3375
▁nah	-11.3378
fur	-11.3379
!!!!!!!!	-11.3382
wed	-11.3382
▁uni	-11.3383
▁skies	-11.3383
aga	-11.3387
bound	-11.339
▁sam	-11.3391
▁lower	-11.3392
▁conservatives	-11.3393
▁kits	-11.3394
▁blowing	-11.3398
▁premiere	-11.3398
▁parent	-11.3401
▁nephew	-11.3401
▁irish	-11.3401
▁launched	-11.3402
▁bastards	-11.3406
▁tap	-11.3406
saved	-11.341
▁degrees	-11.3413
▁loos	-11.3413
rant	-11.3416
▁older	-11.3417
hugs	-11.3419
▁bang	-11.3419
▁rage	-11.3421
▁pub	-11.3424
▁31	-11.3427
▁nick	-11.3428
forlife	-11.343
▁limited	-11.3435
har	-11.3437
position	-11.3439
▁upside	-11.3443
▁employees	-11.3449
▁testing	-11.345
▁flow	-11.3456
grandma	-11.3456
▁talked	-11.3457
ray	-11.3458
shes	-11.3461
▁wwe	-11.3463
▁95	-11.3467
brave	-11.3467
muslims	-11.3469
instaa	-11.347
greatful	-11.3471
«	-11.3472
0,000	-11.3473
▁cc	-11.3473
aya	-11.3475
rage	-11.3482
▁pot	-11.3484
▁enteainment	-11.3485
▁honey	-11.3486
▁massage	-11.3488
▁remembered	-11.3494
▁2016!	-11.3495
ow	-11.3495
▁:))	-11.3497
▁sydney	-11.3506
force	-11.351
▁pin	-11.3512
maria	-11.3524
ire	-11.3524
▁potus	-11.353
▁el	-11.353
livelife	-11.3533
eva	-11.3539
▁remix	-11.3541
▁nite	-11.3547
lm	-11.3547
wt	-11.3548
▁cnn	-11.3549
▁listened	-11.3551
▁kindness	-11.3563
▁prince	-11.357
▁scotland	-11.357
fall	-11.3573
▁hall	-11.3579
▁pal	-11.3588
▁hype	-11.3591
▁thankyou	-11.3594
ando	-11.36
endof	-11.3601
▁chair	-11.3602
▁bin	-11.3612
▁cafe	-11.3613
rod	-11.3617
▁placed	-11.3619
▁gu	-11.3621
fox	-11.3622
▁lock	-11.3632
foot	-11.3632
bodies	-11.3635
▁chi	-11.3653
▁playa	-11.3657
▁aists	-11.3657
foster	-11.3657
ization	-11.3659
overwatch	-11.3662
cou	-11.3667
fucked	-11.3673
scuba	-11.368
▁tweeting	-11.3687
▁inspired	-11.3692
▁meditation	-11.3699
catsof	-11.3701
▁republicans	-11.3707
▁ne	-11.3707
twin	-11.3709
mall	-11.3711
▁achieve	-11.3718
ranny	-11.3721
▁$3	-11.3722
etta	-11.3727
cb	-11.3729
60	-11.3731
▁comics	-11.3737
bot	-11.3743
▁sides	-11.3743
▁mu	-11.3744
gu	-11.3745
▁booking	-11.3748
views	-11.3758
traveler	-11.3762
▁expose	-11.3763
dump	-11.3763
hit	-11.3766
▁equality	-11.3775
▁talks	-11.3777
sf	-11.3778
know	-11.3779
▁invent	-11.3792
stomp	-11.3794
▁hs	-11.381
isa	-11.3815
▁females	-11.3833
eh	-11.3851
upside	-11.3867
holla	-11.3873
▁fest	-11.3878
▁sm	-11.3882
▁pops	-11.3888
lay	-11.3891
roll	-11.39
whata	-11.3909
▁probe	-11.3916
▁#14	-11.3917
mango	-11.3917
▁roses	-11.3929
▁disgrace	-11.3934
▁sushi	-11.394
ious	-11.3945
▁justin	-11.3948
▁holds	-11.3949
rights	-11.395
mass	-11.3961
▁messages	-11.3962
▁rep	-11.3964
lac	-11.3967
▁!!!!!!	-11.3969
building	-11.397
stream	-11.3971
▁plants	-11.3973
▁streets	-11.3977
▁retweets	-11.3981
chan	-11.3982
▁cha	-11.3984
works	-11.3988
▁mont	-11.3994
▁adventures	-11.4001
▁bra	-11.4007
▁tr	-11.401
ure	-11.4012
spoilt	-11.4014
sp	-11.4019
gangs	-11.4028
grimmie	-11.403
iness	-11.4038
ct	-11.4049
mas	-11.4049
ump	-11.4051
▁bon	-11.4063
dor	-11.4065
▁offers	-11.4065
▁photography	-11.407
nurse	-11.407
▁van	-11.4072
▁si	-11.4073
▁hack	-11.4075
reason	-11.408
▁balls	-11.4081
rm	-11.4085
dâ	-11.4087
mars	-11.4089
1⁄4#	-11.4091
abank	-11.4093
bun	-11.4098
lips	-11.4099
▁1.	-11.4099
▁experiences	-11.4102
tense	-11.4107
tho	-11.411
tom	-11.4123
▁squad	-11.4123
rum	-11.4132
smith	-11.4133
▁mac	-11.4136
nationalis	-11.4136
ghost	-11.4137
▁!!!!!	-11.4138
lk	-11.414
wave	-11.4143
diamond	-11.4149
wildlife	-11.415
▁bron	-11.4157
put	-11.4158
dest	-11.4158
sc	-11.4164
idiot	-11.4165
anna	-11.4176
▁item	-11.4178
▁mau	-11.418
ux	-11.4182
ik	-11.4214
▁gre	-11.4215
.15	-11.4225
ido	-11.4226
course	-11.4229
cook	-11.423
▁ag	-11.4232
ninja	-11.4236
▁taco	-11.4242
▁lift	-11.4247
/#	-11.4249
chick	-11.4255
hairdresser	-11.4255
unite	-11.4262
▁coupon	-11.4273
fighter	-11.4274
▁arrest	-11.4276
border	-11.4276
ground	-11.4277
vlog	-11.4277
homophobia	-11.4281
lipstick	-11.4281
environmental	-11.4281
▁conces	-11.4283
▁destination	-11.4285
▁championship	-11.4285
holy	-11.4286
disgraceful	-11.4287
ilovemy	-11.4288
ap	-11.4289
cosplay	-11.429
proverb	-11.4291
contest	-11.4292
jealous	-11.4295
jeff	-11.4295
▁#9	-11.4296
pearl	-11.4296
atlanta	-11.4297
marvel	-11.4297
dubai	-11.4297
washed	-11.4299
achieve	-11.43
creativity	-11.4301
discriminati	-11.4301
council	-11.4301
hurry	-11.4301
case	-11.4301
juice	-11.4302
jewish	-11.4303
optimistic	-11.4303
dope	-11.4303
hits	-11.4304
navy	-11.4304
newcastle	-11.4305
invited	-11.4305
liverpool	-11.4305
zelda	-11.4305
square	-11.4306
democracy	-11.4308
worship	-11.4308
oppounity	-11.4309
bitter	-11.4309
half	-11.4309
coldplay	-11.431
speech	-11.4311
clinton	-11.4312
▁criticis	-11.4312
kingdom	-11.4312
terrible	-11.4312
society	-11.4313
leeds	-11.4313
worry	-11.4314
decision	-11.4314
second	-11.4314
manager	-11.4314
episode	-11.4315
series	-11.4315
happier	-11.4315
escape	-11.4315
afraid	-11.4315
empty	-11.4315
disgusting	-11.4315
dragon	-11.4316
skies	-11.4317
▁vet	-11.4318
glass	-11.4321
generation	-11.4322
stella	-11.4323
crossed	-11.4323
habit	-11.4324
bullying	-11.4325
shocking	-11.4328
exciting	-11.433
tuned	-11.4331
oke	-11.4332
▁trick	-11.4334
▁leadership	-11.4336
▁melt	-11.4337
july	-11.4339
potter	-11.4343
▁weapon	-11.4344
....#	-11.4346
inside	-11.4348
aten	-11.435
humble	-11.4353
▁treatment	-11.4356
tr	-11.4357
ix	-11.4358
sense	-11.4361
illegal	-11.4361
non	-11.4364
chef	-11.4367
fave	-11.4369
dory	-11.4372
iest	-11.4373
sail	-11.4389
▁sponsor	-11.4394
-#	-11.4396
cocktails	-11.4398
mann	-11.4401
▁complaint	-11.4403
▁doesnt	-11.4405
gia	-11.4408
name	-11.441
39	-11.441
stronger	-11.4411
needed	-11.4413
adopt	-11.4414
▁transform	-11.4417
▁arriv	-11.4419
mountains	-11.4421
▁officer	-11.4423
atenight	-11.4424
chase	-11.4427
▁mf	-11.4427
breakup	-11.4427
ox	-11.4431
▁grab	-11.4434
charles	-11.4436
▁sooooo	-11.444
mean	-11.4441
▁greet	-11.4447
ft	-11.4449
active	-11.4451
▁du	-11.4452
▁charg	-11.4461
videos	-11.4466
semitic	-11.447
designer	-11.4473
livesmatter	-11.4474
onference	-11.4474
ross	-11.4474
hairâ	-11.4475
▁attract	-11.4475
▁rise	-11.4475
▁addition	-11.4475
stb	-11.4476
fe	-11.4476
hippie	-11.4477
;#039;	-11.4477
mallorca	-11.4477
marseille	-11.4477
cannabis	-11.4477
caribbean	-11.4477
carnival	-11.4477
celebrity	-11.4477
tropical	-11.4477
▁advantage	-11.4477
▁evidence	-11.4477
▁miscegenation	-11.4477
detroit	-11.4477
rahul	-11.4477
▁patience	-11.4477
harrypotter	-11.4477
▁receiving	-11.4477
▁regular	-11.4477
▁section	-11.4477
jamaica	-11.4477
smilepowerday	-11.4477
millennial	-11.4477
▁recommend	-11.4477
michelleobama	-11.4477
champagne	-11.4477
▁became	-11.4477
humanrights	-11.4477
▁meanwhile	-11.4477
delegate	-11.4477
vibrant	-11.4477
▁paicular	-11.4477
antisemitism	-11.4478
bhag	-11.4478
engrus	-11.4478
selca	-11.4478
customerservice	-11.4478
▁kelly	-11.4478
innovation	-11.4478
ÐoÐ	-11.4478
lopez	-11.4478
etalia	-11.4478
gypsy	-11.4478
marbella	-11.4478
belfast	-11.4478
florence	-11.4478
reddit	-11.4478
▁nonsense	-11.4478
drove	-11.4479
bringiton	-11.4479
3⁄4	-11.4479
pinoy	-11.448
366	-11.448
songwriter	-11.448
bodrum	-11.448
aj	-11.448
fakenews	-11.448
makemoney	-11.448
▁otherwise	-11.448
vijay	-11.4481
truestory	-11.4481
▁coverage	-11.4481
homesweethome	-11.4481
citation	-11.4481
junkie	-11.4481
▁snatch	-11.4481
videogames	-11.4482
somuch	-11.4482
ladyboy	-11.4482
cruelty	-11.4482
welsh	-11.4483
▁display	-11.4483
antonio	-11.4484
freespirit	-11.4484
¬	-11.4485
clarity	-11.4485
£	-11.4486
▁punish	-11.4486
were	-11.4486
«	-11.4486
hampton	-11.4487
expat	-11.4487
▁soooo	-11.4488
loki	-11.4489
opath	-11.449
netherlands	-11.449
▁earlier	-11.449
▁emergency	-11.449
▁intelligent	-11.449
▁ordinary	-11.449
▁surprising	-11.449
▁terrific	-11.449
▁founate	-11.449
▁puppies	-11.449
▁outrageous	-11.449
▁although	-11.4491
▁principle	-11.4491
latenight	-11.4491
▁ab	-11.4491
▁90%	-11.4491
▁mentor	-11.4491
▁connection	-11.4492
healthyeating	-11.4492
vision	-11.4492
unwanted	-11.4492
▁prefer	-11.4492
	-11.4493
giftideas	-11.4494
beachbody	-11.4495
thevoice	-11.4495
▁granted	-11.4496
▁launches	-11.4496
igersb	-11.4497
▁passes	-11.4497
▁yell	-11.4497
▁amendment	-11.4497
365	-11.4497
▁screwed	-11.4498
▁according	-11.4499
ellen	-11.4499
rainyday	-11.4499
▁proven	-11.45
saturdaymorning	-11.45
mlp	-11.4501
▁grin	-11.4502
motion	-11.4504
trees	-11.4505
udta	-11.4507
▁conspirac	-11.4509
	-11.451
▁lincoln	-11.4512
▁profiling	-11.4512
▁craving	-11.4513
▁convention	-11.4513
▁genius	-11.4513
▁gossip	-11.4513
▁era	-11.4513
▁garage	-11.4513
childish	-11.4514
▁primary	-11.4516
▁mercy	-11.4517
kicking	-11.4519
▁lab	-11.4519
▁almight	-11.4519
surf	-11.452
3⁄4	-11.4523
▁alcohol	-11.4524
▁rap	-11.4524
▁fate	-11.4525
uae	-11.4525
▁paies	-11.4529
ot	-11.4529
▁corrupt	-11.453
hitler	-11.4531
pure	-11.4531
▁spoke	-11.4531
▁53	-11.4532
▁desk	-11.4534
▁revealed	-11.4534
▁monkey	-11.4535
▁district	-11.4535
▁bleed	-11.4536
▁vanilla	-11.4536
▁modern	-11.4536
▁motherfucker	-11.4537
▁harry	-11.4537
max	-11.4538
▁lyon	-11.4539
nothappy	-11.4539
▁cousin	-11.4539
christianity	-11.454
image	-11.4541
▁bonus	-11.4542
	-11.4544
looking	-11.4545
husky	-11.4546
▁showcase	-11.4546
▁paper	-11.4547
▁mast	-11.4548
	-11.4548
▁sexism	-11.4548
▁beep	-11.4553
▁je	-11.4557
▁gallery	-11.4559
▁shairi	-11.4559
▁tribute	-11.4559
▁snack	-11.4559
▁kanye	-11.4561
dnc	-11.4561
itis	-11.4562
3	-11.4562
▁delay	-11.4562
hunter	-11.4563
▁tend	-11.4565
nxt	-11.4566
▁kisses	-11.4567
▁cook	-11.4567
	-11.4568
▁greed	-11.4569
▁tall	-11.4569
▁upbeat	-11.457
nomakeup	-11.4574
▁script	-11.4575
▁everytime	-11.4576
▁idol	-11.4579
▁teaching	-11.4582
▁hilarious	-11.4582
▁journalism	-11.4582
▁courage	-11.4582
▁screaming	-11.4586
▁fixed	-11.4588
▁editing	-11.4589
▁ahhhh	-11.459
▁mug	-11.4591
ane	-11.4593
▁survey	-11.4594
▁clip	-11.4594
▁covered	-11.4596
knight	-11.4596
▁multi	-11.4598
▁pants	-11.4599
▁gate	-11.4599
▁gen	-11.4603
▁cruise	-11.4603
▁useless	-11.4603
▁ultra	-11.4605
▁sauce	-11.4606
▁lion	-11.4608
▁placement	-11.4608
▁celebrated	-11.4611
	-11.4612
▁lame	-11.4613
▁washington	-11.4613
▁dates	-11.4622
▁promises	-11.4622
▁ob	-11.4624
newjob	-11.4625
path	-11.4628
▁micro	-11.4628
▁updated	-11.4628
bab	-11.4629
▁brooklyn	-11.4629
▁gross	-11.463
morous	-11.463
▁greatness	-11.4631
▁moron	-11.4634
▁pup	-11.4638
▁shades	-11.464
▁therapy	-11.464
col	-11.4642
▁mega	-11.4643
▁monthly	-11.4643
▁worried	-11.4643
▁sofa	-11.4646
biher	-11.4646
cave	-11.465
sk	-11.4651
▁zelda	-11.4653
▁liverpool	-11.4653
▁shared	-11.4654
gals	-11.4654
▁mc	-11.4658
saterd	-11.4659
▁hire	-11.4662
mondaymorning	-11.4662
▁gee	-11.4663
▁cutest	-11.467
▁polls	-11.467
▁grandma	-11.4673
womens	-11.4674
▁invited	-11.4676
▁silent	-11.4676
▁programme	-11.4679
ambi	-11.4679
▁putin	-11.4681
ell	-11.4683
▁background	-11.4684
▁impossible	-11.4685
▁camera	-11.4686
tag	-11.4689
daddys	-11.4693
▁recording	-11.4694
lolli	-11.4695
▁grind	-11.4695
▁install	-11.4698
▁vehicle	-11.47
▁emma	-11.4702
▁boots	-11.4704
▁42	-11.4712
terra	-11.4713
unique	-11.4717
girly	-11.4718
▁reache	-11.4718
▁rick	-11.4722
▁pigs	-11.4722
▁amsterdam	-11.4724
▁rude	-11.4726
▁mission	-11.4727
▁beta	-11.4729
▁assholes	-11.4729
ustic	-11.4731
▁troubles	-11.4732
iscoming	-11.4736
▁ole	-11.4738
▁tight	-11.4741
rg	-11.4743
bih	-11.4747
▁plate	-11.475
▁johnny	-11.475
▁edc	-11.4752
▁deck	-11.4753
▁seal	-11.4753
▁producer	-11.4756
abc	-11.476
cani	-11.4761
tory	-11.4768
▁tu	-11.477
▁sink	-11.4773
woo	-11.4776
mm	-11.478
▁introduce	-11.4781
▁eh	-11.4784
getaway	-11.4785
dah	-11.4786
▁lovers	-11.4788
▁inner	-11.4789
discover	-11.4795
▁loo	-11.4795
▁corruption	-11.4797
2,000	-11.4798
students	-11.4799
▁poll	-11.4804
pcs	-11.4808
nh	-11.4809
hhhh	-11.4811
▁paicipate	-11.4812
nder	-11.4814
▁edinburgh	-11.482
▁bff	-11.4822
▁finn	-11.4832
25	-11.4837
plans	-11.4837
▁dee	-11.4838
vit	-11.4841
▁colours	-11.4842
▁jus	-11.4843
▁wed	-11.4846
▁inspire	-11.4852
▁unleashe	-11.4853
▁mud	-11.4857
:00	-11.4858
worried	-11.486
familyfun	-11.4865
amour	-11.4868
▁seed	-11.487
▁km	-11.4883
colli	-11.4884
▁hai	-11.4886
▁extreme	-11.4891
75	-11.4892
▁greece	-11.4893
▁thailand	-11.4894
..#	-11.49
▁photographer	-11.4902
celebrations	-11.4903
▁beg	-11.4906
tw	-11.4908
▁nervous	-11.491
▁lap	-11.4914
▁cooper	-11.4919
io	-11.492
avi	-11.4923
ent	-11.4928
).	-11.4929
▁fund	-11.4934
▁9/1	-11.494
▁bills	-11.494
rn	-11.4945
▁aw	-11.4946
▁cutie	-11.4946
hen	-11.4947
ade	-11.4949
»#	-11.495
▁spoil	-11.4956
gali	-11.4961
▁western	-11.4962
▁vintage	-11.4967
bw	-11.4968
35	-11.497
▁havent	-11.4973
▁bur	-11.4974
?!?!	-11.4977
cage	-11.4978
▁45	-11.4978
▁bestfriend	-11.4984
▁ocean	-11.4987
▁challenges	-11.4995
tty	-11.4997
these	-11.5007
pretending	-11.5016
▁cared	-11.5017
mybihday	-11.502
▁texts	-11.5021
wide	-11.5022
adi	-11.5023
▁cap	-11.5027
▁tan	-11.5033
aka	-11.5033
▁aft	-11.5034
myboy	-11.5058
poo	-11.5058
par	-11.5061
▁tgif	-11.5066
▁anne	-11.5075
▁qu	-11.5076
eb	-11.5076
▁dump	-11.5078
▁3:	-11.508
yrs	-11.5082
ily	-11.5091
dub	-11.5097
▁badge	-11.5097
cp	-11.5098
▁dig	-11.5104
proved	-11.5113
▁collect	-11.5117
▁edit	-11.512
meal	-11.5127
uary	-11.5128
alive	-11.5147
ego	-11.5151
gn	-11.5152
aries	-11.5154
sley	-11.5158
forest	-11.5162
▁?!	-11.5163
ofa	-11.5179
sai	-11.5186
▁answers	-11.5193
▁tab	-11.5205
godis	-11.5207
▁tru	-11.5211
aaaa	-11.5215
camper	-11.5216
▁palm	-11.5222
lib	-11.5233
▁shape	-11.5242
▁rd	-11.5263
brooks	-11.5268
beautifulday	-11.5271
slow	-11.5273
▁repost	-11.5281
stl	-11.5284
myhappy	-11.5295
▁ar	-11.53
gan	-11.5308
23	-11.5309
▁cancer	-11.531
kins	-11.5316
▁Ã	-11.532
gv	-11.5323
47	-11.5324
pu	-11.5334
thats	-11.5336
egg	-11.5344
sha	-11.5354
theworld	-11.5358
pai	-11.5362
▁0.7	-11.5379
ashamed	-11.538
▁maria	-11.5381
ees	-11.5392
▁gas	-11.5395
suck	-11.54
▁vir	-11.5405
prayersfor	-11.5405
oi	-11.541
ame	-11.542
▁che	-11.5433
▁pages	-11.5434
"?	-11.5444
kn	-11.5449
▁commit	-11.5454
▁deals	-11.5456
helps	-11.5461
inner	-11.5461
omania	-11.5464
code	-11.5466
ier	-11.5477
	-11.5481
▁mk	-11.5482
▁tests	-11.5483
ino	-11.5486
▁fou	-11.5498
qu	-11.5498
▁br	-11.55
hall	-11.5507
yyy	-11.5509
ual	-11.5515
▁jon	-11.552
andthe	-11.5538
hole	-11.5541
lie	-11.555
rate	-11.5552
jun	-11.5553
▁grad	-11.5557
▁outdoor	-11.5568
writers	-11.557
perfection	-11.5571
invent	-11.5572
choices	-11.5573
▁accuse	-11.5573
outdoor	-11.5578
▁pres	-11.5582
familyâ	-11.5582
hide	-11.5582
cheer	-11.5584
vir	-11.5586
truck	-11.5588
vid	-11.559
raining	-11.559
▁op	-11.5594
▁daughters	-11.5601
mount	-11.5604
nda	-11.5608
▁coco	-11.5626
amo	-11.5637
mania	-11.5638
verse	-11.564
ody	-11.5646
▁gd	-11.5648
5-	-11.5651
▁sha	-11.5656
cow	-11.5657
▁shots	-11.5657
idol	-11.5662
zone	-11.5664
mouth	-11.567
▁compare	-11.5672
fav	-11.5678
triste	-11.5679
▁wars	-11.5679
mud	-11.5679
caring	-11.568
table	-11.5684
prank	-11.5685
complaining	-11.5686
gluten	-11.5687
-9	-11.569
door	-11.5694
african	-11.5695
invest	-11.5699
crew	-11.57
bass	-11.57
company	-11.5704
▁boo	-11.5706
landscape	-11.571
fast	-11.5711
francisco	-11.5711
▁spit	-11.5712
celeb	-11.5713
slide	-11.5713
retreat	-11.5713
staying	-11.5716
£	-11.5717
appreciate	-11.5719
waste	-11.5719
abundan	-11.5723
casting	-11.5725
exploring	-11.5726
cardiff	-11.5726
daisy	-11.5726
firefly	-11.5727
chile	-11.5727
paner	-11.5728
frog	-11.5728
melbourne	-11.5729
exhaust	-11.5729
nigger	-11.573
▁rifle	-11.573
feminist	-11.573
korea	-11.573
classroom	-11.573
heavy	-11.5732
majesty	-11.5732
strawberries	-11.5732
beast	-11.5733
standard	-11.5733
▁mas	-11.5733
brooklyn	-11.5734
▁neighbor	-11.5734
breathe	-11.5734
strange	-11.5736
revolution	-11.5736
broke	-11.5736
folk	-11.5736
selfish	-11.5737
micro	-11.5737
doctor	-11.5737
▁whore	-11.5737
ridiculous	-11.5737
funeral	-11.5738
memory	-11.5738
reverse	-11.5738
regret	-11.5738
moron	-11.5738
worldwide	-11.5738
zero	-11.5738
crowd	-11.5739
ebay	-11.5739
lessons	-11.5739
woohoo	-11.5739
delighted	-11.5739
hospital	-11.574
abuse	-11.5741
agenda	-11.5741
lebron	-11.5742
google	-11.5742
route	-11.5742
michael	-11.5742
favourite	-11.5742
shift	-11.5743
choose	-11.5744
times	-11.5744
either	-11.5745
figure	-11.5746
crib	-11.5746
matt	-11.5746
premiere	-11.5748
▁stranger	-11.5749
▁shadow	-11.575
employees	-11.575
worst	-11.5751
.2%	-11.5753
▁dun	-11.5754
prom	-11.5754
lele	-11.5755
lord	-11.5756
pg	-11.5757
blowing	-11.5758
adele	-11.5758
sober	-11.5759
poster	-11.5759
▁measure	-11.5759
net	-11.5761
nx	-11.5762
teamwork	-11.5764
haircut	-11.5765
gal	-11.5766
nobody	-11.5766
already	-11.5767
dese	-11.5768
▁rehearsal	-11.5768
▁slut	-11.577
▁steph	-11.5771
honor	-11.5773
dating	-11.5774
center	-11.5774
democrats	-11.5774
five	-11.5775
▁64.	-11.5776
most	-11.5777
skate	-11.5778
heid	-11.5778
▁treasure	-11.5779
▁intern	-11.5779
▁vegan	-11.5788
pb	-11.579
reaction	-11.5791
▁£	-11.5794
trade	-11.5794
▁tha	-11.5795
smash	-11.5801
oscar	-11.5806
▁tak	-11.5808
▁np	-11.5815
▁ignor	-11.5815
ield	-11.5817
records	-11.5818
▁owners	-11.582
blast	-11.5824
israeli	-11.5826
trend	-11.5833
growing	-11.5837
3⁄4	-11.5841
thy	-11.5842
haus	-11.5842
▁boot	-11.5846
banker	-11.5846
▁2-	-11.585
victims	-11.586
workhard	-11.5863
▁rec	-11.5866
western	-11.5868
▁preach	-11.5869
carl	-11.587
0%	-11.5872
wick	-11.5873
▁wrap	-11.5882
saying	-11.5884
▁defame	-11.5884
▁gud	-11.5885
arian	-11.5886
▁slaughter	-11.5887
▁jeff	-11.5888
indonesia	-11.5892
fedup	-11.5892
▁ultimate	-11.5893
▁terribl	-11.5894
▁proper	-11.5897
▁civil	-11.5898
friendly	-11.5902
▁standard	-11.5905
kharkiv	-11.5905
arianagrande	-11.5906
awkward	-11.5906
colonialism	-11.5906
donthecon	-11.5906
pedophilia	-11.5906
pittsburgh	-11.5906
vividsydney	-11.5906
▁comprehend	-11.5906
minnesota	-11.5906
unitedstates	-11.5906
▁pundit	-11.5906
tinyplanet	-11.5906
▁struggling	-11.5906
▁suggest	-11.5906
▁volatil	-11.5906
▁subject	-11.5906
▁casino	-11.5906
crochet	-11.5906
ramsey	-11.5906
▁comprehensi	-11.5906
royalascot	-11.5906
ralph	-11.5906
royaltyfree	-11.5906
sustainable	-11.5906
▁causing	-11.5906
whiteprivilege	-11.5906
▁expand	-11.5906
kharkivgram	-11.5906
▁apologies	-11.5906
▁liye	-11.5906
hackney	-11.5906
palestinian	-11.5906
3⁄4·	-11.5906
hillaryclinton	-11.5906
cient	-11.5907
▁occurred	-11.5907
microsoft	-11.5907
▁atmosphere	-11.5907
bachelorette	-11.5907
▁marry	-11.5907
▁species	-11.5907
justsaying	-11.5907
▁hoshi	-11.5907
facial	-11.5908
▁banned	-11.5908
awareness	-11.5908
circus	-11.5908
▁senator	-11.5909
nascar	-11.5909
▁danny	-11.5909
gravity	-11.591
mydubai	-11.591
obsession	-11.591
▁justify	-11.591
▁falls	-11.591
▁maintain	-11.591
▁constantly	-11.5912
jam	-11.5912
¬	-11.5913
smaphone	-11.5913
notlong	-11.5914
¢	-11.5914
nigth	-11.5914
▁stopping	-11.5914
dancers	-11.5915
▁ditch	-11.5915
tener	-11.5915
▁eac	-11.5915
	-11.5915
tasty	-11.5916
▁region	-11.5916
	-11.5916
▁blam	-11.5917
finland	-11.5918
	-11.5919
©	-11.592
	-11.592
▁archives	-11.5921
▁oppounities	-11.5921
▁triumph	-11.5921
▁conduct	-11.5921
▁zealand	-11.5921
▁integra	-11.5921
	-11.5921
▁prospect	-11.5921
▁expression	-11.5922
▁refund	-11.5922
­	-11.5922
▁panel	-11.5922
▁spew	-11.5922
▁tmr	-11.5923
▁patch	-11.5923
girlpower	-11.5924
▁broadcast	-11.5924
manhat	-11.5925
£	-11.5926
▁billion	-11.5926
«	-11.5927
waves	-11.5928
pampered	-11.5929
▁recently	-11.5931
▁ffs	-11.5931
epcot	-11.5931
goodbook	-11.5932
cact	-11.5933
▁flies	-11.5933
baku	-11.5933
▁disappointing	-11.5934
▁annoying	-11.5934
schools	-11.5934
everal	-11.5934
taku	-11.5935
▁recognize	-11.5935
lastday	-11.5936
▁patient	-11.5936
redhead	-11.5936
bingewatch	-11.5937
ching	-11.5938
haul	-11.5939
playstation	-11.594
▁fang	-11.594
£	-11.5941
▁spray	-11.5943
crappy	-11.5943
........	-11.5944
amanda	-11.5945
1⁄2	-11.5946
companie	-11.5946
▁encounter	-11.5947
▁shuaibu	-11.5947
▁unknown	-11.5947
▁empathy	-11.5947
▁thriving	-11.5947
▁insights	-11.5947
▁tyler	-11.5947
▁exhibition	-11.5947
	-11.5947
▁forgiveness	-11.5948
ach	-11.5948
▁#21	-11.5948
▁cameron	-11.5948
▁simon	-11.5949
▁grown	-11.595
▁achievement	-11.5952
▁andrea	-11.5952
▁boost	-11.5953
▁darkness	-11.5953
▁promise	-11.5954
pin	-11.5955
▁tw	-11.5956
▁march	-11.5956
▁19.00	-11.5958
	-11.5961
womenin	-11.5961
▁finest	-11.5963
outof	-11.5963
▁separat	-11.5964
▁conditioning	-11.5964
3	-11.5965
▁numb	-11.5968
▁warning	-11.5969
▁unfollow	-11.5969
dairy	-11.597
▁lads	-11.597
▁bowling	-11.597
setts	-11.597
instafollow	-11.5971
istic	-11.5973
▁extremism	-11.5974
▁legacy	-11.5974
▁dallas	-11.5974
▁gordie	-11.5974
▁cherry	-11.5974
▁disappointment	-11.5974
▁bathroom	-11.5974
▁century	-11.5975
▁libey	-11.5975
▁mourn	-11.5975
marie	-11.5975
▁removed	-11.5975
▁sharpe	-11.5975
▁thread	-11.5976
▁hired	-11.5976
▁2014	-11.5977
ojmade	-11.5977
ismore	-11.5977
▁hunger	-11.5978
▁cope	-11.598
cutest	-11.598
aw	-11.598
44	-11.5986
enjoyâ	-11.5986
thegood	-11.5987
▁included	-11.5988
▁german	-11.5989
▁steam	-11.5991
▁thrilled	-11.5991
outside	-11.5993
speaks	-11.5996
▁guru	-11.5997
comic	-11.5999
	-11.6
▁tummy	-11.6001
▁chief	-11.6001
▁economy	-11.6001
▁belgium	-11.6001
▁philip	-11.6001
▁mouse	-11.6001
twait	-11.6002
▁duty	-11.6003
▁20%	-11.6004
▁wallet	-11.6004
▁crown	-11.6006
▁lane	-11.6007
▁$4	-11.6008
▁witch	-11.601
afro	-11.601
zza	-11.6013
▁bli	-11.6017
▁peter	-11.6017
▁checkout	-11.6017
▁cheering	-11.6018
bees	-11.6019
	-11.602
higan	-11.6022
▁debut	-11.6024
▁pushing	-11.6024
▁balanced	-11.6025
jumping	-11.6026
▁500	-11.6026
yard	-11.6027
▁captain	-11.6028
▁belief	-11.6028
▁furniture	-11.6028
▁mumbai	-11.6028
▁propaganda	-11.6028
▁financial	-11.6028
▁earrings	-11.6028
▁museum	-11.6028
▁broadway	-11.6029
punjabis	-11.603
▁honour	-11.6031
▁smoking	-11.6031
▁dive	-11.6031
▁oops	-11.6031
wy	-11.6032
ache	-11.6033
milf	-11.6035
▁linked	-11.6036
▁worrying	-11.6037
▁gary	-11.6041
▁harder	-11.6041
▁rant	-11.6041
opener	-11.6042
▁#23	-11.6043
ight	-11.6044
▁victoria	-11.6046
▁fries	-11.6047
leap	-11.6053
▁ch	-11.6053
tries	-11.6054
daystogo	-11.6055
▁clown	-11.6055
▁medical	-11.6055
▁junior	-11.6056
▁sanders	-11.6057
▁caoon	-11.6058
▁scot	-11.6062
3⁄4	-11.6062
▁explore	-11.6066
▁file	-11.6067
▁tube	-11.6067
tur	-11.6067
▁poet	-11.6069
▁jun	-11.6072
▁aug	-11.6074
▁rating	-11.608
▁cure	-11.608
▁reserv	-11.608
▁strawberries	-11.6083
-1	-11.6083
▁heavy	-11.6084
feeltheb	-11.6087
▁majesty	-11.6088
▁foreign	-11.6088
▁dems	-11.6092
gah	-11.6092
▁factor	-11.6093
▁mount	-11.6093
iv	-11.6093
gs	-11.6093
▁tent	-11.6094
retri	-11.6096
▁truthful	-11.6096
▁twins	-11.6098
▁privat	-11.6099
▁socks	-11.6099
vino	-11.6099
▁43	-11.6103
▁amen	-11.6104
▁mcca	-11.611
▁optimistic	-11.6111
▁jewish	-11.6111
▁square	-11.6111
seaworld	-11.6112
▁fishing	-11.6113
pur	-11.6114
▁pastor	-11.6114
riya	-11.6116
▁guests	-11.6118
▁newcastle	-11.6118
▁define	-11.6122
endo	-11.6122
ogue	-11.6125
▁provid	-11.6126
▁amaze	-11.6126
▁keys	-11.6138
▁destiny	-11.6138
▁delhi	-11.6139
▁preorder	-11.6141
merry	-11.6142
dye	-11.6143
1⁄4	-11.6143
▁madness	-11.6146
ably	-11.6149
▁chilling	-11.6151
wars	-11.6151
▁represents	-11.6154
▁dev	-11.6156
▁apply	-11.6158
genre	-11.6159
▁cleaning	-11.616
▁liar	-11.6161
▁ski	-11.6161
aire	-11.6161
cutting	-11.6163
▁dublin	-11.6166
legally	-11.6166
▁dating	-11.6167
▁aunt	-11.617
▁waves	-11.6172
▁prom	-11.6173
▁wage	-11.6176
exo	-11.6177
poppy	-11.6177
▁5-	-11.618
▁racists	-11.6182
▁fee	-11.6183
▁soccer	-11.6194
▁clock	-11.6195
▁fraud	-11.6196
▁disneyland	-11.6198
insure	-11.6199
liberals	-11.6206
fridayfun	-11.6208
ece	-11.6208
ongi	-11.6209
sion	-11.6211
blown	-11.6216
▁walker	-11.6217
pics	-11.6219
tattoos	-11.622
▁brunch	-11.6222
▁forum	-11.6226
▁stoked	-11.6226
▁rider	-11.623
▁baba	-11.6232
▁mistakes	-11.6249
▁pharrell	-11.6251
rains	-11.6251
▁resist	-11.6251
bible	-11.6252
fill	-11.6255
withthe	-11.6255
halfway	-11.6256
▁bubbles	-11.6258
▁gators	-11.6258
jeans	-11.6258
▁include	-11.6261
triggered	-11.6263
▁android	-11.6265
▁mars	-11.6265
catching	-11.6274
hum	-11.6274
suite	-11.6276
▁satisfied	-11.6279
trance	-11.6288
▁indi	-11.6288
▁dedicat	-11.6294
▁sy	-11.6294
▁sharp	-11.6295
▁46	-11.6304
aus	-11.6305
qua	-11.6311
▁$2	-11.6312
▁excuses	-11.6312
lyft	-11.6313
wh	-11.6314
cocoa	-11.6314
events	-11.6321
dep	-11.6328
coal	-11.6337
▁anf	-11.6341
▁ibooks	-11.6342
/4	-11.6343
lia	-11.6347
▁hep	-11.6347
mod	-11.6354
sel	-11.636
▁daniel	-11.6365
charge	-11.6369
▁del	-11.6369
▁hd	-11.6374
ru	-11.6378
bat	-11.6379
rid	-11.6381
▁minded	-11.6388
▁guitar	-11.6393
▁adorable	-11.6393
lot	-11.6407
▁owe	-11.6414
▁goin	-11.6414
▁suicide	-11.6421
hap	-11.6427
▁nap	-11.6428
▁nut	-11.6434
▁neo	-11.6436
▁drivers	-11.6439
▁bust	-11.6441
join	-11.6441
turn	-11.6447
fh	-11.6448
06	-11.6449
▁males	-11.6449
▁adults	-11.6452
rayersfororlando	-11.6456
▁???	-11.646
▁values	-11.6463
zing	-11.6466
▁butt	-11.6469
kind	-11.6472
▁smith	-11.6473
lp	-11.6475
▁sand	-11.6477
pearly	-11.6482
▁ye	-11.6487
▁teachers	-11.6491
winds	-11.6494
samples	-11.6495
ini	-11.6496
▁miami	-11.65
tlc	-11.651
til	-11.6522
▁anon	-11.6522
▁pets	-11.6529
tds	-11.6535
▁concern	-11.6535
hunting	-11.6537
▁den	-11.6539
stars	-11.6544
lated	-11.6544
blues	-11.6546
own	-11.6547
▁tri	-11.6549
hands	-11.6551
▁cape	-11.6553
als	-11.6555
▁cla	-11.6557
▁fails	-11.6557
oid	-11.6568
▁celebrations	-11.6596
incent	-11.6601
▁walls	-11.6603
tch	-11.6609
▁generations	-11.661
onda	-11.662
lly	-11.6626
ying	-11.6626
mil	-11.6627
answered	-11.663
▁horror	-11.6631
▁bash	-11.6631
;)	-11.6639
▁gaming	-11.6641
▁ev	-11.6646
murdering	-11.6654
▁bf	-11.6657
3%	-11.6665
sole	-11.6666
pp	-11.6671
ram	-11.6685
sean	-11.6685
nton	-11.6689
mn	-11.669
nota	-11.6691
pasta	-11.6691
tou	-11.6694
dai	-11.6695
ir	-11.6696
gamers	-11.6705
▁ash	-11.6708
tap	-11.6711
▁temple	-11.6723
unfit	-11.6741
▁topic	-11.6745
ug	-11.6753
hor	-11.6754
▁champ	-11.6756
▁ci	-11.6765
chain	-11.6769
▁wash	-11.6772
▁actors	-11.6775
slavery	-11.6779
▁sw	-11.6779
capital	-11.6782
▁har	-11.6784
indiegame	-11.6787
▁dec	-11.6788
ett	-11.6792
volt	-11.6797
bold	-11.6799
possible	-11.6804
peaceâ	-11.6804
dressed	-11.6814
▁rag	-11.6819
eeeee	-11.6834
letthe	-11.6838
▁ph	-11.6838
▁closet	-11.6842
lam	-11.6854
couve	-11.6854
owner	-11.6855
dining	-11.6864
swe	-11.6864
wag	-11.6865
▁34	-11.6869
▁doin	-11.6882
burg	-11.6883
▁que	-11.6889
dies	-11.6897
cd	-11.6899
concerned	-11.69
pose	-11.6902
fine	-11.6903
▁iq	-11.6904
▁shak	-11.6904
))	-11.6905
mura	-11.6909
tf	-11.691
chapter	-11.6912
paid	-11.6913
33	-11.6918
▁...#	-11.692
nap	-11.6929
▁donate	-11.6931
▁believ	-11.6932
panda	-11.6933
oe	-11.6937
eee	-11.694
iva	-11.6945
▁nations	-11.6945
▁cal	-11.6949
▁mam	-11.6952
▁broad	-11.6955
▁sample	-11.6957
serving	-11.6969
sub	-11.6969
▁ron	-11.6972
▁rent	-11.6985
rent	-11.7
mis	-11.7008
cell	-11.7012
▁cp	-11.7018
boc	-11.702
radical	-11.7023
▁curb	-11.7024
adams	-11.7031
▁notes	-11.7033
▁highs	-11.7044
nailed	-11.7045
broker	-11.7045
hl	-11.7048
server	-11.7049
todo	-11.7051
lily	-11.7058
▁mile	-11.7066
dank	-11.7076
funding	-11.7083
▁hm	-11.7084
prep	-11.709
▁der	-11.7091
eco	-11.7091
audi	-11.7104
stand	-11.7117
dale	-11.7117
eth	-11.7118
sigh	-11.7121
▁abs	-11.7122
rang	-11.713
goal	-11.7132
spam	-11.7133
iti	-11.7134
raya	-11.7135
▁pursu	-11.7139
hip	-11.7142
▁cam	-11.7144
▁bud	-11.7147
screen	-11.7153
ake	-11.7155
leader	-11.716
▁hung	-11.7165
eden	-11.7174
ag	-11.718
▁forest	-11.7182
arm	-11.7184
▁cr	-11.7187
▁ref	-11.7191
outta	-11.7192
od	-11.7197
drop	-11.7203
happen	-11.7204
stories	-11.7204
balloons	-11.7205
▁sal	-11.7212
along	-11.7212
tower	-11.7214
caoon	-11.722
champion	-11.7225
sms	-11.7225
~~	-11.7226
▁argue	-11.7227
▁hehe	-11.7229
lemon	-11.723
william	-11.7233
minute	-11.7237
▁breathe	-11.7244
ago	-11.7246
aco	-11.7248
meet	-11.7251
pup	-11.7263
rÃ	-11.7269
putin	-11.7274
▁opera	-11.7276
willbe	-11.7281
row	-11.7282
1	-11.7287
weddings	-11.7288
▁exo	-11.729
paw	-11.7291
▁hopeful	-11.7293
2015	-11.73
bestday	-11.7307
iwant	-11.7308
venue	-11.7315
▁gm	-11.7318
lah	-11.7326
tube	-11.7327
scam	-11.7332
mpossible	-11.7336
andy	-11.7338
bou	-11.7343
murder	-11.7345
kers	-11.7347
lil	-11.7349
inked	-11.735
determination	-11.7354
elegant	-11.7354
pineapple	-11.7354
pri	-11.7354
berry	-11.7358
stick	-11.7358
chuck	-11.7359
rift	-11.7362
wooden	-11.7362
letter	-11.7364
▁defin	-11.7367
chris	-11.7367
bully	-11.7368
▁hindu	-11.7369
shoot	-11.7372
cliff	-11.7373
muse	-11.7375
build	-11.7375
eternal	-11.7377
rescue	-11.7377
bristol	-11.7377
sarcasm	-11.7377
norfolk	-11.7377
fiction	-11.7378
▁engineer	-11.738
▁senior	-11.7382
---	-11.7382
complete	-11.7382
swift	-11.7383
level	-11.7383
educate	-11.7384
poet	-11.7385
hustle	-11.7387
empire	-11.7387
unforgettable	-11.7387
wimbledon	-11.7387
engagement	-11.7387
premier	-11.7387
spotify	-11.7387
alabama	-11.7388
mafia	-11.7388
▁pocket	-11.7388
monster	-11.7389
custom	-11.7389
readyto	-11.739
create	-11.7391
farm	-11.7391
fool	-11.7392
cruel	-11.7392
reggae	-11.7393
adveising	-11.7393
elizabeth	-11.7393
motorcycle	-11.7393
infinite	-11.7393
sabbath	-11.7393
mickey	-11.7394
▁memorial	-11.7394
darling	-11.7395
minions	-11.7395
fridaynight	-11.7395
cmon	-11.7396
monthsary	-11.7398
loyal	-11.7398
luke	-11.7398
ultra	-11.7398
clown	-11.7399
medical	-11.7399
camgirl	-11.7399
whole	-11.74
multi	-11.74
washington	-11.74
sauce	-11.74
august	-11.7401
aline	-11.7403
responsib	-11.7404
popular	-11.7404
engaged	-11.7404
sanders	-11.7405
library	-11.7405
curry	-11.7405
referendum	-11.7405
ignorant	-11.7406
independent	-11.7406
protect	-11.7406
achu	-11.7407
assault	-11.7407
delivery	-11.7407
coward	-11.7407
inspiring	-11.7408
recovery	-11.7408
hockey	-11.7409
everywhere	-11.7409
downtown	-11.7409
mat	-11.7409
draft	-11.741
pumped	-11.741
different	-11.741
chf	-11.741
senseless	-11.741
keshi	-11.741
anyway	-11.741
album	-11.7411
scene	-11.7411
smoothie	-11.7412
junior	-11.7412
could	-11.7413
until	-11.7414
para	-11.7415
opera	-11.7415
socks	-11.7415
hateful	-11.7415
ola	-11.7416
praise	-11.7416
▁nightmare	-11.7416
dawn	-11.7417
joyful	-11.7417
▁tournament	-11.7417
pit	-11.7417
trail	-11.7419
large	-11.7419
awake	-11.7419
carpet	-11.742
▁eek	-11.742
bread	-11.7421
crap	-11.7422
sweat	-11.7424
remix	-11.7425
df	-11.7426
cash	-11.7426
modi	-11.7428
gh	-11.7431
greatest	-11.7431
jim	-11.7432
fell	-11.7433
esco	-11.7434
▁bounce	-11.7435
grandmother	-11.7436
mir	-11.7437
loud	-11.7438
avon	-11.7441
their	-11.7441
kah	-11.7443
▁struggle	-11.7446
happines	-11.7446
grade	-11.7447
assholes	-11.7448
lovemy	-11.7448
▁burger	-11.745
era	-11.7454
horses	-11.7454
pian	-11.7454
whisk	-11.7457
▁asshole	-11.7458
▁fir	-11.7465
treason	-11.7467
heas	-11.7472
roc	-11.7473
▁writer	-11.7474
▁emoji	-11.7479
▁failure	-11.7481
▁comp	-11.7482
troll	-11.7483
▁predict	-11.7484
msm	-11.7484
▁kro	-11.7496
shis	-11.7496
▁thug	-11.7497
▁tee	-11.7499
tail	-11.7502
salt	-11.7502
sagar	-11.7508
pamper	-11.7512
cuddles	-11.7514
blond	-11.7514
rade	-11.7522
poop	-11.7522
electro	-11.7524
chia	-11.7528
fangirl	-11.7529
▁bee	-11.7535
zionis	-11.7535
wake	-11.7536
piracy	-11.7536
hab	-11.7538
▁brutal	-11.7538
bow	-11.7541
curb	-11.7544
workplace	-11.7545
coaching	-11.7545
▁disappear	-11.7545
▁potter	-11.7547
updates	-11.7548
atl	-11.7548
beaut	-11.7548
▁defeat	-11.7548
▁din	-11.7549
▁kno	-11.7553
▁$50	-11.7554
▁damage	-11.7554
ymous	-11.7557
▁warrior	-11.7559
seeyou	-11.756
▁straw	-11.756
▁blatant	-11.7561
sen	-11.7561
▁depend	-11.7562
champions	-11.7564
▁esp	-11.7565
itude	-11.7565
▁institution	-11.7569
▁cash	-11.757
dysto	-11.7571
whitesupremac	-11.7571
ls	-11.7571
alib	-11.7572
dachshund	-11.7572
▁universal	-11.7572
▁wounded	-11.7572
clannad	-11.7572
ferguson	-11.7572
rohingya	-11.7572
solidarity	-11.7572
vegetarian	-11.7572
wanderlust	-11.7572
winnipeg	-11.7572
▁communal	-11.7572
▁conclusion	-11.7572
▁experiencing	-11.7572
▁intellect	-11.7572
▁jungkook	-11.7572
▁persuade	-11.7572
▁platform	-11.7572
▁prevail	-11.7572
▁sensitive	-11.7572
▁similar	-11.7572
▁tommorow	-11.7572
newyearseve	-11.7572
rottweiler	-11.7572
▁built	-11.7572
complicated	-11.7572
graffiti	-11.7572
▁acknowledge	-11.7572
cdnpoli	-11.7572
revival	-11.7572
haiku	-11.7572
tgifriday	-11.7572
eastcoast	-11.7573
celtic	-11.7573
▁kenya	-11.7573
▁passenger	-11.7573
policebrutality	-11.7573
taylorswift	-11.7573
▁depament	-11.7573
▁digging	-11.7573
duchess	-11.7573
karaoke	-11.7573
▁worries	-11.7573
succeed	-11.7573
smacc	-11.7573
3⁄4	-11.7573
▁profession	-11.7573
▁mountain	-11.7573
asianladyboy	-11.7573
toomany	-11.7573
byebye	-11.7573
jewel	-11.7573
▁semester	-11.7573
penguin	-11.7573
align	-11.7573
garbage	-11.7573
doctorwho	-11.7573
rabbit	-11.7573
smallbiz	-11.7573
spoonie	-11.7573
3⁄4­	-11.7573
whitegenocide	-11.7573
▁denounce	-11.7573
▁precise	-11.7573
▁bihdaysway	-11.7574
deadliest	-11.7574
▁punch	-11.7574
fluffy	-11.7574
▁replies	-11.7574
▁punishment	-11.7574
chemist	-11.7574
▁2.0	-11.7574
audrey	-11.7574
curlyhair	-11.7574
▁nowlinkup	-11.7574
adultery	-11.7574
zionazi	-11.7574
nursing	-11.7574
natsu	-11.7574
kickstaer	-11.7574
osaka	-11.7574
▁alleged	-11.7574
▁endorsement	-11.7574
postive	-11.7575
dominican	-11.7575
¶	-11.7575
shrm	-11.7575
jcpenn	-11.7575
tribe	-11.7575
lnic	-11.7575
ev	-11.7575
cipd	-11.7575
meetup	-11.7575
▁ooh	-11.7576
wcw	-11.7576
wakeupamerica	-11.7576
pissedoff	-11.7576
loveconquersha	-11.7576
etary	-11.7576
mitb	-11.7576
browser	-11.7577
peanut	-11.7577
nua	-11.7577
▁spoilers	-11.7577
milano	-11.7577
shofilm	-11.7577
interracial	-11.7577
©	-11.7578
3⁄4°	-11.7578
▁lumpy	-11.7578
▁personality	-11.7578
lsw	-11.7579
¬	-11.7579
	-11.7579
¦	-11.7579
	-11.7579
lightning	-11.7579
patriot	-11.7579
▁stepping	-11.758
▁recogniz	-11.758
¦	-11.758
psychological	-11.758
waltdisney	-11.758
#	-11.758
rapid	-11.758
latino	-11.7581
goka	-11.7581
deleteyoura	-11.7581
3⁄4§	-11.7581
▁omit	-11.7582
	-11.7582
▁joking	-11.7582
¥	-11.7582
sparkle	-11.7582
▁recovered	-11.7583
▁mmm	-11.7583
	-11.7584
iconic	-11.7585
	-11.7585
furry	-11.7586
york	-11.7586
	-11.7586
	-11.7586
▁required	-11.7587
¤	-11.7588
guardian	-11.7588
twenty	-11.7589
frozen	-11.7589
£	-11.7589
	-11.7589
▁mari	-11.759
dolphins	-11.759
elephants	-11.759
1	-11.759
	-11.759
powerof	-11.759
banner	-11.759
cardio	-11.759
▁0.3%	-11.759
▁pilot	-11.759
▁ghazal	-11.759
▁audience	-11.759
▁perspective	-11.759
▁stomach	-11.759
▁henry	-11.759
zoro	-11.759
▁blanket	-11.7591
▁slamm	-11.7591
▁accent	-11.7591
▁slander	-11.7591
▁inflation	-11.7591
▁arabic	-11.7591
▁charlie	-11.7591
▁opposite	-11.7592
▁weaker	-11.7592
▁depth	-11.7592
▁wilson	-11.7592
	-11.7592
dium	-11.7592
▁submit	-11.7593
▁elected	-11.7593
▁abandoned	-11.7593
▁tower	-11.7593
▁alright	-11.7594
▁oppa	-11.7594
▁xmas	-11.7594
floridashooting	-11.7595
▁valid	-11.7595
hawaiian	-11.7595
15/0	-11.7596
fitmom	-11.7596
floral	-11.7597
longweekend	-11.7597
dash	-11.7597
▁2012	-11.7597
impoance	-11.7597
changed	-11.7597
	-11.7598
▁hol	-11.7598
pooh	-11.7598
makeamerica	-11.7599
▁disturbing	-11.76
▁scroll	-11.76
▁promised	-11.7601
¶	-11.7601
▁poman	-11.7601
▁dustin	-11.7601
1	-11.7602
vibesâ	-11.7602
wecan	-11.7602
▁medal	-11.7603
¦	-11.7603
blowjob	-11.7603
ginday	-11.7604
havefun	-11.7605
▁solid	-11.7605
instaboy	-11.7605
hostel	-11.7606
mayhem	-11.7606
▁appall	-11.7607
	-11.7608
eek	-11.7608
¡	-11.7608
▁dislike	-11.7609
¤	-11.761
growthhac	-11.7611
▁heck	-11.7611
suspected	-11.7611
▁dem	-11.7611
▁quaer	-11.7612
bittersweet	-11.7613
pout	-11.7614
▁defeated	-11.7615
burnt	-11.7616
	-11.7616
lich	-11.7617
wifey	-11.7617
±	-11.7618
itv	-11.7619
04	-11.7619
▁thrones	-11.7619
▁extremists	-11.7619
▁brazil	-11.762
ron	-11.762
▁barn	-11.7621
▁cabin	-11.7621
▁cereal	-11.7622
▁brochure	-11.7622
▁immediate	-11.7622
▁nicole	-11.7622
▁surgery	-11.7622
▁encouragement	-11.7622
▁virginia	-11.7622
▁brief	-11.7622
▁legendary	-11.7622
▁cannon	-11.7623
▁qualifi	-11.7623
▁helpful	-11.7623
▁exit	-11.7624
	-11.7625
▁greg	-11.7625
▁disrespect	-11.7625
/17	-11.7625
▁fancy	-11.7626
loo	-11.7626
nate	-11.7627
griev	-11.7627
▁patiently	-11.7627
thick	-11.7628
resolution	-11.7628
hardwork	-11.7629
▁earned	-11.7629
▁woop	-11.7629
daysof	-11.7629
▁sixt	-11.763
▁backyard	-11.763
doit	-11.7631
▁compi	-11.7631
instafashion	-11.7633
heath	-11.7635
imnot	-11.7635
▁gosh	-11.7635
healthyliving	-11.7635
iki	-11.7636
▁shy	-11.7636
idiots	-11.7636
andson	-11.7641
▁phd	-11.7641
scann	-11.7641
▁unfounate	-11.7643
▁matur	-11.7644
▁admin	-11.7645
▁jihad	-11.7645
▁recovers	-11.7646
▁noise	-11.7647
spank	-11.7648
	-11.7648
°	-11.7649
ahur	-11.765
	-11.7651
eira	-11.7651
	-11.7652
▁1.4	-11.7652
▁settle	-11.7652
▁grief	-11.7654
brutality	-11.7654
▁brithday	-11.7654
▁bucket	-11.7654
▁disaster	-11.7654
▁kidding	-11.7655
▁harmony	-11.7655
cruise	-11.7655
▁shane	-11.7656
▁atm	-11.7657
▁bacon	-11.7658
cursed	-11.7659
▁disorder	-11.766
grandson	-11.7661
ritz	-11.7661
▁scratch	-11.7662
▁resign	-11.7662
▁critical	-11.7662
lala	-11.7663
	-11.7663
lovethem	-11.7664
▁doom	-11.7664
mug	-11.7665
redlip	-11.7665
arse	-11.7665
erson	-11.7667
▁liam	-11.7668
3⁄4	-11.7668
▁attic	-11.7672
▁ryan	-11.7673
▁refresh	-11.7676
▁79	-11.7676
▁returned	-11.7682
▁hyped	-11.7682
▁electric	-11.7685
▁slave	-11.7686
▁bruh	-11.7686
nom	-11.7686
▁dozen	-11.7686
▁brussels	-11.7686
▁eagle	-11.7686
▁universe	-11.7686
▁palette	-11.7686
▁naturally	-11.7687
▁jessica	-11.7687
▁patio	-11.7687
▁thunder	-11.7687
▁macbook	-11.7688
▁cycle	-11.7688
	-11.7689
cq	-11.769
eight	-11.7691
▁bum	-11.7691
▁johnson	-11.7692
▁suffering	-11.7692
core	-11.7692
▁sana	-11.7695
hold	-11.7695
▁profit	-11.7697
▁spre	-11.7697
▁flame	-11.7698
	-11.7701
missed	-11.7702
▁khan	-11.7702
▁lime	-11.7704
staypositive	-11.7707
rak	-11.771
queena	-11.7711
▁lauren	-11.7712
wholesome	-11.7716
▁rewards	-11.7717
▁spoiled	-11.7719
▁glasgow	-11.7719
▁ideology	-11.7719
challenges	-11.772
▁technology	-11.772
▁settlement	-11.7721
▁edition	-11.7723
toys	-11.7723
instagramers	-11.7723
hus	-11.7724
marco	-11.7726
▁tule	-11.7728
▁features	-11.7729
▁classy	-11.773
▁lucy	-11.7732
aziness	-11.7732
▁however	-11.7733
lean	-11.7734
ional	-11.7735
many	-11.7736
▁custom	-11.7737
stroller	-11.7738
▁employment	-11.7739
both	-11.7741
badday	-11.7742
▁crush	-11.7743
▁homework	-11.7746
dukh	-11.7746
▁beers	-11.7746
▁erase	-11.7746
hills	-11.7747
hardly	-11.7747
ography	-11.7749
crush	-11.775
cs	-11.775
▁vinyl	-11.7751
▁loyal	-11.7752
▁grandmother	-11.7752
stylist	-11.7753
spoon	-11.7753
▁monthsary	-11.7755
▁historical	-11.7757
▁joyful	-11.7758
▁overall	-11.776
mtv	-11.7761
tiff	-11.7762
▁conversations	-11.7762
▁landed	-11.7763
▁nuts	-11.7768
	-11.777
..........	-11.777
▁shown	-11.7771
orough	-11.7771
▁bones	-11.7771
▁suicides	-11.7772
lions	-11.7772
highschool	-11.7773
logy	-11.7774
▁psycho	-11.7776
touch	-11.7778
▁luc	-11.7779
▁momma	-11.7781
▁israeli	-11.7782
▁ache	-11.7782
▁max	-11.7783
aÃ	-11.7784
▁careful	-11.7784
▁appreciated	-11.7784
▁feminist	-11.7785
▁melbourne	-11.7785
▁exhaust	-11.7785
▁adele	-11.7786
▁classroom	-11.7788
anning	-11.7792
▁fin	-11.7793
emented	-11.7793
steps	-11.7797
▁slip	-11.78
painful	-11.7805
estate	-11.7805
▁saving	-11.7805
employment	-11.7805
▁prayer	-11.7805
▁carpet	-11.7806
▁pple	-11.7807
▁iron	-11.7807
▁secure	-11.7813
menswear	-11.7815
▁council	-11.7818
▁discriminati	-11.7818
▁creativity	-11.7818
▁navy	-11.7818
▁dubai	-11.7818
▁hurry	-11.7818
▁cocktails	-11.7819
bla	-11.782
withyou	-11.7821
▁shipp	-11.7822
creepy	-11.7825
02	-11.7827
▁col	-11.7828
nazis	-11.7829
▁blessing	-11.7829
▁juice	-11.783
ihate	-11.7837
▁bail	-11.7838
trumptrain	-11.7842
▁wth	-11.7842
urban	-11.7843
papi	-11.7845
▁viewing	-11.7847
youare	-11.7847
▁ench	-11.785
▁croatia	-11.7851
▁salon	-11.7852
▁lily	-11.7852
▁baseball	-11.7853
tome	-11.7854
▁bullying	-11.7855
▁jay	-11.7855
▁shameful	-11.7856
gol	-11.7859
▁increasing	-11.7859
▁cuddles	-11.786
▁hbd	-11.786
	-11.786
diade	-11.7861
sham	-11.7866
fora	-11.7867
chasing	-11.7868
▁chao	-11.7868
treats	-11.7871
momma	-11.7872
▁ear	-11.788
▁heroes	-11.7881
▁perfectly	-11.7884
▁filming	-11.7886
▁bn	-11.7888
sar	-11.7888
▁weapons	-11.7889
▁wondering	-11.7897
▁unity	-11.7898
norman	-11.7904
kÃ	-11.7904
allday	-11.7906
sewing	-11.7906
fisher	-11.7909
▁marathon	-11.7919
won	-11.792
▁teeth	-11.7925
▁#11	-11.7934
brian	-11.7937
gas	-11.7943
ggers	-11.7946
called	-11.7947
▁tiger	-11.7949
bella	-11.7952
▁directly	-11.7953
▁romantic	-11.7953
xx	-11.7959
ket	-11.796
ops	-11.7964
lation	-11.797
whites	-11.7971
95	-11.7973
▁awww	-11.7973
volunteering	-11.7976
hong	-11.7977
wantto	-11.7978
dil	-11.7986
▁hamilton	-11.7987
▁madrid	-11.7988
▁injustice	-11.7989
standwith	-11.7993
91	-11.7996
▁hats	-11.7997
allies	-11.8004
▁horses	-11.8005
geo	-11.8009
tri	-11.801
slim	-11.8012
▁fascist	-11.802
▁jar	-11.8022
▁quad	-11.8024
▁chips	-11.8026
▁feelin	-11.8027
glowing	-11.8027
▁dreaming	-11.8034
▁ace	-11.8035
▁shakes	-11.8037
▁hawaii	-11.8037
elle	-11.8042
▁fi	-11.8043
▁bow	-11.8048
▁vis	-11.8051
farming	-11.8052
koreans	-11.8057
89	-11.8058
cuz	-11.8059
▁legs	-11.8064
▁bent	-11.8071
bud	-11.8071
nham	-11.8076
cle	-11.8079
nished	-11.8081
▁fella	-11.8087
▁threat	-11.8092
puff	-11.8096
▁cops	-11.8099
gard	-11.8102
▁nail	-11.8104
gy	-11.811
▁mor	-11.8113
▁asia	-11.8123
trendy	-11.8123
▁ukraine	-11.8125
▁latepost	-11.813
▁nazi	-11.8131
teachers	-11.8131
▁annoyed	-11.8137
tha	-11.8139
▁noon	-11.8141
▁expe	-11.8144
yn	-11.8145
▁enteain	-11.8147
mountain	-11.8156
ones	-11.8161
▁drugs	-11.8162
cracked	-11.8163
▁divide	-11.8165
▁rings	-11.8165
impossible	-11.8176
abstract	-11.8177
▁oppose	-11.8178
▁freak	-11.818
meat	-11.819
lgbti	-11.8192
quet	-11.8194
▁#13	-11.8194
▁versa	-11.8207
46	-11.8207
rex	-11.8218
arot	-11.8225
▁banks	-11.8228
nemo	-11.823
▁para	-11.8231
nk	-11.8234
windy	-11.8237
▁rub	-11.8237
fatherday	-11.8242
▁yellow	-11.8251
nfl	-11.8266
mk	-11.8266
▁popp	-11.8266
forall	-11.8271
cbs	-11.8275
▁cows	-11.8278
▁nicola	-11.8284
kar	-11.8286
▁whisk	-11.8287
ups	-11.8289
▁drain	-11.8293
ind	-11.8295
ambro	-11.8298
esh	-11.8303
fix	-11.8305
pad	-11.8308
matter	-11.8309
▁han	-11.8311
▁pu	-11.8316
▁feb	-11.8317
galore	-11.8317
amba	-11.8319
madein	-11.8327
lb	-11.8329
dp	-11.8332
instagirl	-11.8333
tnam	-11.8336
▁pur	-11.834
▁#90	-11.834
▁hated	-11.8341
songs	-11.8341
lg	-11.8347
cross	-11.8364
helly	-11.8367
▁castle	-11.8368
▁scout	-11.8376
▁soed	-11.8387
metro	-11.8389
ech	-11.839
reader	-11.8394
sold	-11.8395
▁farmer	-11.8403
pack	-11.8404
▁nab	-11.8411
amaz	-11.8411
tomhi	-11.8419
pops	-11.8427
▁ge	-11.8428
▁marks	-11.8434
lushâ	-11.8444
studios	-11.8444
didnt	-11.8446
▁#22	-11.8448
gutte	-11.8473
ode	-11.848
nie	-11.8488
▁nu	-11.8491
disco	-11.8494
lag	-11.8497
▁payday	-11.8499
maid	-11.85
inton	-11.8506
films	-11.8507
▁rave	-11.851
▁08	-11.8511
▁moms	-11.8516
▁compet	-11.8519
▁roles	-11.8519
▁soc	-11.8521
knows	-11.8527
greens	-11.8528
▁activist	-11.853
ils	-11.8533
▁asleep	-11.8535
▁corn	-11.8538
cott	-11.8539
▁dudes	-11.8545
▁prime	-11.8546
deal	-11.8549
uff	-11.8549
nes	-11.8552
▁stages	-11.8557
sw	-11.8557
▁choke	-11.8561
▁4-	-11.8569
,000	-11.8576
cooler	-11.8579
kip	-11.8583
tee	-11.8583
▁comedy	-11.8584
drums	-11.8586
▁dish	-11.8588
▁chef	-11.8599
▁shis	-11.86
▁spell	-11.8609
▁sid	-11.861
appy	-11.8619
▁pad	-11.862
05	-11.8622
whats	-11.8634
sony	-11.8636
▁australia	-11.8643
▁ana	-11.8648
fb	-11.8659
▁designs	-11.8662
pile	-11.8664
ood	-11.8671
sunâ	-11.8671
sab	-11.8672
▁feliz	-11.8672
fleet	-11.8673
dnt	-11.8683
instalove	-11.8684
	-11.8687
▁epi	-11.8688
moda	-11.8698
bong	-11.8702
obamas	-11.8707
▁hunt	-11.8708
tro	-11.871
ward	-11.8712
▁drum	-11.8717
tara	-11.8721
match	-11.8721
ipped	-11.8722
▁impo	-11.8726
▁releases	-11.8729
▁wor	-11.8729
champs	-11.8738
younique	-11.875
brothers	-11.875
abe	-11.8757
▁camper	-11.8759
▁wreck	-11.8762
volunteers	-11.8763
nor	-11.8763
▁ou	-11.8764
cf	-11.8766
▁goodmorning	-11.8773
▁sip	-11.8773
▁tra	-11.8775
aware	-11.8782
tie	-11.8783
ung	-11.8786
brie	-11.8788
▁cd	-11.8792
tin	-11.8794
mates	-11.8799
residents	-11.8803
▁realiz	-11.8808
fabric	-11.881
▁tie	-11.8814
▁cherish	-11.8823
▁mob	-11.8833
▁xo	-11.8836
bean	-11.8837
lifeof	-11.8838
▁vacations	-11.8844
bom	-11.8849
atin	-11.8849
▁wat	-11.8858
etti	-11.8871
blessedâ	-11.8872
▁feminism	-11.8874
198	-11.8874
▁trad	-11.8876
ddles	-11.8888
87	-11.8889
odd	-11.8892
ans	-11.8899
ob	-11.8902
▁dese	-11.8902
▁gp	-11.8907
ud	-11.8911
tim	-11.8912
alt	-11.8914
cÃ	-11.8915
ica	-11.8918
600	-11.8925
moz	-11.893
anc	-11.8933
rec	-11.8933
cab	-11.8941
fil	-11.8946
foryou	-11.8951
mens	-11.8957
▁pose	-11.8963
▁rush	-11.8967
indi	-11.8972
hop	-11.8977
swar	-11.898
hipp	-11.8983
cir	-11.8985
▁decline	-11.8998
wont	-11.9
ore	-11.9011
fully	-11.9013
▁mans	-11.9015
lings	-11.9027
▁beau	-11.9036
ends	-11.9041
kets	-11.9045
zee	-11.9054
flowerlove	-11.9055
sons	-11.9056
toons	-11.9057
goa	-11.906
parce	-11.9063
▁smash	-11.9066
inventi	-11.9066
pom	-11.9073
bashing	-11.9073
print	-11.9076
rained	-11.9079
shower	-11.9081
aar	-11.9089
uba	-11.9091
▁upgrade	-11.9093
kick	-11.9096
▁temp	-11.9102
prayingfor	-11.9106
0.2%	-11.9112
ants	-11.9116
▁mar	-11.9118
blind	-11.9121
zed	-11.9123
honour	-11.9124
hh	-11.9132
bigots	-11.9133
mentally	-11.9136
gr	-11.914
mun	-11.9145
..."	-11.916
rub	-11.9161
llah	-11.9164
victoria	-11.9164
kel	-11.9165
allow	-11.9168
cum	-11.917
▁wid	-11.9174
nna	-11.9188
flat	-11.9194
900	-11.9194
terrorist	-11.9194
professional	-11.9195
ple	-11.9197
shaw	-11.9199
cream	-11.9207
kaa	-11.9211
iating	-11.9212
pap	-11.9213
ces	-11.922
bastard	-11.9222
lipk	-11.9223
question	-11.9226
merce	-11.9226
pound	-11.9228
▁salut	-11.9232
2)	-11.9238
vibe	-11.9239
warrior	-11.9239
victim	-11.9239
royal	-11.9245
150	-11.9246
▁#10	-11.9248
mj	-11.9252
steve	-11.9252
emotion	-11.9254
lov	-11.9254
update	-11.9255
express	-11.9259
dren	-11.9264
hire	-11.9266
dig	-11.9269
twins	-11.927
edition	-11.9271
bull	-11.9276
▁~~	-11.9279
brew	-11.9281
▁rooms	-11.9281
ue	-11.9282
tits	-11.9282
justin	-11.9283
?????	-11.9283
four	-11.9284
grey	-11.9285
icon	-11.9285
▁favor	-11.9286
▁legal	-11.9291
tupac	-11.9291
zim	-11.9291
ments	-11.9291
polo	-11.9296
▁helps	-11.9298
wearing	-11.9299
eria	-11.93
lush	-11.9301
reel	-11.9301
▁clap	-11.9303
lock	-11.931
▁pearl	-11.9315
eric	-11.9316
luck	-11.932
▁tail	-11.9321
toast	-11.9326
▁queens	-11.933
▁opens	-11.934
▁remov	-11.934
stall	-11.9342
saint	-11.9347
teach	-11.935
gary	-11.935
aki	-11.9354
sink	-11.9355
alhamdul	-11.9355
drumpf	-11.9355
excellence	-11.9355
rwnj	-11.9355
juneteenth	-11.9355
explore	-11.9357
kazu	-11.9357
colorado	-11.9357
brent	-11.9358
costume	-11.9359
quay	-11.9365
coffe	-11.9366
heabreak	-11.9366
colin	-11.9366
▁spectacle	-11.9369
▁knw	-11.937
spect	-11.9371
oops	-11.9375
bummer	-11.9375
blow	-11.9377
baker	-11.9377
supreme	-11.9378
plaza	-11.9378
temecula	-11.9378
jungle	-11.9378
ceified	-11.9378
dutch	-11.9379
jordan	-11.9379
fired	-11.9379
midweek	-11.938
palace	-11.938
fearless	-11.9384
biased	-11.9387
teddy	-11.9387
eker	-11.9387
hyun	-11.9387
track	-11.9387
dinosaur	-11.9388
frustrating	-11.9388
wisconsin	-11.9388
survivor	-11.9388
▁teenager	-11.9388
conflict	-11.9388
upgrade	-11.9388
▁whisper	-11.9388
warcraft	-11.9388
harvest	-11.9389
messy	-11.9389
▁frame	-11.9389
revenge	-11.9392
climate	-11.9392
virgin	-11.9393
academy	-11.9393
malaysia	-11.9393
tennis	-11.9393
booth	-11.9393
disgrace	-11.9394
louis	-11.9394
holly	-11.9394
leftist	-11.9394
bunny	-11.9395
pas	-11.9395
▁historic	-11.9396
dvd	-11.9396
shark	-11.9396
glasgow	-11.9396
technology	-11.9396
▁knee	-11.9397
ideology	-11.9397
hiking	-11.9398
racial	-11.9398
courage	-11.9399
furniture	-11.9399
financial	-11.9399
mumbai	-11.9399
propaganda	-11.9399
chips	-11.9399
smoking	-11.9399
belief	-11.9399
captain	-11.9399
▁limit	-11.9399
talking	-11.9399
museum	-11.94
lucy	-11.94
broadway	-11.94
hilarious	-11.9401
journalism	-11.9401
settlement	-11.9401
blood	-11.9401
welove	-11.9401
activities	-11.9402
immigration	-11.9402
victory	-11.9402
machine	-11.9402
secure	-11.9402
sponsor	-11.9402
clay	-11.9403
intelligence	-11.9403
access	-11.9403
genocide	-11.9403
direction	-11.9403
logic	-11.9403
float	-11.9404
▁conversation	-11.9404
lawyer	-11.9405
useless	-11.9405
gross	-11.9405
basketball	-11.9405
announcement	-11.9406
stephen	-11.9406
speed	-11.9406
advance	-11.9406
restaurant	-11.9406
floor	-11.9407
practice	-11.9408
aria	-11.9408
normal	-11.9408
opinion	-11.9408
theater	-11.9408
alligator	-11.9408
frank	-11.9409
quick	-11.9409
straight	-11.9409
campaign	-11.941
click	-11.941
prize	-11.941
▁relative	-11.941
messi	-11.941
deserve	-11.941
gorilla	-11.9411
insane	-11.9411
▁package	-11.9412
hypocrite	-11.9412
shooter	-11.9413
imagine	-11.9414
belated	-11.9414
load	-11.9415
european	-11.9415
pls	-11.9415
type	-11.9417
woke	-11.9417
few	-11.9418
plate	-11.9418
nightclub	-11.9419
cocktail	-11.9419
earrings	-11.942
regard	-11.9422
musician	-11.9425
▁havin	-11.9426
hrc	-11.9426
dick	-11.9426
baba	-11.9427
recording	-11.9428
punk	-11.9428
/16	-11.9429
coat	-11.9431
▁reward	-11.9431
ew	-11.9432
random	-11.9432
rome	-11.9432
billy	-11.9433
pants	-11.9433
▁frog	-11.9433
homeless	-11.9434
▁employee	-11.9436
idk	-11.9437
based	-11.9438
▁101	-11.9438
haven	-11.9438
belly	-11.9438
uku	-11.9447
▁individual	-11.9449
1000	-11.9449
oir	-11.9451
fasting	-11.9451
andrew	-11.9453
emotionally	-11.9453
▁rad	-11.9453
▁butter	-11.9455
goat	-11.9458
elect	-11.9459
dul	-11.9461
jews	-11.9464
photoshop	-11.9466
found	-11.9467
brokenquotes	-11.9467
fries	-11.9467
▁sorrow	-11.9468
-8	-11.9469
ccount	-11.947
▁guest	-11.947
▁thousand	-11.9474
huge	-11.9475
▁lyric	-11.9476
pens	-11.9477
menu	-11.9478
▁slap	-11.9479
arma	-11.9479
than	-11.9481
▁lists	-11.9481
▁hoo	-11.9483
flyer	-11.9483
▁pos	-11.9483
visiting	-11.9484
shades	-11.9485
▁fil	-11.9489
drugs	-11.9494
▁cole	-11.9509
ficial	-11.9509
punjabi	-11.951
2!	-11.9512
blooms	-11.9513
reunited	-11.9513
inmy	-11.9516
▁hidd	-11.9518
legs	-11.9522
candle	-11.9523
▁thrill	-11.9524
ese	-11.9527
hd	-11.9528
script	-11.9528
ork	-11.9531
shape	-11.9531
▁surviv	-11.9532
tomy	-11.9532
▁sigh	-11.9532
raising	-11.9533
▁humiliat	-11.9533
cookies	-11.9537
fishing	-11.954
3⁄4¬	-11.9544
gf	-11.9546
▁sadde	-11.9546
▁hijack	-11.9549
chim	-11.9549
ata	-11.955
▁deceive	-11.9552
▁require	-11.9555
▁drown	-11.9555
dontcare	-11.9558
aupair	-11.956
▁releas	-11.956
▁:)))	-11.9563
rules	-11.9565
▁norm	-11.9565
▁oooh	-11.9565
berg	-11.9566
vulga	-11.9568
▁equi	-11.9569
justinb	-11.9569
zombie	-11.9569
▁aid	-11.9571
▁occur	-11.9571
esteem	-11.9571
psycholog	-11.9571
semitism	-11.9572
palestin	-11.9572
▁mornin	-11.9572
thweeksary	-11.9572
bourne	-11.9572
eclipse	-11.9572
opkillingbay	-11.9572
redemption	-11.9572
afghanistan	-11.9572
caucasian	-11.9572
celebrities	-11.9572
illinois	-11.9572
inclusive	-11.9572
meatloaf	-11.9572
pueorico	-11.9572
samantha	-11.9572
▁approx	-11.9572
▁contagious	-11.9572
▁evolution	-11.9572
▁external	-11.9572
▁investigation	-11.9572
▁unwavering	-11.9572
chennai	-11.9572
gucci	-11.9572
unconditional	-11.9572
viernes	-11.9572
vodka	-11.9572
▁temporary	-11.9572
aladdin	-11.9572
franchise	-11.9572
seoul	-11.9572
▁minorities	-11.9572
mileycyrus	-11.9572
mohammed	-11.9572
pittiuomo	-11.9572
unchaed	-11.9572
unexpected	-11.9572
damien	-11.9572
holistic	-11.9572
wakow	-11.9572
▁perfume	-11.9572
stephcurry	-11.9572
▁reassur	-11.9572
▁tactics	-11.9572
safari	-11.9572
▁felon	-11.9572
suffolk	-11.9572
dentist	-11.9573
▁steady	-11.9573
▁license	-11.9573
cockatoo	-11.9573
injury	-11.9573
▁venture	-11.9573
anorexi	-11.9573
bieber	-11.9573
▁victorious	-11.9573
▁redneck	-11.9573
oregon	-11.9573
quebec	-11.9573
▁confession	-11.9573
carwash	-11.9573
autism	-11.9573
allergy	-11.9573
zurich	-11.9573
▁taeil	-11.9573
3	-11.9573
▁involve	-11.9573
▁identif	-11.9573
converse	-11.9573
myhappyplace	-11.9573
killary	-11.9573
▁calico	-11.9573
▁delightful	-11.9573
nevergiveup	-11.9573
bruce	-11.9573
dwp	-11.9573
climatechange	-11.9573
vader	-11.9573
paranormal	-11.9573
▁roza	-11.9573
▁globe	-11.9574
feather	-11.9574
bridetobe	-11.9574
conveible	-11.9574
▁minister	-11.9574
▁38	-11.9574
mario	-11.9574
▁meaningless	-11.9574
▁quill	-11.9574
acquire	-11.9574
incest	-11.9574
3⁄4	-11.9574
▁dictionary	-11.9574
▁trophy	-11.9574
presumptive	-11.9574
oomf	-11.9574
▁swap	-11.9574
cumple	-11.9574
hongkong	-11.9574
joshua	-11.9574
▁commer	-11.9574
▁incompeten	-11.9574
nuclear	-11.9574
snowflake	-11.9574
kaye	-11.9575
▁bobby	-11.9575
letsplay	-11.9575
▁familiar	-11.9575
▁spike	-11.9575
pdx	-11.9575
hatespeech	-11.9575
▁pound	-11.9575
▁agr	-11.9575
▁draymond	-11.9575
▁sexuality	-11.9576
bastards	-11.9576
craftbeer	-11.9576
taxpayer	-11.9576
	-11.9576
xic	-11.9576
cedar	-11.9576
▁splend	-11.9576
buddha	-11.9576
needmore	-11.9577
▁arrival	-11.9577
panama	-11.9577
psalm	-11.9577
ductive	-11.9577
▁rebound	-11.9577
curly	-11.9577
anza	-11.9578
▁schu	-11.9578
	-11.9578
edu	-11.9578
3⁄4£	-11.9578
automatic	-11.9578
¤	-11.9578
koala	-11.9579
adobe	-11.9579
▁elsewhere	-11.9579
▁craziest	-11.958
▁edge	-11.958
inlovewith	-11.958
nikon	-11.958
foreverliving	-11.958
myfavorite	-11.958
	-11.958
▁paycheck	-11.9581
pokemonsun	-11.9581
stopgun	-11.9581
psyched	-11.9581
	-11.9581
	-11.9582
▁seminar	-11.9582
▁stole	-11.9582
awaii	-11.9582
viual	-11.9583
freelance	-11.9583
«	-11.9584
lfc	-11.9584
pepsi	-11.9585
posh	-11.9585
valent	-11.9585
columbia	-11.9585
	-11.9585
	-11.9585
oldschool	-11.9586
perez	-11.9586
«	-11.9586
▁whack	-11.9586
breakthrough	-11.9587
▁captured	-11.9587
	-11.9587
­	-11.9587
such	-11.9587
rightnow	-11.9587
barrack	-11.9588
▁moan	-11.9588
brill	-11.9588
ineedto	-11.9588
vlogger	-11.9588
gawa	-11.9588
«	-11.9588
coachella	-11.9588
bruno	-11.9589
▁properly	-11.9589
▁faded	-11.9589
▁straighten	-11.9589
▁fitting	-11.9589
bisexual	-11.9589
§	-11.9589
▁darling	-11.9589
	-11.959
ldas	-11.959
▁approved	-11.959
¬	-11.959
▁hint	-11.959
labor	-11.9591
tracy	-11.9591
▁prettiest	-11.9591
terdam	-11.9591
miniature	-11.9591
©	-11.9591
▁conf	-11.9592
°	-11.9592
▁bastard	-11.9593
▁hometown	-11.9593
nerve	-11.9593
ano	-11.9593
▁circumstances	-11.9594
▁retire	-11.9594
trumpuniversity	-11.9594
youthday	-11.9594
▁genetics	-11.9595
▁scientists	-11.9595
	-11.9595
▁appropriate	-11.9595
▁baltimore	-11.9595
▁fulfill	-11.9595
▁auction	-11.9595
▁minneapolis	-11.9595
▁flavor	-11.9595
▁governor	-11.9595
▁monroe	-11.9595
▁thumb	-11.9595
▁uniform	-11.9595
▁suarez	-11.9595
▁ethnic	-11.9595
▁tragedies	-11.9595
3⁄4¥	-11.9595
▁hiding	-11.9595
▁camden	-11.9595
▁smdh	-11.9595
▁tease	-11.9595
▁foolish	-11.9595
▁wifi	-11.9595
°	-11.9595
▁grandparents	-11.9595
lobster	-11.9596
£	-11.9596
▁storage	-11.9596
▁password	-11.9596
▁moose	-11.9596
▁teammates	-11.9596
▁sheets	-11.9597
***	-11.9597
▁coues	-11.9597
▁emotion	-11.9598
lovewins	-11.9598
▁assessment	-11.9598
beck	-11.9598
▁accountable	-11.9598
ableism	-11.9599
▁spotlight	-11.9599
▁appearance	-11.9599
▁flaming	-11.9599
nadal	-11.96
anhai	-11.96
freddie	-11.96
emea	-11.96
topia	-11.9601
▁dvr	-11.9601
anting	-11.9601
▁legit	-11.9601
bite	-11.9601
delphi	-11.9601
	-11.9601
▁midnight	-11.9602
▁jp	-11.9602
isaac	-11.9602
prolly	-11.9602
cult	-11.9602
suprise	-11.9602
▁roy	-11.9602
▁2013	-11.9603
▁olympic	-11.9603
clever	-11.9603
▁intend	-11.9603
±	-11.9604
inc	-11.9604
▁penny	-11.9604
imissyou	-11.9605
▁robin	-11.9605
1⁄2	-11.9606
getit	-11.9607
soundtrack	-11.9608
jason	-11.9609
▁lite	-11.961
▁irony	-11.961
▁deny	-11.961
brows	-11.961
hoodies	-11.9611
omw	-11.9611
nous	-11.9611
biking	-11.9611
mentors	-11.9612
kete	-11.9612
spotted	-11.9612
ontour	-11.9612
▁gunman	-11.9612
▁performer	-11.9612
▁latin	-11.9613
▁flourishing	-11.9613
▁delight	-11.9614
ocd	-11.9616
ballet	-11.9617
allsmiles	-11.9617
▁deeper	-11.9618
▁feder	-11.9618
▁carol	-11.9619
pebble	-11.9619
▁empowering	-11.9619
gogo	-11.962
▁dishonest	-11.962
pitti	-11.9622
câ	-11.9622
▁lâ	-11.9622
▁endless	-11.9622
▁gsw	-11.9622
▁suppose	-11.9623
happens	-11.9623
ceificate	-11.9624
minutes	-11.9624
▁peach	-11.9624
▁champion	-11.9626
prof	-11.9626
	-11.9626
▁mutual	-11.9626
▁asap	-11.9626
pony	-11.9627
3⁄41	-11.9628
▁elect	-11.9628
notcool	-11.9629
	-11.9629
freestyle	-11.9629
pei	-11.9629
▁element	-11.963
▁tele	-11.9631
▁spirited	-11.9631
▁behavior	-11.9633
▁neck	-11.9633
▁smaller	-11.9633
▁venice	-11.9633
▁charlotte	-11.9634
▁ecstatic	-11.9634
▁hundred	-11.9634
▁attorney	-11.9634
▁reagan	-11.9634
▁thalaivaa	-11.9634
▁hudson	-11.9634
▁austin	-11.9634
▁chelsea	-11.9634
▁isolated	-11.9634
▁offensive	-11.9634
▁equate	-11.9634
▁decorative	-11.9634
▁bentley	-11.9634
▁airlines	-11.9634
▁wigs	-11.9635
▁davis	-11.9635
▁jacket	-11.9635
▁motto	-11.9635
▁liquid	-11.9635
▁chant	-11.9635
▁sarah	-11.9636
▁cuck	-11.9636
▁headache	-11.9637
edfringe	-11.9637
▁woah	-11.9637
	-11.9637
▁earp	-11.9638
▁unify	-11.9638
▁commute	-11.9638
hining	-11.9638
▁sickening	-11.9638
thegoodlife	-11.9638
watson	-11.964
▁lovelies	-11.964
▁shopper	-11.964
▁bedroom	-11.9641
▁pier	-11.9641
stud	-11.9641
▁seasonal	-11.9641
▁megan	-11.9642
bucks	-11.9642
cows	-11.9642
▁bb	-11.9642
tiâ	-11.9643
▁bowl	-11.9645
	-11.9646
▁publish	-11.9646
childcare	-11.9648
▁bush	-11.9649
▁meetings	-11.9649
▁dread	-11.9649
▁impressed	-11.9649
▁repeating	-11.9653
vow	-11.9655
9.5	-11.9656
spin	-11.9659
1	-11.966
▁kilo	-11.966
▁loneli	-11.9661
▁valued	-11.9661
aldo	-11.9662
sandy	-11.9663
helpme	-11.9665
▁bearâ	-11.9665
hamburg	-11.9667
▁pepper	-11.9667
▁surface	-11.9668
▁adve	-11.9668
▁progressives	-11.9668
▁rite	-11.9669
▁vibe	-11.9669
▁jacob	-11.967
▁nope	-11.9671
▁susan	-11.9671
▁sophi	-11.9672
▁excite	-11.9672
lolita	-11.9672
▁keith	-11.9673
contented	-11.9673
▁ambassador	-11.9674
▁deplorable	-11.9674
▁avocado	-11.9674
▁inauguration	-11.9674
▁narrative	-11.9674
▁setup	-11.9674
▁britain	-11.9674
▁breeze	-11.9674
▁fascinating	-11.9674
▁passionate	-11.9674
▁grove	-11.9674
▁wendy	-11.9675
▁gurl	-11.9675
▁affair	-11.9675
▁resignation	-11.9675
▁honesty	-11.9675
▁nov	-11.9675
▁impressive	-11.9676
▁grandfather	-11.9676
▁decent	-11.9677
▁disabled	-11.9677
▁heaache	-11.9677
remastered	-11.9678
▁thin	-11.9679
▁argentina	-11.9679
▁gaz	-11.9683
trix	-11.9684
▁backwards	-11.9685
▁outcome	-11.9685
▁suppoive	-11.9686
▁tin	-11.9686
supernatural	-11.9687
▁grabb	-11.969
.........	-11.9691
graceful	-11.9691
tune	-11.9692
▁hooked	-11.9693
▁intolerance	-11.9695
▁soooooo	-11.9696
relieved	-11.9697
ofjoy	-11.9698
▁infinite	-11.9699
bru	-11.9699
gown	-11.9699
▁celeb	-11.97
▁tat	-11.9701
▁lisa	-11.9702
▁olive	-11.9702
08	-11.9705
been	-11.9706
cupcakes	-11.9706
▁73	-11.9706
▁stem	-11.9706
▁developer	-11.9707
▁yesssss	-11.9708
▁colleagues	-11.9708
crystals	-11.9711
▁networking	-11.9711
tourism	-11.9711
»	-11.9712
▁jose	-11.9713
ib	-11.9713
yang	-11.9713
phobia	-11.9713
▁selena	-11.9713
▁jr	-11.9713
▁baking	-11.9714
▁bangkok	-11.9714
▁spanish	-11.9714
▁nottingham	-11.9714
▁economic	-11.9715
▁discount	-11.9715
▁distress	-11.9715
▁audition	-11.9715
▁prepared	-11.9715
▁maryl	-11.9716
▁valentine	-11.9717
▁wealthy	-11.9718
▁trek	-11.9718
▁rachel	-11.9718
▁beware	-11.9718
▁committe	-11.9718
▁oldest	-11.9718
▁parade	-11.9718
▁attraction	-11.9721
▁mma	-11.9721
▁william	-11.9721
▁enthusiasm	-11.9723
▁25%	-11.9723
▁fro	-11.9724
islamist	-11.9727
▁subt	-11.9728
▁crystal	-11.9728
£7	-11.9728
osse	-11.9728
▁bracelets	-11.9729
▁stairs	-11.973
▁#360	-11.973
▁ceo	-11.9731
intentional	-11.9732
duper	-11.9732
hump	-11.9734
▁heabreak	-11.9735
▁-#	-11.9736
▁brew	-11.9736
geta	-11.9738
▁firm	-11.9738
jab	-11.974
1⁄4	-11.9741
	-11.9741
else	-11.9743
payday	-11.9744
▁cube	-11.9745
coz	-11.9747
1⁄2	-11.9753
▁alot	-11.9754
twinkle	-11.9755
▁climate	-11.9755
▁virgin	-11.9755
▁academy	-11.9755
▁tennis	-11.9755
▁bunny	-11.9756
▁malaysia	-11.9756
▁600	-11.9757
needs	-11.9757
blend	-11.9757
▁engineering	-11.9757
▁rom	-11.9758
fin	-11.9758
musicians	-11.9759
▁dearly	-11.9762
▁exec	-11.9765
▁hiking	-11.9768
▁heels	-11.977
	-11.9771
▁rapist	-11.9771
cousins	-11.9772
▁fellas	-11.9775
▁cum	-11.9775
pil	-11.9776
ich	-11.9777
▁deserved	-11.9777
damon	-11.9778
▁22.	-11.9778
▁murderer	-11.9779
mary	-11.9779
hsp	-11.9781
▁jk	-11.9781
▁duck	-11.9782
▁puff	-11.9782
ani	-11.9782
iling	-11.9783
native	-11.9787
▁ears	-11.9788
▁cruel	-11.9788
▁rh	-11.9788
▁trim	-11.9791
nwa	-11.9792
coloring	-11.9792
▁queu	-11.9792
▁selection	-11.9794
girlsâ	-11.9796
moral	-11.9796
▁elizabeth	-11.9796
▁reggae	-11.9796
▁motorcycle	-11.9796
▁mickey	-11.9797
▁scam	-11.9797
▁sabbath	-11.9799
▁treason	-11.9801
crude	-11.9801
▁leftist	-11.9801
decide	-11.9802
▁bou	-11.9802
▁eggs	-11.9804
▁adveising	-11.9805
▁luke	-11.9806
values	-11.9809
▁cell	-11.9809
▁modi	-11.981
mx	-11.9811
▁follows	-11.9811
▁blu	-11.9811
▁barbie	-11.9812
kiddo	-11.9813
▁refs	-11.9816
▁smoothie	-11.9816
▁,#	-11.9817
clients	-11.9817
tuning	-11.9823
▁measures	-11.9824
▁sur	-11.9824
▁neighbors	-11.9824
▁nitr	-11.9825
▁eco	-11.9827
backpack	-11.9828
▁tx	-11.9831
▁despi	-11.9831
antal	-11.9833
js	-11.9833
▁happend	-11.9833
▁griev	-11.9835
▁daisy	-11.9838
▁exploring	-11.9838
▁cardiff	-11.9838
▁zo	-11.9839
countrymusic	-11.9839
▁firefly	-11.984
▁pout	-11.984
laid	-11.9842
%#	-11.9843
▁treasures	-11.9846
inter	-11.9848
▁edits	-11.9848
▁nigger	-11.9849
halo	-11.9849
leaves	-11.9859
sprint	-11.9859
awsome	-11.986
uz	-11.9863
ndrome	-11.9864
nightlife	-11.9864
tor	-11.9865
▁sticker	-11.9866
4.99	-11.9867
▁craft	-11.987
yah	-11.9871
▁meds	-11.9874
tool	-11.9874
▁atlanta	-11.9879
▁marvel	-11.9879
▁xian	-11.988
▁ludi	-11.9881
▁stella	-11.9881
instadog	-11.9882
▁nowhere	-11.9883
asu	-11.9888
▁reverse	-11.9899
▁moto	-11.9902
	-11.9902
miu	-11.9906
jh	-11.9908
babes	-11.9909
newadventure	-11.991
moms	-11.991
▁spe	-11.9911
▁pb	-11.9913
dv	-11.9913
▁13:	-11.9916
cycled	-11.9919
▁steak	-11.9921
▁equals	-11.9922
▁batman	-11.9923
▁compassion	-11.9923
mika	-11.9923
	-11.9927
orm	-11.9931
▁named	-11.9933
▁shad	-11.9933
▁bark	-11.9934
isreal	-11.9938
▁pep	-11.9938
ruby	-11.9943
8.99	-11.9943
▁scrub	-11.9944
merica	-11.9946
▁assess	-11.9948
▁favorites	-11.995
havingfun	-11.9951
fre	-11.9952
foundation	-11.9953
▁deleted	-11.9954
joe	-11.9956
▁cowboy	-11.9957
▁gat	-11.9959
▁fu	-11.9959
▁apt	-11.9961
lifetime	-11.9961
dean	-11.9961
▁bump	-11.9962
▁professionals	-11.9963
▁diversity	-11.9963
▁ross	-11.9965
trumpism	-11.9965
beachday	-11.997
▁champions	-11.997
▁sunrise	-11.9972
lax	-11.9978
sat	-11.998
▁doc	-11.9983
outing	-11.9986
byron	-11.9986
lapping	-11.9991
▁vp	-11.9992
covering	-11.9992
▁dri	-11.9993
ator	-11.9994
▁dope	-11.9996
▁hormone	-11.9997
▁cro	-12.0002
css	-12.0003
▁headline	-12.0005
▁walt	-12.0005
ciel	-12.0006
ena	-12.0007
▁bombs	-12.0007
▁tumblr	-12.0008
31	-12.0009
puppylove	-12.001
▁eva	-12.0013
▁#80	-12.0015
needto	-12.0016
▁fur	-12.0017
6/16	-12.002
▁crowds	-12.002
monica	-12.0022
4-7	-12.003
ih	-12.003
aim	-12.003
rnc	-12.003
busty	-12.0037
.9%	-12.0039
bale	-12.0042
infinity	-12.0045
▁scores	-12.0047
▁suits	-12.0047
devastating	-12.0048
▁clothing	-12.0049
silv	-12.0051
▁novel	-12.0052
dis	-12.0053
▁wade	-12.0057
▁pole	-12.0059
eller	-12.006
bri	-12.0061
thoughtful	-12.0062
▁puppet	-12.0065
▁assum	-12.0068
whereare	-12.0071
▁moral	-12.0072
nb	-12.0073
▁goodies	-12.0085
mrs	-12.0086
▁highlights	-12.0086
arguing	-12.0087
▁lions	-12.0087
▁stall	-12.0089
duran	-12.0095
▁stroll	-12.0098
momentum	-12.0099
▁sneaks	-12.0102
▁fig	-12.0107
bb	-12.0108
elf	-12.0108
inâ	-12.0109
longtime	-12.011
▁blv	-12.0113
▁yi	-12.0122
▁subs	-12.0124
▁trucks	-12.0126
nique	-12.0138
educational	-12.014
▁viewer	-12.0142
arious	-12.0143
▁fits	-12.0144
▁woods	-12.0145
orn	-12.0147
▁lola	-12.0149
loneli	-12.0149
37	-12.0151
form	-12.0157
▁develop	-12.0157
ality	-12.016
huff	-12.016
due	-12.0162
gent	-12.0164
blacks	-12.0168
tiny	-12.0174
ovo	-12.0177
poi	-12.0179
▁confident	-12.0179
▁magnet	-12.018
meâ	-12.0182
▁mill	-12.0183
▁core	-12.0185
atthe	-12.0187
struction	-12.0188
▁gin	-12.0195
bondi	-12.0196
kut	-12.0199
itsa	-12.02
antiag	-12.0206
anal	-12.0207
shock	-12.021
▁wip	-12.0213
▁bala	-12.0215
ato	-12.0222
tar	-12.0222
sweaty	-12.0223
▁berlin	-12.0223
▁statements	-12.0224
guet	-12.0225
idi	-12.0225
▁friyay	-12.0225
faced	-12.0228
mile	-12.0228
▁saturdays	-12.0235
losers	-12.0239
amber	-12.024
shots	-12.0241
pra	-12.0241
▁owl	-12.0244
thegame	-12.0245
▁brighton	-12.0248
▁options	-12.0248
▁1:	-12.0248
lar	-12.0251
.93	-12.0252
ada	-12.0253
baller	-12.0254
▁toys	-12.0257
▁titles	-12.0262
issues	-12.0262
▁anyways	-12.0267
site	-12.0276
▁meaning	-12.0289
▁spare	-12.029
▁parenting	-12.0293
▁tunes	-12.03
thebig	-12.03
augh	-12.0301
upgraded	-12.0301
48	-12.0303
attacks	-12.0304
▁mentions	-12.0307
bol	-12.0314
vin	-12.0319
nâ	-12.032
poole	-12.0321
▁meat	-12.0324
▁asians	-12.0326
colours	-12.0338
0.3	-12.0338
▁flags	-12.0344
dur	-12.0346
▁asf	-12.0352
goodvibesâ	-12.037
▁improv	-12.0371
▁priorit	-12.0374
cze	-12.0376
▁wah	-12.0381
▁aside	-12.0382
jay	-12.0385
▁glasses	-12.0385
▁hahahaha	-12.0393
waited	-12.0395
▁studios	-12.0397
carla	-12.0401
▁command	-12.0401
likea	-12.0401
▁frustrated	-12.0403
thesun	-12.0415
agent	-12.0423
rom	-12.0424
▁constructi	-12.043
md	-12.0431
▁veggie	-12.0431
ians	-12.0432
▁ties	-12.0435
▁phil	-12.0438
▁transf	-12.0438
send	-12.0441
opened	-12.0441
jiyo	-12.0442
jk	-12.0443
ican	-12.0443
▁transformation	-12.0445
werk	-12.0448
sach	-12.0453
▁replay	-12.0453
lore	-12.0454
▁boycott	-12.0455
spf	-12.0455
rep	-12.0456
bestof	-12.0463
alan	-12.0465
kate	-12.0466
▁risks	-12.047
youre	-12.0476
▁romance	-12.0495
ven	-12.0499
triathl	-12.0504
▁tokyo	-12.0505
mÃ	-12.0508
▁06	-12.0509
▁cho	-12.0511
newbook	-12.0511
nos	-12.0512
ika	-12.0515
peon	-12.0518
odi	-12.0522
68	-12.0528
rou	-12.0528
insur	-12.0533
▁winners	-12.0534
▁throwback	-12.0535
▁lib	-12.0535
bt	-12.054
champ	-12.0541
▁markets	-12.0542
loy	-12.0547
cking	-12.055
doing	-12.0558
▁brains	-12.0559
aliens	-12.0561
▁pipe	-12.0569
▁sl	-12.0569
wall	-12.0571
equit	-12.0578
eaten	-12.0583
abi	-12.0585
feature	-12.0591
ench	-12.0593
aylor	-12.0595
meow	-12.0598
rey	-12.0598
traitors	-12.0605
▁demi	-12.061
▁0.79	-12.0611
▁val	-12.0614
▁colombia	-12.0621
...!!!	-12.0629
tiger	-12.0636
nl	-12.065
▁ghost	-12.0653
▁beard	-12.0656
rp	-12.0664
placement	-12.0672
kia	-12.0674
chin	-12.0684
▁tools	-12.0684
▁affects	-12.0689
▁appreciat	-12.0699
kit	-12.0701
▁wan	-12.0701
fie	-12.0704
▁zi	-12.0707
66	-12.0708
aft	-12.0709
▁sow	-12.071
shak	-12.0711
▁contemp	-12.0713
jar	-12.0713
▁carv	-12.0713
▁aye	-12.072
▁arab	-12.0721
7-	-12.0723
▁load	-12.0724
tata	-12.0725
belle	-12.0728
▁elections	-12.0744
▁sk	-12.0748
▁donor	-12.075
ipsy	-12.0752
stereotypes	-12.0753
▁dismantle	-12.0768
▁fian	-12.0771
▁yum	-12.0777
nf	-12.0782
mit	-12.0783
pace	-12.0792
bster	-12.0794
pot	-12.0795
hoes	-12.0796
demic	-12.0797
greenâ	-12.0801
daniel	-12.0803
doggies	-12.0804
▁easter	-12.0808
aded	-12.0809
sit	-12.0814
livelove	-12.0816
hora	-12.0822
pd	-12.0834
rocket	-12.0834
howto	-12.0836
55	-12.0836
dk	-12.0837
40,	-12.0839
ral	-12.0842
▁mic	-12.0843
collector	-12.0846
hday	-12.085
ered	-12.0852
aba	-12.0854
ahs	-12.0855
▁wallpaper	-12.0855
ined	-12.0859
▁krist	-12.0868
▁stereotype	-12.0868
cl	-12.0869
bn	-12.0874
cos	-12.0876
rby	-12.0876
theday	-12.088
▁mere	-12.0881
miler	-12.0892
▁agent	-12.0896
printing	-12.0899
rren	-12.0902
▁maza	-12.0918
fare	-12.0939
etic	-12.0941
▁cor	-12.0941
couples	-12.0942
▁tre	-12.0944
hhhhh	-12.0948
▁fare	-12.0954
▁sque	-12.0961
opus	-12.0971
loveyour	-12.0974
zzy	-12.0975
bg	-12.0975
▁gratitude	-12.0977
▁boards	-12.098
hep	-12.0982
cia	-12.0984
mill	-12.0985
▁#40	-12.0989
tax	-12.0993
rway	-12.0997
etting	-12.0997
▁grows	-12.0999
▁joint	-12.1
haveto	-12.1001
decorat	-12.1001
mins	-12.1005
rr	-12.1009
▁schem	-12.1024
▁imm	-12.1025
▁16:	-12.1025
spl	-12.1032
vive	-12.1047
poll	-12.1049
cuddle	-12.105
allin	-12.1051
ving	-12.1053
▁aldub	-12.107
frio	-12.107
ara	-12.1071
yface	-12.1078
jane	-12.1084
nic	-12.1089
yyyy	-12.1092
mia	-12.1092
▁numbers	-12.1093
plet	-12.1101
killing	-12.1103
▁(3	-12.1104
▁await	-12.1105
▁reg	-12.1107
▁pla	-12.1116
alas	-12.1122
bio	-12.1125
rac	-12.1126
bihdayâ	-12.1135
▁prior	-12.1145
▁gardens	-12.1161
notso	-12.117
▁forgive	-12.1183
▁resolve	-12.1188
rika	-12.1191
uda	-12.1198
ep	-12.12
anytime	-12.12
mole	-12.1201
▁cab	-12.1201
▁disgust	-12.1202
inst	-12.1205
rous	-12.1208
witch	-12.1209
▁gar	-12.1214
base	-12.1218
xc	-12.1224
stressed	-12.123
▁ent	-12.1238
chefs	-12.1253
planning	-12.1258
52	-12.1259
▁tub	-12.1266
gon	-12.1269
▁torn	-12.1273
:30	-12.1276
£60	-12.1281
▁los	-12.1285
een	-12.1287
feelin	-12.1294
browns	-12.1303
darker	-12.1304
pat	-12.1327
lens	-12.1329
yog	-12.1332
▁travels	-12.1338
ydon	-12.1339
phu	-12.134
looks	-12.134
▁slim	-12.134
dora	-12.134
5.00	-12.1344
▁feature	-12.1348
fri	-12.135
▁josh	-12.1353
▁rafa	-12.1358
▁gather	-12.1363
▁bass	-12.1365
bum	-12.1366
uru	-12.1368
▁flee	-12.1372
gat	-12.1372
)..	-12.1372
iii	-12.1374
cable	-12.1382
▁6/2	-12.1387
▁laughs	-12.1387
strip	-12.1389
drum	-12.1393
ania	-12.1396
outs	-12.1401
▁gamer	-12.1402
ideas	-12.1404
nast	-12.1409
af	-12.1413
isha	-12.1422
hou	-12.1422
▁bully	-12.1423
bump	-12.1424
healthylife	-12.1426
statenisland	-12.1431
bah	-12.1433
flex	-12.1441
▁beast	-12.1448
tryna	-12.1455
▁sin	-12.1455
▁skill	-12.1456
cla	-12.1463
lame	-12.1465
addie	-12.1466
190	-12.1468
▁bot	-12.1475
▁ek	-12.1478
shah	-12.1484
▁glitter	-12.1486
▁educate	-12.1488
cypr	-12.149
nata	-12.15
heads	-12.1503
36	-12.1504
hoo	-12.1507
says	-12.151
torio	-12.151
achieved	-12.1518
▁bihdayâ	-12.1524
▁author	-12.1525
dela	-12.1526
root	-12.1531
linda	-12.1534
booz	-12.154
areyou	-12.1543
▁fra	-12.1548
swan	-12.1551
erie	-12.1552
aving	-12.1556
▁poo	-12.156
cotta	-12.1561
▁:))))	-12.1564
justbe	-12.1568
▁refer	-12.1568
cop	-12.1575
mytraining	-12.1576
dayâ	-12.1579
forme	-12.1581
pers	-12.1582
izz	-12.1588
▁sab	-12.1604
loveof	-12.1607
▁glow	-12.1608
▁lasted	-12.1611
▁bd	-12.1625
gain	-12.1629
▁pabl	-12.1631
stan	-12.1636
▁fixture	-12.164
▁rains	-12.164
200	-12.1645
cycle	-12.1651
dish	-12.1653
goto	-12.1655
▁org	-12.166
ceo	-12.1662
▁rox	-12.1663
▁renew	-12.1668
bam	-12.1671
stitute	-12.1672
vel	-12.1673
beers	-12.1674
ded	-12.1678
todd	-12.1678
vocal	-12.1678
philip	-12.1683
issue	-12.1683
▁cu	-12.1683
jammin	-12.1687
▁bul	-12.1692
asi	-12.1692
record	-12.1698
criminal	-12.17
herba	-12.17
motor	-12.1703
barn	-12.1707
allof	-12.1712
▁spic	-12.1714
volunteer	-12.1717
emoji	-12.1717
bloom	-12.1719
crystal	-12.1719
giant	-12.172
ative	-12.1724
bubble	-12.1726
soulmate	-12.1728
▁obs	-12.1729
shoe	-12.1733
comment	-12.1734
rule	-12.174
ouch	-12.1741
▁solo	-12.1742
▁10-	-12.1746
▁dip	-12.175
cred	-12.1752
balloon	-12.1752
wines	-12.1753
▁pine	-12.1754
▁gon	-12.1756
hil	-12.1756
aric	-12.1758
dma	-12.176
▁poppin	-12.1771
▁privilege	-12.1775
br	-12.1781
driver	-12.1783
lugg	-12.1784
▁aaa	-12.1786
hear	-12.1789
lux	-12.1791
wit	-12.1795
aint	-12.1804
tolerance	-12.1805
taiw	-12.1805
workshop	-12.1809
reach	-12.1809
▁400	-12.1809
▁shed	-12.1812
greed	-12.1814
emper	-12.1814
phila	-12.1814
boots	-12.1815
solution	-12.1816
famous	-12.1816
memorie	-12.1817
▁gran	-12.1817
direct	-12.182
gua	-12.1824
▁promo	-12.1826
rbi	-12.1832
pov	-12.1834
count	-12.1834
mental	-12.184
cense	-12.184
▁whi	-12.184
anymore	-12.1842
ker	-12.1845
should	-12.1845
glow	-12.1846
saturda	-12.1847
ducks	-12.1849
consult	-12.185
94	-12.185
und	-12.1851
yong	-12.1851
abu	-12.1852
mygirl	-12.1853
ute	-12.1853
bots	-12.1854
cheerful	-12.1854
syria	-12.1857
productivity	-12.1857
swastika	-12.1857
morgan	-12.1857
authentic	-12.1857
cornwall	-12.1857
persian	-12.1857
omfg	-12.1857
whale	-12.1857
prosperity	-12.1857
blanca	-12.1857
fuming	-12.1857
lancaster	-12.1857
lesbian	-12.1857
improvement	-12.1857
serenity	-12.1858
marbs	-12.1858
yuki	-12.1858
maine	-12.1858
▁insult	-12.1859
photograph	-12.186
cer	-12.1861
ginger	-12.1861
tay	-12.1861
▁marc	-12.1863
handbag	-12.1863
wreck	-12.1863
karma	-12.1863
crack	-12.1864
return	-12.1864
pune	-12.1865
vacay	-12.1865
conf	-12.1865
comeback	-12.1865
daylight	-12.1872
cub	-12.1872
shred	-12.1873
block	-12.1873
vegetable	-12.1875
exist	-12.1875
jw	-12.1876
folding	-12.1877
stumble	-12.1879
prejudice	-12.1879
propey	-12.1879
bubbly	-12.1879
venezuela	-12.1879
experiment	-12.1879
wrestling	-12.1879
diploma	-12.1879
brazilian	-12.1879
auntie	-12.1879
exclusive	-12.1879
extinct	-12.1879
hook	-12.1879
unicorn	-12.1879
joseph	-12.1879
valentine	-12.1881
progressive	-12.1881
galway	-12.1882
familia	-12.1882
casual	-12.1883
seniors	-12.1883
slave	-12.1884
addiction	-12.1884
unfair	-12.1886
devote	-12.1886
▁cuts	-12.1887
guess	-12.1887
14663	-12.1888
protein	-12.1888
squirrel	-12.1888
dictator	-12.1888
carolina	-12.1888
▁rot	-12.1888
insults	-12.1888
curious	-12.1888
bailey	-12.1888
magazine	-12.1888
cruz	-12.1889
▁'#	-12.1889
iftar	-12.1889
ghana	-12.1889
booty	-12.189
picnic	-12.189
barbie	-12.189
clash	-12.1891
makeover	-12.1892
xo	-12.1893
economic	-12.1893
scout	-12.1893
bangkok	-12.1893
enthusiasm	-12.1893
discount	-12.1894
eagle	-12.1894
spanish	-12.1894
manis	-12.1894
▁sole	-12.1895
nottingham	-12.1895
tweeters	-12.1895
member	-12.1895
barry	-12.1896
audition	-12.1897
brussels	-12.1897
jessica	-12.1897
divorce	-12.1897
electric	-12.1897
universe	-12.1897
spoiled	-12.1897
palette	-12.1897
packing	-12.1898
failure	-12.1898
▁basket	-12.1898
trek	-12.1898
parade	-12.1899
▁breast	-12.1899
economy	-12.1899
engineering	-12.1899
belgium	-12.1899
tribute	-12.19
corrupt	-12.19
alcohol	-12.19
clip	-12.1901
gallery	-12.1901
essex	-12.1901
johnson	-12.1901
censor	-12.1901
kanye	-12.1901
chinese	-12.1902
reflect	-12.1902
▁colleague	-12.1902
wembley	-12.1902
patio	-12.1902
fou	-12.1902
betray	-12.1902
german	-12.1902
chief	-12.1902
tummy	-12.1902
greeting	-12.1902
kik	-12.1903
wallet	-12.1903
degree	-12.1903
grill	-12.1903
oakland	-12.1903
accident	-12.1904
stadium	-12.1904
macbook	-12.1904
profit	-12.1904
doesnt	-12.1905
independence	-12.1905
quiz	-12.1905
cookie	-12.1905
circle	-12.1905
crisis	-12.1905
cheap	-12.1905
computer	-12.1906
cracker	-12.1906
duty	-12.1906
trouble	-12.1906
flash	-12.1906
brick	-12.1906
policy	-12.1906
excitement	-12.1906
pancakes	-12.1906
somewhere	-12.1906
horrific	-12.1906
performing	-12.1907
▁kath	-12.1907
mantra	-12.1907
knowledge	-12.1907
performance	-12.1908
coco	-12.1908
expect	-12.1908
shairi	-12.1909
graduated	-12.191
hubby	-12.191
nigga	-12.1911
dollar	-12.1911
clap	-12.1911
miserable	-12.1911
everybody	-12.1912
prime	-12.1913
hardcore	-12.1913
debut	-12.1913
udos	-12.1913
promotion	-12.1913
cube	-12.1915
totally	-12.1915
thunder	-12.1915
treatment	-12.1915
binge	-12.1916
siblings	-12.1916
kisses	-12.1916
flame	-12.1918
logo	-12.1919
driving	-12.1919
maxi	-12.192
▁commitment	-12.192
negative	-12.192
bitches	-12.192
naked	-12.1923
privat	-12.1924
polar	-12.1924
rob	-12.1925
whatever	-12.1925
nowhere	-12.1926
corner	-12.1927
mouse	-12.1928
bug	-12.1928
greatness	-12.193
planet	-12.193
chance	-12.1931
resign	-12.1931
snack	-12.1933
wealthy	-12.1936
nights	-12.1937
lthy	-12.1939
sheff	-12.194
upload	-12.1941
radicalis	-12.1942
appreciated	-12.1944
against	-12.1945
location	-12.1945
obno	-12.1945
tradition	-12.1946
excit	-12.1946
gran	-12.1947
officer	-12.1949
▁reduce	-12.1953
thai	-12.1953
commercials	-12.1955
ybrid	-12.1955
▁revers	-12.1955
unity	-12.1957
showtime	-12.1958
canon	-12.1958
mcco	-12.1958
often	-12.196
▁asses	-12.1961
creations	-12.1961
blessing	-12.1963
bruh	-12.1963
▁360	-12.1963
crown	-12.1963
took	-12.1969
terior	-12.1971
ami	-12.1972
lose	-12.1974
daro	-12.1976
guests	-12.1976
rally	-12.1978
gment	-12.1978
branding	-12.1979
▁journalist	-12.1979
devil	-12.1979
▁raid	-12.198
loop	-12.1984
wat	-12.1984
peter	-12.1984
blo	-12.1986
ility	-12.1988
christ	-12.1988
khan	-12.1992
oso	-12.1993
cupcake	-12.1994
▁democrat	-12.1995
cost	-12.1996
telling	-12.1996
basic	-12.1996
lan	-12.1998
▁diff	-12.1998
legends	-12.2003
centre	-12.2005
tunes	-12.2007
pity	-12.2007
nocent	-12.2008
hri	-12.2009
hbo	-12.2011
musicis	-12.2012
tule	-12.2012
zip	-12.2013
▁sud	-12.2014
danger	-12.2015
coste	-12.2018
yass	-12.2018
▁gum	-12.2019
▁horrif	-12.2021
refresh	-12.2025
aroo	-12.2028
frey	-12.2028
dudes	-12.2029
lasting	-12.203
accounts	-12.2032
▁ser	-12.2032
▁continu	-12.2033
fut	-12.2036
loaded	-12.2037
bones	-12.2042
begins	-12.2042
perfectly	-12.2043
▁bloom	-12.2044
distress	-12.2045
fw	-12.2046
bal	-12.2047
▁complet	-12.2047
▁reflection	-12.2047
▁spec	-12.2048
ceived	-12.2048
boutit	-12.205
followforfollow	-12.2051
▁criticize	-12.2051
anchor	-12.2051
anka	-12.2053
firstday	-12.2054
▁crow	-12.2055
cultural	-12.2056
stones	-12.2057
sultan	-12.2057
▁confuse	-12.2058
▁sne	-12.2058
▁memor	-12.206
buster	-12.206
pressed	-12.2062
▁thurs	-12.2062
ulgaria	-12.2063
fiesta	-12.2063
merch	-12.2063
ffy	-12.2064
vinci	-12.2064
xious	-12.2064
sixteen	-12.2064
▁embarrass	-12.2065
jaguar	-12.2067
ax	-12.2068
▁youuu	-12.2069
▁branch	-12.2069
spoiler	-12.207
depaure	-12.207
▁klan	-12.207
endthe	-12.207
milestone	-12.2071
huggi	-12.2071
▁easie	-12.2071
morro	-12.2071
ofthrones	-12.2071
dhabi	-12.2072
moro	-12.2072
▁document	-12.2072
sendiri	-12.2072
counseling	-12.2072
labrador	-12.2072
ahfod	-12.2072
bretagne	-12.2072
drugaddicts	-12.2072
geordie	-12.2072
geranium	-12.2072
hydepark	-12.2072
hypocrisy	-12.2072
lithuania	-12.2072
malinois	-12.2072
margarita	-12.2072
maverick	-12.2072
oscarpistorius	-12.2072
resilienc	-12.2072
schmidt	-12.2072
schnauzer	-12.2072
tedatibm	-12.2072
treasonoustrump	-12.2072
wizard	-12.2072
wynonna	-12.2072
▁cincinnati	-12.2072
▁congratulate	-12.2072
▁consequences	-12.2072
▁conviction	-12.2072
▁december	-12.2072
▁explanation	-12.2072
▁ingredient	-12.2072
▁injuries	-12.2072
▁instinct	-12.2072
▁maintenance	-12.2072
▁opponent	-12.2072
▁pofolio	-12.2072
▁registration	-12.2072
▁substanti	-12.2072
▁supremacy	-12.2072
▁tacloban	-12.2072
▁testimony	-12.2072
▁turmoil	-12.2072
▁unacceptable	-12.2072
▁vaccines	-12.2072
brigade	-12.2072
egypt	-12.2072
exploit	-12.2072
macedonia	-12.2072
mazda	-12.2072
rixos	-12.2072
stubborn	-12.2072
taharrush	-12.2072
▁eject	-12.2072
▁islamophobe	-12.2072
▁tolstoy	-12.2072
cymru	-12.2072
fairytale	-12.2072
hereicome	-12.2072
photograpy	-12.2072
stockholm	-12.2072
▁siege	-12.2072
▁spokesperson	-12.2072
▁teleprompter	-12.2072
filibuster	-12.2072
invisible	-12.2072
suzanne	-12.2072
▁prototype	-12.2072
▁spectrum	-12.2072
indianapolis	-12.2072
lantern	-12.2072
miguel	-12.2072
phantom	-12.2072
prague	-12.2072
▁harmonious	-12.2072
▁scenario	-12.2072
mecca	-12.2072
selenagomez	-12.2072
▁1.1400	-12.2072
jaguarfpace	-12.2072
lennon	-12.2072
pharmacy	-12.2072
segregat	-12.2072
▁acquaint	-12.2072
hampshire	-12.2072
huawei	-12.2072
▁threw	-12.2072
copaamerica	-12.2072
▁mogage	-12.2072
▁tweeps	-12.2072
countingdown	-12.2072
justinbieber	-12.2072
mozilla	-12.2072
▁cheryl	-12.2072
rishna	-12.2073
rogueone	-12.2073
fashionista	-12.2073
quisite	-12.2073
▁invitation	-12.2073
gaslighting	-12.2073
qoute	-12.2073
malibu	-12.2073
wheather	-12.2073
▁analysis	-12.2073
▁hooray	-12.2073
▁manipulation	-12.2073
rihanna	-12.2073
▁authorities	-12.2073
▁emptiness	-12.2073
▁controversial	-12.2073
cmtawards	-12.2073
pilates	-12.2073
▁craziness	-12.2073
▁engaging	-12.2073
fragility	-12.2073
gettingfitter	-12.2073
▁eliminat	-12.2073
▁volley	-12.2073
▁anniversaries	-12.2073
▁elementary	-12.2073
▁unhelpful	-12.2073
▁societies	-12.2073
grownup	-12.2073
▁nickname	-12.2073
goldenstate	-12.2073
skyrim	-12.2073
▁entitled	-12.2073
moscow	-12.2073
avgeek	-12.2073
bamboo	-12.2073
netanyahu	-12.2073
nelson	-12.2073
notokay	-12.2073
14655	-12.2073
▁inclusi	-12.2073
negligence	-12.2073
▁edible	-12.2073
▁establishment	-12.2073
▁statistic	-12.2073
▁clinch	-12.2073
bethechange	-12.2073
html	-12.2073
kansas	-12.2073
nsfw	-12.2073
▁greenspan	-12.2073
-05-	-12.2073
aqua	-12.2073
▁courageous	-12.2073
▁commentator	-12.2073
▁proving	-12.2073
bankruptcy	-12.2073
walrus	-12.2073
beinlife	-12.2073
▁ijn	-12.2073
▁understatement	-12.2073
childrensbook	-12.2073
▁renee	-12.2073
terrorattack	-12.2073
▁approve	-12.2073
bjm	-12.2073
concord	-12.2073
▁conflate	-12.2074
sharkweek	-12.2074
jaguarstb	-12.2074
communism	-12.2074
whattodo	-12.2074
bigender	-12.2074
▁barack	-12.2074
▁operation	-12.2074
▁4.5	-12.2074
▁consist	-12.2074
▁rajan	-12.2074
▁0.78	-12.2074
▁electricity	-12.2074
▁facility	-12.2074
▁birdsstella	-12.2075
▁paperback	-12.2075
misog	-12.2075
fifty	-12.2075
▁6:30	-12.2075
▁biden	-12.2075
chopra	-12.2075
bekind	-12.2075
itsmybihday	-12.2075
enjo	-12.2075
complex	-12.2075
▁commentary	-12.2075
splash	-12.2075
▁skype	-12.2075
grassroots	-12.2075
▁subway	-12.2075
littlemix	-12.2075
riley	-12.2075
abasel	-12.2075
▁depaures	-12.2075
▁unnecessary	-12.2075
igdaily	-12.2075
bringback	-12.2075
aspire	-12.2075
tilda	-12.2075
whitesupremacist	-12.2076
▁1.13	-12.2076
workfromhome	-12.2076
vscoturkey	-12.2076
cannes	-12.2076
tribal	-12.2076
eugeni	-12.2076
britney	-12.2076
chiro	-12.2076
▁bora	-12.2076
peare	-12.2076
paners	-12.2076
▁arabian	-12.2076
▁cece	-12.2076
6)-	-12.2076
foxnews	-12.2076
▁breed	-12.2076
▁remarkable	-12.2076
▁southwest	-12.2076
iphoneonly	-12.2076
spotting	-12.2076
▁assured	-12.2076
glio	-12.2077
ivanka	-12.2077
zante	-12.2077
parrot	-12.2077
▁ivy	-12.2077
fpace	-12.2077
▁muna	-12.2077
cretin	-12.2077
lyvers	-12.2077
lgbtqhate	-12.2077
aspie	-12.2077
makeupaddict	-12.2077
sharethelove	-12.2077
	-12.2077
metallic	-12.2077
▁yield	-12.2077
beirut	-12.2077
ishq	-12.2077
▁clp	-12.2077
afin	-12.2077
beverly	-12.2077
▁remotely	-12.2077
energized	-12.2078
fuckmylife	-12.2078
chelte	-12.2078
mega	-12.2078
▁gian	-12.2078
stead	-12.2078
▁daze	-12.2078
motivating	-12.2078
furious	-12.2078
3⁄4	-12.2079
rexit	-12.2079
gettingfit	-12.2079
	-12.2079
3⁄4«	-12.2079
goodell	-12.2079
hotspot	-12.2079
▁noticing	-12.2079
·	-12.2079
uence	-12.2079
claire	-12.208
▁saira	-12.208
nevada	-12.208
zayn	-12.208
communication	-12.208
scottish	-12.208
fuckoff	-12.208
▁guaranteed	-12.208
missthem	-12.2081
pnw	-12.2081
prophe	-12.2081
cebu	-12.2081
monaco	-12.2081
youknow	-12.2081
pleasedont	-12.2081
paranoi	-12.2081
giveup	-12.2081
lbj	-12.2081
▁joie	-12.2081
jax	-12.2081
swimwear	-12.2081
▁magnificent	-12.2081
▁2.5	-12.2081
bigapple	-12.2081
imate	-12.2082
curve	-12.2082
rigue	-12.2082
▁composed	-12.2082
rainny	-12.2082
macau	-12.2082
▁36	-12.2082
wheredo	-12.2082
boho	-12.2082
listento	-12.2083
▁twtly	-12.2083
▁shiless	-12.2083
htc	-12.2083
leo	-12.2083
marley	-12.2083
vineet	-12.2083
bootcamp	-12.2083
bremain	-12.2083
fiestar	-12.2084
dreamproject	-12.2084
humour	-12.2084
onpoint	-12.2084
glamour	-12.2084
yearswith	-12.2084
liberate	-12.2085
▁yayyyy	-12.2085
mash	-12.2085
formula	-12.2085
▁saddle	-12.2085
uplifting	-12.2085
	-12.2085
domingo	-12.2086
meandmy	-12.2086
mandala	-12.2086
slimmer	-12.2086
¢	-12.2086
stinky	-12.2087
disabilit	-12.2087
misogynistic	-12.2087
picofthe	-12.2087
3⁄4	-12.2087
personalized	-12.2088
▁sweater	-12.2088
oyama	-12.2088
▁boob	-12.2088
****	-12.2088
diaper	-12.2088
ust	-12.2089
aupairlife	-12.2089
	-12.2089
▁cheaper	-12.2089
selena	-12.2089
197	-12.2089
femi	-12.2089
03-	-12.209
3⁄4­»	-12.209
▁exhibit	-12.2091
▁vary	-12.2091
▁grp	-12.2091
▁blatantly	-12.2091
▁constant	-12.2091
▁icons	-12.2091
lastnight	-12.2092
weddingdress	-12.2092
	-12.2092
▁adore	-12.2092
gloucester	-12.2092
▁restore	-12.2092
▁eff	-12.2092
dragonfly	-12.2092
▁coron	-12.2092
▁excitem	-12.2093
noheast	-12.2093
lulu	-12.2093
bargain	-12.2093
myhea	-12.2093
▁boogi	-12.2093
▁harb	-12.2093
intothe	-12.2093
suf	-12.2094
rupe	-12.2095
▁peaked	-12.2095
yyt	-12.2095
editing	-12.2095
unwind	-12.2096
▁bubble	-12.2096
▁cud	-12.2096
▁5%#	-12.2096
▁trainers	-12.2097
tia	-12.2097
scream	-12.2097
gentlem	-12.2098
anchored	-12.2098
frown	-12.2099
▁whistl	-12.2099
happyholidays	-12.2099
ssed	-12.2099
▁opp	-12.2099
gusta	-12.2099
ssein	-12.2099
£12	-12.2099
notmypres	-12.21
chillout	-12.21
amigos	-12.2101
▁symptoms	-12.2101
	-12.2101
¡	-12.2101
kabali	-12.2101
▁skip	-12.2101
▁kajal	-12.2102
¬	-12.2102
▁cyclist	-12.2102
▁graham	-12.2102
▁integrity	-12.2102
▁satisfy	-12.2102
▁structure	-12.2102
▁brisbane	-12.2102
▁calendar	-12.2102
▁credibility	-12.2102
▁gospel	-12.2102
▁servant	-12.2102
▁subtitles	-12.2102
strictly	-12.2102
▁autograph	-12.2102
▁permanent	-12.2102
▁bistro	-12.2102
▁chuffed	-12.2102
▁snuggle	-12.2102
▁icymi	-12.2102
▁tongue	-12.2102
▁equipment	-12.2102
▁tutorial	-12.2102
▁ventura	-12.2102
▁administrati	-12.2102
▁technical	-12.2102
▁bummed	-12.2102
▁hayley	-12.2102
▁snooze	-12.2102
▁throat	-12.2102
▁error	-12.2102
▁elite	-12.2102
▁ojb	-12.2102
▁macdonald	-12.2102
ombre	-12.2102
▁kyrie	-12.2102
robbie	-12.2102
▁snake	-12.2103
▁kiev	-12.2103
▁existence	-12.2103
°	-12.2103
itsfriday	-12.2103
▁tasting	-12.2103
paz	-12.2103
arez	-12.2103
▁draghi	-12.2103
▁equally	-12.2103
▁presence	-12.2103
▁pipeline	-12.2103
instatraveling	-12.2103
·	-12.2103
nudist	-12.2103
▁cuddle	-12.2104
hamster	-12.2104
▁flick	-12.2104
▁plaster	-12.2104
▁updating	-12.2104
▁righteous	-12.2104
nigel	-12.2104
	-12.2104
▁footage	-12.2104
▁jelly	-12.2105
▁stood	-12.2105
▁elder	-12.2105
▁marx	-12.2105
▁division	-12.2105
▁hijacked	-12.2106
▁dignity	-12.2106
intermarket	-12.2106
▁cuppa	-12.2106
▁pete	-12.2106
▁sweep	-12.2107
lbgt	-12.2107
rism	-12.2107
▁mentality	-12.2107
hy	-12.2107
▁noooo	-12.2107
▁envy	-12.2108
cone	-12.2108
pounds	-12.2108
typing	-12.2108
▁weakness	-12.2108
manila	-12.2108
chalk	-12.2108
idola	-12.2109
	-12.2109
panther	-12.2109
marshall	-12.211
▁interven	-12.211
▁rewrite	-12.2111
▁smashed	-12.2111
desde	-12.2111
▁wisely	-12.2111
▁screenshot	-12.2111
sama	-12.2111
▁scor	-12.2112
believein	-12.2112
focuson	-12.2113
weiner	-12.2113
▁caer	-12.2113
▁developing	-12.2113
▁discre	-12.2114
drought	-12.2114
▁poc	-12.2114
alban	-12.2114
braves	-12.2116
­	-12.2116
▁shipped	-12.2116
	-12.2117
atx	-12.2117
tyranny	-12.2118
▁limiting	-12.2118
▁badass	-12.212
ikea	-12.212
traveltuesday	-12.2121
¢	-12.2121
▁aaron	-12.2121
▁transpo	-12.2121
animalabuse	-12.2121
▁offline	-12.2121
▁sweethea	-12.2121
pron	-12.2121
cecil	-12.2122
eddie	-12.2122
▁prof	-12.2122
3⁄43	-12.2122
­3	-12.2123
▁contribute	-12.2123
	-12.2123
▁refused	-12.2123
jamie	-12.2124
▁masses	-12.2124
1998-	-12.2125
dive	-12.2126
girlswith	-12.2126
▁bias	-12.2127
divider	-12.2127
▁washing	-12.2127
newcar	-12.2128
	-12.2128
sosad	-12.2128
▁principal	-12.2128
▁hmm	-12.2129
ganda	-12.2129
▁gameplay	-12.2129
▁rangers	-12.213
▁playoffs	-12.213
▁techno	-12.213
garda	-12.213
¤	-12.213
▁300	-12.2131
▁supplies	-12.2131
▁assets	-12.2131
▁signal	-12.2131
foodblogger	-12.2133
▁roller	-12.2133
▁locked	-12.2134
▁feat	-12.2135
▁matches	-12.2135
▁brock	-12.2135
▁gettin	-12.2136
furbaby	-12.2136
▁exci	-12.2136
kool	-12.2137
kayak	-12.2137
pik	-12.2137
▁campus	-12.2138
▁vigil	-12.2138
▁dresses	-12.2138
igans	-12.2138
brotherhood	-12.2138
▁saint	-12.2139
bsb	-12.2139
▁dx	-12.214
justme	-12.214
▁unjust	-12.214
myson	-12.2141
fomc	-12.2142
patrick	-12.2144
▁midsummer	-12.2144
▁bck	-12.2144
westend	-12.2145
▁hutch	-12.2146
▁protesters	-12.2146
▁defo	-12.2146
▁optimis	-12.2147
judy	-12.2148
homie	-12.2149
▁collapse	-12.2149
▁sandwich	-12.2149
noche	-12.215
▁sentiments	-12.215
carlton	-12.215
▁junk	-12.215
▁fade	-12.2151
▁capa	-12.2151
	-12.2151
sequel	-12.2151
▁anthony	-12.2152
caffi	-12.2152
▁rising	-12.2152
▁journal	-12.2152
▁controvers	-12.2153
▁autumn	-12.2153
▁elitist	-12.2153
▁architecture	-12.2153
▁terrified	-12.2153
▁bordeaux	-12.2153
▁energetic	-12.2153
▁jennifer	-12.2153
▁kentucky	-12.2153
▁leisure	-12.2153
▁charming	-12.2153
▁conscious	-12.2153
▁excess	-12.2153
▁generous	-12.2153
▁fetish	-12.2153
bihdaycake	-12.2153
▁archery	-12.2153
▁fusion	-12.2153
▁popcorn	-12.2153
▁studies	-12.2154
bihdayweek	-12.2154
▁props	-12.2154
▁twilight	-12.2154
▁negro	-12.2154
▁budget	-12.2155
▁rainforest	-12.2155
▁roger	-12.2156
syrian	-12.2156
	-12.2156
▁athlet	-12.2156
▁lovin	-12.2156
▁panic	-12.2156
▁wud	-12.2157
▁edward	-12.2157
divers	-12.2157
▁discussed	-12.2157
▁rental	-12.2157
	-12.2158
▁marina	-12.2158
▁crackers	-12.2158
▁arrested	-12.2158
tlot	-12.2159
▁,,,	-12.2159
▁coward	-12.216
▁myth	-12.216
▁muba	-12.216
▁creature	-12.216
nunes	-12.2161
1	-12.2161
awakening	-12.2163
heat	-12.2163
▁sic	-12.2163
▁monster	-12.2163
▁skiing	-12.2165
thala	-12.2165
▁classifie	-12.2166
tickets	-12.2166
tinder	-12.2166
▁(19	-12.2166
▁dang	-12.2167
crayon	-12.2169
chairman	-12.2169
▁roast	-12.2169
betterlife	-12.2169
▁bald	-12.2169
whatsapp	-12.2171
▁canvas	-12.2171
▁organised	-12.2172
paddle	-12.2172
»	-12.2173
▁heavenly	-12.2173
leaders	-12.2175
mcr	-12.2175
athena	-12.2177
▁hc	-12.2178
▁bombing	-12.2179
cantsleep	-12.2179
▁hooligans	-12.2179
ryl	-12.218
▁jail	-12.218
▁catchup	-12.218
customized	-12.2181
▁smooth	-12.2181
▁toilet	-12.2181
orah	-12.2181
▁turner	-12.2182
pence	-12.2183
thriller	-12.2184
▁cunt	-12.2185
▁notifications	-12.2188
sloth	-12.2188
▁cyber	-12.2188
verge	-12.2189
▁jj	-12.2189
▁kent	-12.2189
trends	-12.219
perks	-12.2191
▁carlos	-12.2191
▁messing	-12.2192
▁urself	-12.2192
▁(5	-12.2192
	-12.2193
buf	-12.2193
alcol	-12.2193
▁corrected	-12.2194
hemm	-12.2195
▁flops	-12.2195
▁lipsticks	-12.2198
preventable	-12.2199
glee	-12.22
	-12.2201
▁posing	-12.2202
▁pint	-12.2204
pale	-12.2205
▁alps	-12.2205
ramon	-12.2205
▁slur	-12.2205
▁thirst	-12.2205
▁euphori	-12.2206
▁hedgehog	-12.2206
▁identity	-12.2206
▁laundry	-12.2206
▁monitor	-12.2206
▁sociopath	-12.2206
▁stylish	-12.2206
tsem	-12.2206
▁subscribe	-12.2206
▁knitting	-12.2206
▁alaska	-12.2206
▁arsenal	-12.2207
▁ukrunchat	-12.2207
	-12.2207
▁candid	-12.2207
▁kardashian	-12.2207
▁gem	-12.2207
▁disrespectful	-12.2208
▁graduates	-12.2208
▁albea	-12.2209
▁tym	-12.2209
▁tix	-12.221
▁disband	-12.221
▁jumper	-12.221
▁slot	-12.2211
▁fatty	-12.2211
▁spider	-12.2211
▁destruction	-12.2211
lane	-12.2214
▁haunt	-12.2214
▁pond	-12.2214
newsong	-12.2214
nuure	-12.2215
▁couch	-12.2216
acky	-12.2216
▁cont	-12.2216
▁manner	-12.2216
▁rigged	-12.2218
duh	-12.2218
oftheweek	-12.2218
sofa	-12.2219
▁jones	-12.2219
▁speechless	-12.2219
mustang	-12.222
production	-12.222
1.16	-12.222
▁pan	-12.222
	-12.2221
▁passpo	-12.2222
liberalism	-12.2223
▁protected	-12.2224
hazi	-12.2224
-5	-12.2225
iston	-12.2225
▁steve	-12.2227
▁cuteness	-12.2227
▁gordo	-12.2228
▁superstar	-12.2228
▁plea	-12.2228
▁outlets	-12.2228
ukr	-12.2229
▁harris	-12.2229
lessthana	-12.223
▁capitalis	-12.223
▁booster	-12.2231
▁www	-12.2231
wiw	-12.2231
▁comedians	-12.2231
▁blink	-12.2232
▁cue	-12.2232
boise	-12.2232
▁disagrees	-12.2232
cod	-12.2233
▁facing	-12.2233
▁cater	-12.2233
▁diner	-12.2235
tack	-12.2235
▁woes	-12.2235
▁medi	-12.2237
▁daddies	-12.2237
sundayvibes	-12.2237
cara	-12.2242
▁01	-12.2242
timeto	-12.2244
sunnies	-12.2245
tapas	-12.2246
▁timeline	-12.2246
▁jane	-12.2246
▁math	-12.2246
▁pj	-12.2247
▁chillin	-12.2247
▁thanx	-12.2249
roots	-12.225
2	-12.225
1984	-12.2251
exam	-12.2252
deaf	-12.2254
▁jenn	-12.2254
simpli	-12.2255
▁vip	-12.2255
boj	-12.2256
giver	-12.2258
▁calor	-12.2258
niceday	-12.2259
▁provider	-12.2259
yyj	-12.226
▁divorce	-12.226
▁ghana	-12.226
▁magazine	-12.226
▁siblings	-12.226
▁squirrel	-12.226
▁curious	-12.226
▁cruz	-12.226
▁bailey	-12.226
▁carolina	-12.2261
▁protein	-12.2261
▁dictator	-12.2261
▁picnic	-12.2261
▁tolerance	-12.2262
cul	-12.2264
▁egg	-12.2264
cbd	-12.2265
flea	-12.2265
▁rapper	-12.2265
akro	-12.2265
▁ouch	-12.2267
followus	-12.2267
▁donations	-12.2268
entera	-12.2268
▁barry	-12.2269
▁scan	-12.2269
ziplin	-12.2271
blaze	-12.2271
▁mantra	-12.2271
▁brick	-12.2273
riga	-12.2273
▁nurses	-12.2275
lawless	-12.2275
tuk	-12.2275
ieves	-12.2278
▁journalists	-12.2279
▁referr	-12.2281
owa	-12.2282
bd	-12.2282
▁sucked	-12.2284
▁usher	-12.2285
▁coin	-12.2285
▁booty	-12.2285
▁crab	-12.2286
bake	-12.2286
tragically	-12.2287
tte	-12.2289
ramaz	-12.2292
▁taiw	-12.2292
▁thai	-12.2293
▁alley	-12.2293
mlm	-12.2294
blessedand	-12.2294
▁alice	-12.2294
▁county	-12.2294
shapes	-12.23
▁knees	-12.2302
gummy	-12.2303
!!!!!!!!!	-12.2305
otw	-12.2306
▁72	-12.2306
▁7.	-12.2306
dare	-12.2306
goodfriends	-12.2307
▁ahh	-12.2307
dding	-12.2308
▁halo	-12.2309
sheep	-12.2309
miles	-12.2311
»	-12.2313
▁moore	-12.2313
▁warcraft	-12.2314
▁dinosaur	-12.2314
▁frustrating	-12.2314
▁wisconsin	-12.2314
▁cds	-12.2314
▁harvest	-12.2314
▁conflict	-12.2315
▁rio	-12.2315
▁revenge	-12.2315
▁float	-12.2316
theocean	-12.2316
▁palace	-12.2317
▁outlook	-12.2317
trooping	-12.2317
▁donation	-12.2318
▁survivor	-12.2319
▁returning	-12.232
poledance	-12.232
conman	-12.2323
▁dances	-12.2325
▁unload	-12.2326
▁yah	-12.2327
▁holly	-12.2327
afren	-12.2328
henna	-12.2329
866	-12.2329
sandra	-12.233
angle	-12.2331
▁deni	-12.2332
▁limits	-12.2333
elli	-12.2333
lid	-12.2334
fooled	-12.2334
stmu	-12.2334
▁mai	-12.2336
▁makers	-12.2336
▁creations	-12.2338
neon	-12.2338
pun	-12.2338
clan	-12.2338
healthcare	-12.2339
bait	-12.234
arman	-12.2341
desi	-12.2342
▁pity	-12.2342
▁internal	-12.2342
gala	-12.2343
▁mods	-12.2344
fana	-12.2345
▁destroying	-12.2345
▁awa	-12.2346
sanity	-12.2347
▁melan	-12.2348
▁natt	-12.2349
leg	-12.235
▁bah	-12.2352
▁leo	-12.2353
queu	-12.2354
hoom	-12.2354
▁hong	-12.2355
roar	-12.2356
mans	-12.2357
▁continued	-12.2357
▁messy	-12.2359
▁thugs	-12.2359
▁emotionally	-12.236
handjob	-12.236
caoons	-12.236
▁89	-12.2361
▁boating	-12.2363
pressive	-12.2364
judgement	-12.2364
▁baker	-12.2364
tucker	-12.2367
▁unforgettable	-12.2369
▁wimbledon	-12.2369
▁empire	-12.2369
▁alabama	-12.2369
▁spotify	-12.2369
▁hustle	-12.2369
▁engagement	-12.237
▁wohy	-12.2373
▁polo	-12.2374
▁pie	-12.2374
vale	-12.2374
insight	-12.2375
	-12.2378
cpc	-12.238
livestream	-12.2382
peaky	-12.2382
▁engineers	-12.2385
Ðo	-12.2389
ark	-12.239
▁panda	-12.2392
spy	-12.2394
▁flipp	-12.2394
vu	-12.2394
okai	-12.2396
▁cmon	-12.2398
▁ze	-12.2399
zuma	-12.24
ists	-12.2402
emia	-12.2403
▁0%	-12.2404
minus	-12.2406
▁standards	-12.2406
lisa	-12.2407
mysister	-12.2408
▁claimed	-12.241
??!!	-12.2412
loveto	-12.2414
wings	-12.2414
inna	-12.2416
▁wave	-12.2416
▁grads	-12.2418
▁#061	-12.2419
steven	-12.2419
▁rode	-12.242
▁psycholog	-12.242
	-12.2423
▁chile	-12.2426
guay	-12.2426
	-12.2427
instaday	-12.2427
▁haircut	-12.2429
jade	-12.2429
▁screening	-12.243
labs	-12.2432
▁rifles	-12.2434
anche	-12.2435
▁struggles	-12.2436
	-12.2437
iding	-12.2437
▁nightmares	-12.2437
▁yard	-12.2438
▁eg	-12.2439
▁owls	-12.2441
▁insults	-12.2444
sane	-12.2445
▁heyy	-12.2447
uke	-12.245
shameless	-12.245
chilling	-12.2452
breakups	-12.2454
3⁄4	-12.2457
▁arrests	-12.2459
▁papers	-12.246
▁wind	-12.246
perfectday	-12.246
▁---	-12.2461
logan	-12.2463
sweetdream	-12.2469
ierce	-12.247
rough	-12.2471
eÃ	-12.2474
cel	-12.2474
pastry	-12.2476
apocalypse	-12.2476
slime	-12.2476
laja	-12.2476
foam	-12.2479
akid	-12.248
▁stain	-12.2481
▁rocking	-12.2482
▁proverb	-12.2482
▁contest	-12.2483
▁vlog	-12.2484
rot	-12.2485
shout	-12.2488
▁verse	-12.2488
▁ox	-12.2488
▁locks	-12.2492
soft	-12.2493
▁pounds	-12.2495
▁ducks	-12.2499
atanga	-12.2501
▁pals	-12.2502
matsu	-12.2504
covers	-12.2505
isbetter	-12.2506
▁campaigning	-12.2507
ken	-12.2509
iled	-12.251
woof	-12.2511
taste	-12.2511
castle	-12.2512
▁ped	-12.2513
▁chipp	-12.2513
▁letters	-12.2515
▁$70	-12.2516
▁oral	-12.2517
dolan	-12.2517
jan	-12.2517
serve	-12.2518
iz	-12.2522
▁survived	-12.2523
▁holi	-12.2523
drumm	-12.2524
▁brad	-12.2524
▁showtime	-12.2524
▁soak	-12.2524
coaster	-12.253
▁washed	-12.253
▁sparkle	-12.2533
118	-12.2536
▁thrive	-12.2539
▁complaints	-12.2542
▁ohio	-12.2543
psy	-12.2544
▁refugee	-12.2545
thi	-12.2547
▁object	-12.2549
	-12.255
▁priceless	-12.255
▁rubi	-12.2551
▁phew	-12.2551
▁unite	-12.2552
▁stupidity	-12.2554
kimmy	-12.2555
favored	-12.2556
coast	-12.2558
eiko	-12.256
ua	-12.2563
▁presentations	-12.2563
lazi	-12.2564
ei	-12.2565
$$	-12.2566
fixtures	-12.2569
leston	-12.2571
ogi	-12.2573
▁empower	-12.2573
pisses	-12.2576
fridaynights	-12.2579
▁mv	-12.2581
▁motor	-12.2583
▁liars	-12.2585
▁maa	-12.2589
thbihday	-12.2591
player	-12.2592
▁criminals	-12.2592
▁pregnancy	-12.2594
▁wr	-12.2595
por	-12.26
cuts	-12.2602
kobe	-12.2603
▁dup	-12.2604
▁daw	-12.2607
▁**	-12.2607
▁giveaway	-12.2613
wohless	-12.2616
sup	-12.2616
driven	-12.2621
▁cred	-12.2623
lst	-12.2626
▁charles	-12.2628
amor	-12.2628
poke	-12.2629
▁????	-12.2632
ores	-12.2634
kiki	-12.2635
fblogger	-12.2635
wich	-12.2636
nikki	-12.2642
▁clash	-12.2642
▁mask	-12.2643
umm	-12.2646
▁happ	-12.2649
▁inbox	-12.265
beng	-12.265
meter	-12.2653
▁gal	-12.2653
havea	-12.2654
▁lgbtq	-12.2655
reso	-12.2664
station	-12.2668
▁hyun	-12.2668
▁spice	-12.2671
▁1....	-12.2671
zo	-12.2672
mol	-12.2676
stripes	-12.2677
icia	-12.2678
▁coat	-12.2678
oman	-12.2681
86	-12.2682
▁metal	-12.2688
alik	-12.269
▁sugar	-12.2693
trin	-12.2696
liars	-12.2698
▁bri	-12.2699
utd	-12.2699
kes	-12.27
▁stroke	-12.2701
▁pakistan	-12.2702
▁nashville	-12.2709
▁singapore	-12.2709
▁compar	-12.2714
henan	-12.2717
services	-12.2717
▁$5	-12.2717
▁mirrors	-12.2723
dhan	-12.2724
▁topics	-12.2724
▁perfection	-12.2725
▁cra	-12.2729
aq	-12.273
judge	-12.2731
void	-12.2736
shakes	-12.2737
▁employ	-12.2737
bbf	-12.2741
▁gutt	-12.2741
lÃ	-12.275
dey	-12.2752
▁dia	-12.2752
-16	-12.2754
▁holes	-12.2756
▁smells	-12.2757
▁acted	-12.2758
dough	-12.2762
▁invade	-12.2764
ska	-12.2771
▁decorat	-12.2772
▁cracks	-12.2777
▁dicks	-12.2777
▁exists	-12.2779
▁whoa	-12.2779
▁anxious	-12.2779
others	-12.2782
using	-12.2785
goodfeeling	-12.2785
-15	-12.2786
sssss	-12.2792
maini	-12.2796
▁2016!!	-12.2798
serious	-12.2798
sib	-12.2798
▁wha	-12.2799
harley	-12.2803
ardy	-12.2804
unes	-12.2807
lure	-12.281
tum	-12.2819
rize	-12.282
rist	-12.2823
catholic	-12.2825
▁crie	-12.2827
▁caturday	-12.2828
asti	-12.2829
▁dares	-12.283
80-	-12.283
▁lecture	-12.2833
buon	-12.2842
fff	-12.2844
vai	-12.2845
hon	-12.2849
▁seller	-12.2849
mothers	-12.2851
arin	-12.2855
hang	-12.2856
▁shutt	-12.2856
▁shaw	-12.2857
retta	-12.2868
pita	-12.2869
credit	-12.2871
▁sketch	-12.2872
justan	-12.2874
justwanna	-12.2878
▁stones	-12.2879
zoom	-12.2881
▁income	-12.2884
▁paths	-12.2886
▁army	-12.2888
▁heads	-12.2892
▁hap	-12.2896
▁dam	-12.2898
▁stan	-12.2901
▁jai	-12.2902
▁shooters	-12.2905
pouring	-12.291
dam	-12.2915
discovery	-12.2923
tangled	-12.2925
forget	-12.2925
ura	-12.2926
teens	-12.2935
sesh	-12.2943
hes	-12.2946
arou	-12.2947
-6	-12.2949
▁infl	-12.295
▁disagree	-12.295
ryan	-12.2954
aro	-12.2954
ebooks	-12.2955
bling	-12.2955
oj	-12.2961
ohmy	-12.2961
palin	-12.2964
▁pros	-12.2974
▁sew	-12.2975
sonic	-12.298
ngwal	-12.299
▁jean	-12.2992
▁;-	-12.3
▁humor	-12.3002
bffs	-12.3005
wrapped	-12.3008
▁jewelry	-12.3011
▁barcelona	-12.3014
▁nemo	-12.3019
	-12.3022
dem	-12.3026
▁aicles	-12.3027
▁roots	-12.3027
alice	-12.303
-0	-12.3036
mik	-12.304
sure	-12.304
▁viv	-12.304
scot	-12.3043
▁bikini	-12.3046
dying	-12.3051
bedtime	-12.3052
▁allen	-12.3064
stayin	-12.3064
▁superhero	-12.3069
treetphotography	-12.307
yourhea	-12.3071
▁hop	-12.3072
ular	-12.3073
lingu	-12.3075
whiteness	-12.3075
▁forces	-12.3077
▁sober	-12.3077
ofinstagram	-12.3077
▁motivated	-12.3084
▁inse	-12.3088
urges	-12.3088
zeal	-12.3091
dat	-12.3098
fp	-12.3099
▁bench	-12.3109
▁32	-12.3113
resolved	-12.312
▁resistance	-12.3128
▁mates	-12.3136
▁decor	-12.3139
wn	-12.3141
▁steel	-12.3143
▁beginn	-12.3145
nose	-12.3145
▁wel	-12.3148
▁hum	-12.3156
#	-12.3156
watering	-12.3157
specialist	-12.3162
tc	-12.3164
sper	-12.3177
acres	-12.3181
▁prim	-12.3182
evo	-12.3184
▁bac	-12.3193
educated	-12.3214
egas	-12.3223
keys	-12.3228
kimb	-12.3234
▁dd	-12.3236
jes	-12.3241
donut	-12.3242
1)	-12.325
wv	-12.3253
5!	-12.326
sell	-12.3262
stery	-12.3262
▁trumps	-12.327
grande	-12.3274
newsta	-12.3274
fallout	-12.3276
ula	-12.3278
lis	-12.3279
tel	-12.3281
▁springs	-12.3285
masters	-12.3287
sur	-12.329
abad	-12.3298
constructi	-12.3301
cba	-12.3301
▁disco	-12.3302
bp	-12.3305
▁aya	-12.3314
rag	-12.3315
▁herb	-12.332
▁tackl	-12.332
▁lips	-12.3324
▁ship	-12.3333
▁fry	-12.3335
▁cups	-12.3336
▁liz	-12.3354
▁kar	-12.3355
responding	-12.3358
antes	-12.3368
140	-12.337
▁stalk	-12.3383
xn	-12.3395
ira	-12.3399
brit	-12.3404
lico	-12.3409
▁mua	-12.3412
▁merc	-12.3412
#	-12.3413
▁brook	-12.3414
ike	-12.3415
fai	-12.3416
bnz	-12.3424
03	-12.3424
bin	-12.3426
kila	-12.3434
nia	-12.3435
nn	-12.344
▁arena	-12.344
trumps	-12.3441
pod	-12.3443
#	-12.3443
mond	-12.3446
▁vol	-12.3448
oye	-12.3451
▁coc	-12.3454
edited	-12.346
▁someday	-12.3463
alk	-12.3466
gutt	-12.3474
zin	-12.3475
£2	-12.3481
▁9.	-12.3485
annas	-12.3487
nations	-12.349
mmy	-12.3497
isd	-12.3499
▁races	-12.351
sleepless	-12.3514
rave	-12.3514
ium	-12.3514
oise	-12.3521
thebeat	-12.3521
▁bat	-12.3521
ckett	-12.3524
▁et	-12.3532
berra	-12.3535
▁scar	-12.3538
stra	-12.3543
bags	-12.355
vm	-12.3554
wala	-12.3556
dan	-12.3559
noir	-12.357
▁dex	-12.3575
andu	-12.3583
clare	-12.3588
▁kik	-12.3599
ewa	-12.36
▁bak	-12.36
worked	-12.3606
udge	-12.3608
phil	-12.3613
elp	-12.3619
entrepreneurs	-12.3623
78	-12.3623
meds	-12.3626
▁dean	-12.3627
voter	-12.3643
sequ	-12.3645
▁lemon	-12.3645
oka	-12.3646
elly	-12.3652
nbc	-12.3655
ej	-12.3657
64	-12.3659
▁materials	-12.3662
lifein	-12.3665
▁diss	-12.3669
▁om	-12.3683
▁outline	-12.3695
▁supp	-12.3698
▁brands	-12.3699
kra	-12.3704
soulmates	-12.3704
▁edm	-12.3708
nitas	-12.3711
▁heals	-12.3714
▁repos	-12.3717
▁gut	-12.3719
oya	-12.3719
cbc	-12.3722
▁pea	-12.3726
▁lolol	-12.373
sig	-12.3737
▁rev	-12.3742
nest	-12.3744
charg	-12.3747
iji	-12.3748
wad	-12.3751
colon	-12.3751
mig	-12.3757
hw	-12.3757
koz	-12.3757
▁apps	-12.3759
qui	-12.3762
mademe	-12.3764
▁whit	-12.3773
osh	-12.3776
cuba	-12.378
kim	-12.3789
mma	-12.3796
▁admire	-12.3799
duo	-12.3802
liner	-12.3803
fier	-12.3805
sundayâ	-12.3814
▁clouds	-12.3824
▁lmaoo	-12.3828
pen	-12.3829
▁mamm	-12.383
rct	-12.3832
aid	-12.3832
gothi	-12.3834
▁hr	-12.3842
mot	-12.3853
▁trends	-12.3854
springs	-12.386
▁condon	-12.3868
fed	-12.3882
aists	-12.3888
dubnation	-12.3897
▁tackle	-12.3898
29	-12.3908
desses	-12.3912
▁areas	-12.3917
dose	-12.3927
▁soulmate	-12.3927
▁beaut	-12.3933
dm	-12.394
arabs	-12.3947
winding	-12.3961
loveis	-12.3963
▁boe	-12.3963
yor	-12.3964
▁officials	-12.3967
mos	-12.3974
▁isle	-12.3974
oiler	-12.3976
streeta	-12.3979
lights	-12.3986
peoples	-12.399
▁kin	-12.399
val	-12.3992
armin	-12.3996
rik	-12.3998
mateen	-12.4001
▁boos	-12.4004
▁cod	-12.4007
▁fw	-12.4008
#	-12.4009
ured	-12.4009
nicolas	-12.401
repoing	-12.4012
▁desse	-12.4014
homeâ	-12.4029
rada	-12.4033
▁glam	-12.4034
▁covers	-12.4041
price	-12.4043
newbooks	-12.4052
psychi	-12.4053
102	-12.406
sine	-12.4067
rba	-12.4082
ande	-12.4088
▁hid	-12.4088
sylv	-12.4094
cation	-12.4097
ags	-12.4099
▁albums	-12.4103
ape	-12.4108
▁stores	-12.4108
liking	-12.4109
nav	-12.4126
▁bros	-12.4126
enci	-12.4135
hir	-12.4145
whynot	-12.4151
▁alien	-12.4156
agents	-12.4157
hoy	-12.416
-2	-12.4167
▁198	-12.4172
swing	-12.4182
deals	-12.4184
61	-12.4187
▁exc	-12.4188
ries	-12.4195
abstracta	-12.4202
▁150	-12.4205
sundaymood	-12.4206
22	-12.4215
mg	-12.4217
▁sil	-12.4217
tla	-12.4223
79	-12.4233
0,	-12.4236
anbury	-12.4237
nightâ	-12.4238
nag	-12.4255
nnell	-12.4265
trace	-12.427
nola	-12.4273
▁slo	-12.4274
mford	-12.4279
▁#33	-12.4281
www	-12.4281
iya	-12.4286
inds	-12.4301
orian	-12.4304
stem	-12.4312
▁adveise	-12.4313
▁conve	-12.4319
vitamins	-12.432
travis	-12.4321
named	-12.4328
vj	-12.4332
▁kas	-12.4333
baked	-12.4333
ubby	-12.4337
ree	-12.4349
▁bake	-12.4361
ndo	-12.4367
kor	-12.4369
ignof	-12.4371
goodto	-12.4376
urf	-12.4377
angled	-12.4379
▁lands	-12.4382
mahi	-12.4383
ully	-12.4384
dge	-12.4385
erry	-12.4385
welf	-12.4385
▁viva	-12.4386
nab	-12.4392
▁$20	-12.4394
issan	-12.4395
planes	-12.4399
eau	-12.4406
sier	-12.441
▁wrapp	-12.4412
indo	-12.4419
withme	-12.4422
▁bestfriends	-12.4432
evans	-12.4434
yulin	-12.4437
gged	-12.4441
musica	-12.4446
sum	-12.4447
▁hott	-12.4449
lor	-12.445
▁grac	-12.4451
eon	-12.4459
▁pho	-12.4461
badm	-12.4464
▁mario	-12.4468
▁freedoms	-12.4469
saâ	-12.4472
area	-12.4478
whati	-12.4479
whoop	-12.4482
poison	-12.4488
suk	-12.4492
uca	-12.4497
▁rescue	-12.4498
latin	-12.4501
boi	-12.4507
▁pour	-12.4508
proudmom	-12.451
▁simpl	-12.4517
▁zoologi	-12.4517
£20	-12.4518
bulldog	-12.4519
▁rela	-12.4526
bone	-12.4533
pper	-12.4536
▁casual	-12.4541
ama	-12.4546
mold	-12.4558
▁parl	-12.4558
loveme	-12.4576
nel	-12.4578
rcs	-12.4583
omo	-12.459
▁mod	-12.4591
lyon	-12.4594
essa	-12.4594
afford	-12.4611
hech	-12.4612
meets	-12.4614
eeeeee	-12.4616
insp	-12.4617
▁unemploy	-12.4618
goingto	-12.4618
▁ap	-12.4618
▁deli	-12.4619
wheels	-12.4625
atana	-12.4625
char	-12.4628
ration	-12.4633
booked	-12.4634
pes	-12.4636
▁shops	-12.4636
unge	-12.4642
begin	-12.4643
av	-12.4643
lined	-12.4646
0.1%	-12.4647
▁zoo	-12.465
incite	-12.4654
andom	-12.4655
▁trigger	-12.4656
ures	-12.4661
optimist	-12.467
drome	-12.4673
lace	-12.4676
challenged	-12.4676
playa	-12.4686
ubis	-12.47
▁rapp	-12.4715
scratch	-12.4719
▁eur	-12.4726
▁thor	-12.4726
▁modes	-12.4744
▁bach	-12.4747
bama	-12.4752
sweets	-12.4755
anya	-12.4757
ique	-12.476
pier	-12.476
morn	-12.4763
▁photograph	-12.4764
onmy	-12.4775
iles	-12.4789
enâ	-12.4789
rill	-12.479
▁creep	-12.4791
thinker	-12.4794
▁orders	-12.4795
espa	-12.4802
sided	-12.4804
nto	-12.4807
alb	-12.4811
gee	-12.4816
hm	-12.4824
▁mock	-12.4825
oli	-12.4834
bust	-12.4835
▁$7	-12.4839
sti	-12.484
▁prompt	-12.484
cker	-12.4843
jc	-12.4846
thesh	-12.4847
▁lov	-12.4847
▁bibl	-12.4847
adela	-12.485
▁maha	-12.4853
▁sim	-12.4854
gwe	-12.4861
▁olds	-12.4861
ont	-12.4865
▁chan	-12.4865
ento	-12.4866
▁melo	-12.4876
wins	-12.4881
▁nikk	-12.4882
lots	-12.4883
inky	-12.4886
villa	-12.4887
astro	-12.4895
▁kil	-12.4896
▁peak	-12.4899
burger	-12.4899
▁nationals	-12.4901
hout	-12.4901
▁71	-12.4904
rl	-12.4913
lime	-12.4915
dol	-12.4918
laying	-12.4931
gang	-12.4935
▁fac	-12.4941
bigly	-12.4947
kimi	-12.4948
rita	-12.4948
vern	-12.4949
wks	-12.495
vasion	-12.4952
placed	-12.4957
ws	-12.4958
▁lush	-12.4958
puts	-12.4963
▁sara	-12.4966
wels	-12.4966
pent	-12.4967
mywine	-12.4974
naru	-12.4977
blad	-12.4986
▁doll	-12.4986
▁consult	-12.4987
▁scal	-12.4991
futur	-12.4993
▁voices	-12.4995
coot	-12.4999
▁produc	-12.5006
▁(2	-12.5009
citizen	-12.5011
bracelet	-12.5011
jr	-12.5012
burgers	-12.5013
▁lave	-12.5025
▁flor	-12.5029
spice	-12.503
athon	-12.5032
clu	-12.5034
6%	-12.5036
llie	-12.5038
▁jen	-12.5042
chicken	-12.5044
▁800	-12.5044
mare	-12.5046
▁woohooo	-12.5046
twee	-12.5049
wax	-12.5054
highlight	-12.5056
tru	-12.5057
democrat	-12.5057
spread	-12.5058
target	-12.5062
▁curse	-12.5063
nostalgi	-12.5064
veggie	-12.5065
argo	-12.5065
laughs	-12.5066
battle	-12.5067
drug	-12.5071
howe	-12.5072
2%	-12.5072
▁robbin	-12.5074
2016#	-12.5075
▁moo	-12.5076
exci	-12.5077
said	-12.5078
account	-12.508
result	-12.5081
arab	-12.5081
dude	-12.5084
icu	-12.5084
shawar	-12.5085
thug	-12.5085
alway	-12.5086
yway	-12.5088
buck	-12.5096
gods	-12.5105
expo	-12.511
thewi	-12.5112
follo	-12.5116
language	-12.5118
▁emi	-12.5118
▁remark	-12.5118
clone	-12.512
▁imitat	-12.5126
lel	-12.5127
vista	-12.5128
wannabe	-12.513
complain	-12.5138
earing	-12.5141
▁92	-12.5142
▁chest	-12.5148
▁welcom	-12.5153
▁39	-12.5154
flourish	-12.5158
gasm	-12.516
optimis	-12.5165
ggies	-12.5165
icant	-12.5166
thanksfor	-12.5167
tear	-12.5167
interest	-12.5168
haram	-12.5174
anon	-12.5174
isit	-12.5176
nner	-12.518
condition	-12.5181
smooth	-12.5181
▁6-	-12.5182
oooo	-12.5183
▁origin	-12.5183
wanna	-12.5186
▁rig	-12.5186
iyan	-12.5187
▁relieve	-12.5188
leigh	-12.5189
doyou	-12.519
▁1.12	-12.519
▁kimb	-12.5192
homophobe	-12.5192
verbal	-12.5192
migraine	-12.5192
dedication	-12.5192
messenger	-12.5192
murphy	-12.5192
spinach	-12.5192
activity	-12.5192
dramatic	-12.5193
wordpress	-12.5193
elliot	-12.5193
ankara	-12.5193
jonas	-12.5193
couture	-12.5195
soros	-12.5195
strategy	-12.5195
marble	-12.5195
push	-12.5196
livin	-12.5197
howard	-12.5197
bowl	-12.5197
imples	-12.5197
spaces	-12.5198
oneplus	-12.5198
aquarium	-12.5198
numb	-12.5199
suffer	-12.5199
blair	-12.5201
freebie	-12.5203
apparel	-12.5203
umbrella	-12.5204
rockstar	-12.5204
bullet	-12.5204
▁?????	-12.5205
extra	-12.5205
understand	-12.5208
airline	-12.521
vandal	-12.521
indoor	-12.521
wank	-12.521
mail	-12.5211
▁wohooo	-12.5212
▁rac	-12.5212
unfounate	-12.5213
steel	-12.5213
shattered	-12.5213
xenophobic	-12.5213
illusion	-12.5213
pastel	-12.5214
cassie	-12.5214
athlete	-12.5214
ironic	-12.5214
legitimate	-12.5214
agency	-12.5214
barrel	-12.5214
delusional	-12.5214
iraq	-12.5214
seattle	-12.5214
giggles	-12.5215
comfoable	-12.5215
banana	-12.5215
rooney	-12.5215
8%	-12.5215
sync	-12.5215
georgia	-12.5216
aruba	-12.5216
horizon	-12.5216
braid	-12.5217
▁nr	-12.5217
bakery	-12.5217
soap	-12.5221
classmate	-12.5222
9.00	-12.5222
continued	-12.5222
kardashian	-12.5222
arsenal	-12.5222
hedgehog	-12.5222
identity	-12.5222
laundry	-12.5222
monitor	-12.5222
sociopath	-12.5222
▁application	-12.5222
subscribe	-12.5222
stylish	-12.5223
finish	-12.5223
rigged	-12.5223
▁contestant	-12.5223
disrespectful	-12.5223
ukrunchat	-12.5223
alaska	-12.5223
disband	-12.5223
destruction	-12.5224
thirst	-12.5224
knitting	-12.5224
vanity	-12.5224
spider	-12.5224
reflection	-12.5225
peru	-12.5225
speechless	-12.5227
4%	-12.5227
developer	-12.5227
argentina	-12.5227
fascinating	-12.5227
avocado	-12.5228
inauguration	-12.5228
disabled	-12.5228
grove	-12.5228
narrative	-12.5228
sorrow	-12.5228
publish	-12.5228
wendy	-12.5228
britain	-12.5228
pepper	-12.5228
affair	-12.5228
through	-12.5228
jones	-12.5228
resignation	-12.5229
▁loop	-12.5229
fatty	-12.5229
deplorable	-12.5229
couch	-12.5229
emma	-12.523
ambassador	-12.523
legal	-12.523
impressive	-12.523
passionate	-12.523
heaache	-12.523
destroying	-12.5231
decent	-12.5231
harmony	-12.5231
disaster	-12.5231
brithday	-12.5231
▁frnd	-12.5231
lauren	-12.5231
tomato	-12.5232
grief	-12.5232
kidding	-12.5232
hopeless	-12.5232
taxi	-12.5232
veterans	-12.5232
rehearsal	-12.5232
equal	-12.5233
century	-12.5233
extremism	-12.5233
legacy	-12.5233
albea	-12.5233
gordie	-12.5233
dallas	-12.5233
disorder	-12.5233
twat	-12.5233
mourn	-12.5233
suppoive	-12.5234
disappointment	-12.5234
[...]
